{
    "max_merges": 8000,
    "vocab_str": {
        "0": "<0x00>",
        "1": "<0x01>",
        "2": "<0x02>",
        "3": "<0x03>",
        "4": "<0x04>",
        "5": "<0x05>",
        "6": "<0x06>",
        "7": "<0x07>",
        "8": "<0x08>",
        "9": "<0x09>",
        "10": "<0x0A>",
        "11": "<0x0B>",
        "12": "<0x0C>",
        "13": "<0x0D>",
        "14": "<0x0E>",
        "15": "<0x0F>",
        "16": "<0x10>",
        "17": "<0x11>",
        "18": "<0x12>",
        "19": "<0x13>",
        "20": "<0x14>",
        "21": "<0x15>",
        "22": "<0x16>",
        "23": "<0x17>",
        "24": "<0x18>",
        "25": "<0x19>",
        "26": "<0x1A>",
        "27": "<0x1B>",
        "28": "<0x1C>",
        "29": "<0x1D>",
        "30": "<0x1E>",
        "31": "<0x1F>",
        "32": "\u00b7",
        "33": "!",
        "34": "\"",
        "35": "#",
        "36": "$",
        "37": "%",
        "38": "&",
        "39": "'",
        "40": "(",
        "41": ")",
        "42": "*",
        "43": "+",
        "44": ",",
        "45": "-",
        "46": ".",
        "47": "/",
        "48": "0",
        "49": "1",
        "50": "2",
        "51": "3",
        "52": "4",
        "53": "5",
        "54": "6",
        "55": "7",
        "56": "8",
        "57": "9",
        "58": ":",
        "59": ";",
        "60": "<",
        "61": "=",
        "62": ">",
        "63": "?",
        "64": "@",
        "65": "A",
        "66": "B",
        "67": "C",
        "68": "D",
        "69": "E",
        "70": "F",
        "71": "G",
        "72": "H",
        "73": "I",
        "74": "J",
        "75": "K",
        "76": "L",
        "77": "M",
        "78": "N",
        "79": "O",
        "80": "P",
        "81": "Q",
        "82": "R",
        "83": "S",
        "84": "T",
        "85": "U",
        "86": "V",
        "87": "W",
        "88": "X",
        "89": "Y",
        "90": "Z",
        "91": "[",
        "92": "\\",
        "93": "]",
        "94": "^",
        "95": "_",
        "96": "`",
        "97": "a",
        "98": "b",
        "99": "c",
        "100": "d",
        "101": "e",
        "102": "f",
        "103": "g",
        "104": "h",
        "105": "i",
        "106": "j",
        "107": "k",
        "108": "l",
        "109": "m",
        "110": "n",
        "111": "o",
        "112": "p",
        "113": "q",
        "114": "r",
        "115": "s",
        "116": "t",
        "117": "u",
        "118": "v",
        "119": "w",
        "120": "x",
        "121": "y",
        "122": "z",
        "123": "{",
        "124": "|",
        "125": "}",
        "126": "~",
        "127": "<0x7F>",
        "128": "<0x80>",
        "129": "<0x81>",
        "130": "<0x82>",
        "131": "<0x83>",
        "132": "<0x84>",
        "133": "<0x85>",
        "134": "<0x86>",
        "135": "<0x87>",
        "136": "<0x88>",
        "137": "<0x89>",
        "138": "<0x8A>",
        "139": "<0x8B>",
        "140": "<0x8C>",
        "141": "<0x8D>",
        "142": "<0x8E>",
        "143": "<0x8F>",
        "144": "<0x90>",
        "145": "<0x91>",
        "146": "<0x92>",
        "147": "<0x93>",
        "148": "<0x94>",
        "149": "<0x95>",
        "150": "<0x96>",
        "151": "<0x97>",
        "152": "<0x98>",
        "153": "<0x99>",
        "154": "<0x9A>",
        "155": "<0x9B>",
        "156": "<0x9C>",
        "157": "<0x9D>",
        "158": "<0x9E>",
        "159": "<0x9F>",
        "160": "<0xA0>",
        "161": "<0xA1>",
        "162": "<0xA2>",
        "163": "<0xA3>",
        "164": "<0xA4>",
        "165": "<0xA5>",
        "166": "<0xA6>",
        "167": "<0xA7>",
        "168": "<0xA8>",
        "169": "<0xA9>",
        "170": "<0xAA>",
        "171": "<0xAB>",
        "172": "<0xAC>",
        "173": "<0xAD>",
        "174": "<0xAE>",
        "175": "<0xAF>",
        "176": "<0xB0>",
        "177": "<0xB1>",
        "178": "<0xB2>",
        "179": "<0xB3>",
        "180": "<0xB4>",
        "181": "<0xB5>",
        "182": "<0xB6>",
        "183": "<0xB7>",
        "184": "<0xB8>",
        "185": "<0xB9>",
        "186": "<0xBA>",
        "187": "<0xBB>",
        "188": "<0xBC>",
        "189": "<0xBD>",
        "190": "<0xBE>",
        "191": "<0xBF>",
        "192": "<0xC0>",
        "193": "<0xC1>",
        "194": "<0xC2>",
        "195": "<0xC3>",
        "196": "<0xC4>",
        "197": "<0xC5>",
        "198": "<0xC6>",
        "199": "<0xC7>",
        "200": "<0xC8>",
        "201": "<0xC9>",
        "202": "<0xCA>",
        "203": "<0xCB>",
        "204": "<0xCC>",
        "205": "<0xCD>",
        "206": "<0xCE>",
        "207": "<0xCF>",
        "208": "<0xD0>",
        "209": "<0xD1>",
        "210": "<0xD2>",
        "211": "<0xD3>",
        "212": "<0xD4>",
        "213": "<0xD5>",
        "214": "<0xD6>",
        "215": "<0xD7>",
        "216": "<0xD8>",
        "217": "<0xD9>",
        "218": "<0xDA>",
        "219": "<0xDB>",
        "220": "<0xDC>",
        "221": "<0xDD>",
        "222": "<0xDE>",
        "223": "<0xDF>",
        "224": "<0xE0>",
        "225": "<0xE1>",
        "226": "<0xE2>",
        "227": "<0xE3>",
        "228": "<0xE4>",
        "229": "<0xE5>",
        "230": "<0xE6>",
        "231": "<0xE7>",
        "232": "<0xE8>",
        "233": "<0xE9>",
        "234": "<0xEA>",
        "235": "<0xEB>",
        "236": "<0xEC>",
        "237": "<0xED>",
        "238": "<0xEE>",
        "239": "<0xEF>",
        "240": "<0xF0>",
        "241": "<0xF1>",
        "242": "<0xF2>",
        "243": "<0xF3>",
        "244": "<0xF4>",
        "245": "<0xF5>",
        "246": "<0xF6>",
        "247": "<0xF7>",
        "248": "<0xF8>",
        "249": "<0xF9>",
        "250": "<0xFA>",
        "251": "<0xFB>",
        "252": "<0xFC>",
        "253": "<0xFD>",
        "254": "<0xFE>",
        "255": "<0xFF>",
        "256": "<UNK>",
        "257": "<EOS>",
        "258": "o ",
        "259": "a ",
        "260": "l ",
        "261": "ar",
        "262": "n ",
        "263": "er",
        "264": ". ",
        "265": "s ",
        "266": ", ",
        "267": "\u00ed",
        "268": "e ",
        "269": "\u00f3",
        "270": "el ",
        "271": "\n\n",
        "272": "y ",
        "273": "co",
        "274": "en",
        "275": "El ",
        "276": "to",
        "277": "di",
        "278": "ab",
        "279": "qu",
        "280": "\u00eda ",
        "281": "es",
        "282": ".\n\n",
        "283": "\u00f3 ",
        "284": "ej",
        "285": "os ",
        "286": "\u00e1",
        "287": "or",
        "288": "un",
        "289": "al",
        "290": "jar",
        "291": "an",
        "292": "la ",
        "293": "un ",
        "294": "ero ",
        "295": ": ",
        "296": "\u00a1",
        "297": "in",
        "298": ". El ",
        "299": "con",
        "300": "dij",
        "301": "ol",
        "302": "am",
        "303": "el",
        "304": "\u00e1jar",
        "305": "ri",
        "306": "no ",
        "307": ", p",
        "308": "ar ",
        "309": "on ",
        "310": "as",
        "311": "p\u00e1jar",
        "312": "conej",
        "313": "on",
        "314": "ti",
        "315": ", pero ",
        "316": "que ",
        "317": "os",
        "318": "ad",
        "319": "y el ",
        "320": "es ",
        "321": "La ",
        "322": ": \"",
        "323": "tr",
        "324": "mp",
        "325": "p\u00e1jaro ",
        "326": "una ",
        "327": "ug",
        "328": "dijo",
        "329": "conejo ",
        "330": "as ",
        "331": "ll",
        "332": "to ",
        "333": "en ",
        "334": "ten",
        "335": "unto",
        "336": "o. ",
        "337": "se ",
        "338": "de ",
        "339": "ci",
        "340": "aba",
        "341": "vi",
        "342": "!\"",
        "343": "po",
        "344": "su",
        "345": "\u00eda",
        "346": "dijo: \"",
        "347": "eron ",
        "348": "ab\u00eda ",
        "349": "pr",
        "350": "ud",
        "351": "\ufffd\ufffd",
        "352": "\u2014",
        "353": "eg",
        "354": "mi",
        "355": "pa",
        "356": "bi",
        "357": "ces",
        "358": "\u00f1",
        "359": "est",
        "360": "ay",
        "361": "quer",
        "362": "dos ",
        "363": "\u00e9",
        "364": "a. ",
        "365": "junto",
        "366": "par",
        "367": "eli",
        "368": "pi",
        "369": ".\n\nEl ",
        "370": "ed",
        "371": "pod",
        "372": "per",
        "373": "tor",
        "374": "aba ",
        "375": "ch",
        "376": "ta ",
        "377": "feli",
        "378": "! ",
        "379": "tug",
        "380": "\n\nE",
        "381": "ayud",
        "382": "te",
        "383": "sol",
        "384": "o, ",
        "385": "lo ",
        "386": "si",
        "387": "al ",
        "388": ", pero no ",
        "389": "er ",
        "390": "los ",
        "391": "gr",
        "392": "dijo: \"\u00a1",
        "393": "ni",
        "394": "ac",
        "395": "dijo ",
        "396": "quer\u00eda ",
        "397": "\n\nEn ",
        "398": "or ",
        "399": "em",
        "400": "pu",
        "401": "gu",
        "402": "ra",
        "403": "mu",
        "404": "tuga ",
        "405": ", el ",
        "406": "a: ",
        "407": "para ",
        "408": "cu",
        "409": "t\u00f3",
        "410": "pod\u00eda ",
        "411": "Mor",
        "412": "eja: ",
        "413": "aleja: ",
        "414": "Moraleja: ",
        "415": "ten\u00eda ",
        "416": "hab\u00eda ",
        "417": "ro ",
        "418": "ve",
        "419": "do ",
        "420": "te ",
        "421": "endi",
        "422": "con ",
        "423": "prendi",
        "424": "qui",
        "425": "abajar",
        "426": "mej",
        "427": "o.\n\n",
        "428": "tortuga ",
        "429": "r ",
        "430": "li",
        "431": "Yo ",
        "432": "fu",
        "433": "aron ",
        "434": "juntos",
        "435": "t\u00f3 ",
        "436": "era ",
        "437": "ta",
        "438": "arti",
        "439": "can",
        "440": "comp",
        "441": "su ",
        "442": "\"\u00a1",
        "443": "la",
        "444": "jug",
        "445": "o. El ",
        "446": "de",
        "447": "y un ",
        "448": "pe",
        "449": "sal",
        "450": "estaba ",
        "451": "Un ",
        "452": "abajar ",
        "453": "\u00fa",
        "454": "\u00f3. ",
        "455": ".\"",
        "456": ".\n\nMoraleja: ",
        "457": "m\u00e1",
        "458": "en el ",
        "459": "co ",
        "460": "bu",
        "461": "vol",
        "462": "\u00edan ",
        "463": "Pero ",
        "464": "tu",
        "465": "gran",
        "466": "felices",
        "467": "vio ",
        "468": "dijo el ",
        "469": "perro ",
        "470": "ni\u00f1",
        "471": "agu",
        "472": "so",
        "473": "\u00f3 y ",
        "474": "las ",
        "475": "muy ",
        "476": "emp",
        "477": ". A",
        "478": "hac",
        "479": "!\", ",
        "480": "mo",
        "481": "ambi",
        "482": "re",
        "483": "prendieron ",
        "484": "ito ",
        "485": "z ",
        "486": "\u00e1pi",
        "487": ". La ",
        "488": "Junto",
        "489": "ado ",
        "490": "prendieron que ",
        "491": "ro",
        "492": "rat\u00f3",
        "493": "No ",
        "494": "d\u00eda",
        "495": "ami",
        "496": "mejor ",
        "497": "cor",
        "498": "Los ",
        "499": "lu",
        "500": "mer",
        "501": "pel",
        "502": "Lol",
        "503": "hab\u00eda un ",
        "504": "\u00fa ",
        "505": "!\" ",
        "506": "ev",
        "507": "que",
        "508": "Qu",
        "509": "do",
        "510": "lar",
        "511": ". El p\u00e1jaro ",
        "512": "Fin",
        "513": ".\n\nA",
        "514": "comparti",
        "515": "fin",
        "516": "amos ",
        "517": "rat\u00f3n ",
        "518": "juntos ",
        "519": "m\u00e1s ",
        "520": "le ",
        "521": "se",
        "522": ". El conejo ",
        "523": "r\u00e1pi",
        "524": "ina ",
        "525": "Un d\u00eda",
        "526": "final",
        "527": "trabajar ",
        "528": "To",
        "529": "ob",
        "530": "Fin.",
        "531": "Hab\u00eda ",
        "532": "an ",
        "533": "l final",
        "534": "a, ",
        "535": "go ",
        "536": "fr",
        "537": "son",
        "538": "gan",
        "539": "ejo ",
        "540": "todos ",
        "541": "Tr",
        "542": "tri",
        "543": "otr",
        "544": "\n\nHab\u00eda ",
        "545": ", pero no pod\u00eda ",
        "546": "S\u00ed",
        "547": "mb",
        "548": "\n\nEn un ",
        "549": "\n\nEl ",
        "550": "en la ",
        "551": "comi",
        "552": "mpi",
        "553": "aj",
        "554": "emos ",
        "555": "Lu",
        "556": ", pero el ",
        "557": "aban ",
        "558": "ga",
        "559": "yo ",
        "560": "pued",
        "561": "fuer",
        "562": "ens",
        "563": "Los dos ",
        "564": "o y ",
        "565": "ambi\u00e9",
        "566": "Con",
        "567": "abl",
        "568": "fi",
        "569": "ton",
        "570": "y el P",
        "571": "abaj",
        "572": "sonri",
        "573": "tris",
        "574": "Co",
        "575": "del ",
        "576": "hor",
        "577": "us",
        "578": "amig",
        "579": "La tortuga ",
        "580": ".\n\nFin.",
        "581": "es mejor ",
        "582": "T\u00fa ",
        "583": "y el p\u00e1jaro ",
        "584": "\n\nEn una ",
        "585": "\n\u2014",
        "586": "feliz",
        "587": "que\u00f1",
        "588": "peque\u00f1",
        "589": "pri",
        "590": "tar",
        "591": "ca ",
        "592": "s, ",
        "593": "\u00e9 ",
        "594": "tonces",
        "595": "cal",
        "596": "tambi\u00e9",
        "597": "ando ",
        "598": "buen",
        "599": "cer",
        "600": "hi",
        "601": "re ",
        "602": "ver",
        "603": "! \u2014",
        "604": "Li",
        "605": "des",
        "606": "ntonces",
        "607": "\u00f3n ",
        "608": "bo",
        "609": "bon",
        "610": "ito",
        "611": "\u00bf",
        "612": "lleg",
        "613": "ada ",
        "614": "clar",
        "615": "vo ",
        "616": ". \u00a1",
        "617": "!\n\n",
        "618": "res",
        "619": "viv",
        "620": ".\n\nEl conejo ",
        "621": "ni\u00f1o ",
        "622": "sol ",
        "623": "ip",
        "624": "o.",
        "625": "\u00f3: \"",
        "626": "prob",
        "627": "car",
        "628": "\u00f3 el ",
        "629": "bien",
        "630": "Un d\u00eda, ",
        "631": "\n\nHab\u00eda una ",
        "632": "llam",
        "633": "agua ",
        "634": "pas",
        "635": "pato ",
        "636": ".\" ",
        "637": "pens",
        "638": "ue",
        "639": "empu",
        "640": "Entonces",
        "641": "pal",
        "642": "y la ",
        "643": "cas",
        "644": "lem",
        "645": "ra ",
        "646": "problem",
        "647": "lor",
        "648": "ar a ",
        "649": "ayudar",
        "650": ".\n\nAl final",
        "651": "Conejo ",
        "652": "all",
        "653": "so ",
        "654": "mejor",
        "655": "qued",
        "656": "sus ",
        "657": ", hab\u00eda un ",
        "658": "quer\u00edan ",
        "659": "primer",
        "660": "Juntos ",
        "661": "Vamos ",
        "662": "bri",
        "663": "com",
        "664": "llev",
        "665": "grande ",
        "666": "s\u00ed",
        "667": "tan",
        "668": "lo",
        "669": ". Aprendieron que ",
        "670": "triste",
        "671": "viv\u00eda ",
        "672": "ca",
        "673": "nad",
        "674": "tas",
        "675": "eron",
        "676": ". \"\u00a1",
        "677": "\u00f3 que ",
        "678": "fru",
        "679": "es mejor que ",
        "680": "quiero ",
        "681": "Lolo ",
        "682": "dos",
        "683": "i ",
        "684": "mar",
        "685": "oj",
        "686": "\u00f3n",
        "687": "dio ",
        "688": "dijo: \"\u00a1Yo ",
        "689": ", el conejo ",
        "690": ". Pero ",
        "691": "cion",
        "692": "Y ",
        "693": "ces ",
        "694": "ter",
        "695": "much",
        "696": "?\"",
        "697": ".\n\n\u2014",
        "698": "compartir ",
        "699": "inten",
        "700": "aprendi",
        "701": "\u00f3 la ",
        "702": "\u00f3 un ",
        "703": "Trabajar ",
        "704": "brill",
        "705": "cam",
        "706": "sab\u00eda ",
        "707": "los dos ",
        "708": "eces",
        "709": "por",
        "710": "reg",
        "711": "\u00f3 a ",
        "712": "\u00f3 al ",
        "713": "hace ",
        "714": "puedo ",
        "715": "qued\u00f3 ",
        "716": "ita ",
        "717": "tar ",
        "718": "no pod\u00eda ",
        "719": "limpi",
        "720": "grande",
        "721": "Comp",
        "722": "habl",
        "723": "lla ",
        "724": "a a ",
        "725": "a ve",
        "726": "de la ",
        "727": "!\", dijo el ",
        "728": "car ",
        "729": "es buen",
        "730": "ego",
        "731": "!\" El ",
        "732": "bar",
        "733": "le",
        "734": "\u00e1r",
        "735": "estaban ",
        "736": "Vamos a ",
        "737": "\", ",
        "738": "Ay",
        "739": "Lina ",
        "740": "do. ",
        "741": "abr",
        "742": "inti",
        "743": ".\n\nEl p\u00e1jaro ",
        "744": "tuvo ",
        "745": "hacer ",
        "746": "man",
        "747": "ser ",
        "748": "ta. ",
        "749": "trabaj",
        "750": "pati",
        "751": "solo ",
        "752": "Qui",
        "753": "y el P\u00e1jar",
        "754": "Lila ",
        "755": "Es",
        "756": "eb",
        "757": "entr",
        "758": "ego ",
        "759": "pajar",
        "760": "ha",
        "761": "mo ",
        "762": "pud",
        "763": "tes",
        "764": "intent\u00f3 ",
        "765": "sin ",
        "766": "pele",
        "767": "av",
        "768": "da ",
        "769": "pon",
        "770": ": \"\u00a1",
        "771": "ayuda a ",
        "772": "Pip",
        "773": "au",
        "774": "cuando ",
        "775": "hab\u00eda una ",
        "776": ".\"\n\nEl ",
        "777": "tur",
        "778": "Comparti",
        "779": "f\u00ed",
        "780": "ver ",
        "781": "aron",
        "782": "El Conejo ",
        "783": "pu\u00e9",
        "784": "vez ",
        "785": "corri",
        "786": "fuerte",
        "787": "a\u00f1",
        "788": "ien",
        "789": "alto",
        "790": "conten",
        "791": "ten\u00eda un ",
        "792": "Juntos, ",
        "793": "le dio ",
        "794": "mbos ",
        "795": "gato ",
        "796": "Trabajar juntos ",
        "797": "porque ",
        "798": "gall",
        "799": ", y el ",
        "800": "tambi\u00e9n ",
        "801": "\n\nHab\u00eda una vez ",
        "802": "gi",
        "803": "hu",
        "804": "pol",
        "805": "tas ",
        "806": "\u00eds",
        "807": "amigos",
        "808": "! \u2014dijo el ",
        "809": "palabr",
        "810": "aprendi\u00f3 que ",
        "811": "a.\n\n",
        "812": "eron felices",
        "813": "otros ",
        "814": "ego\u00eds",
        "815": "Compartir ",
        "816": "Si ",
        "817": "Tor",
        "818": "eti",
        "819": "fer",
        "820": "o\"",
        "821": ". \"",
        "822": "tom",
        "823": "se s",
        "824": "se en",
        "825": "cidi",
        "826": "ces, ",
        "827": ", y ",
        "828": "as)",
        "829": "salt\u00f3 ",
        "830": " palabr",
        "831": "9 palabr",
        "832": "ahor",
        "833": "pl",
        "834": "mi ",
        "835": "9 palabras)",
        "836": "oper",
        "837": "ar clar",
        "838": "mir",
        "839": "49 palabras)",
        "840": "a. El ",
        "841": "fan",
        "842": "tien",
        "843": "si ",
        "844": "trabajar juntos",
        "845": "Tobi",
        "846": "empuj",
        "847": "turn",
        "848": "(2",
        "849": "Gra",
        "850": "cambi",
        "851": "abri",
        "852": "o. \u00a1",
        "853": "poco ",
        "854": "\u00f3. \"\u00a1",
        "855": "corr",
        "856": "llamado ",
        "857": "(249 palabras)",
        "858": "Graci",
        "859": "Des",
        "860": "ul",
        "861": "jugar",
        "862": "mono ",
        "863": "Lui",
        "864": "pajarito ",
        "865": "por ",
        "866": "a la ",
        "867": "La Tor",
        "868": "subi",
        "869": "solos",
        "870": "sigu",
        "871": "o. El p\u00e1jaro ",
        "872": "vio al ",
        "873": "luego ",
        "874": "\n\u2014\u00a1",
        "875": "A ",
        "876": "Le",
        "877": "ez",
        "878": "od",
        "879": "eres ",
        "880": "dis",
        "881": "escu",
        "882": "poco",
        "883": ".\n\nAl final, ",
        "884": "hay ",
        "885": "So",
        "886": "gri",
        "887": "osa ",
        "888": "ado",
        "889": "en un ",
        "890": "cangr",
        "891": "Pipo ",
        "892": "ba",
        "893": "zo ",
        "894": "todos",
        "895": "\u00f3 con ",
        "896": "ar el ",
        "897": "que todos ",
        "898": "lib",
        "899": "!\", dijo",
        "900": "r\u00e1pido",
        "901": "Sol",
        "902": "cin",
        "903": "t\u00fa ",
        "904": ".\n\nLa ",
        "905": "y el conejo ",
        "906": "\n\nEn el ",
        "907": ".\"\n\n",
        "908": "movi",
        "909": "tambi\u00e9n",
        "910": "Despu\u00e9",
        "911": "La Tortuga ",
        "912": "ide",
        "913": "mis",
        "914": "dijo: \"\u00a1S\u00ed",
        "915": "dijo la ",
        "916": "competi",
        "917": "Quer",
        "918": "bol ",
        "919": "bonito",
        "920": "problemas ",
        "921": "baj",
        "922": "cad",
        "923": "na ",
        "924": "pin",
        "925": "sac",
        "926": "conejito ",
        "927": "eron un ",
        "928": "tortug",
        "929": "solo",
        "930": "jugar ",
        "931": "Todos ",
        "932": "boni",
        "933": "pens\u00f3: \"",
        "934": "Ayud",
        "935": "se sinti",
        "936": "ar claro ",
        "937": "Gracias",
        "938": "da",
        "939": "r\u00ed",
        "940": "taba ",
        "941": "a. \"\u00a1",
        "942": "veces, ",
        "943": "vol\u00f3 ",
        "944": ". La tortuga ",
        "945": "estaban felices",
        "946": "\". ",
        "947": "Pu",
        "948": "me ",
        "949": "a no ",
        "950": "ente ",
        "951": "din",
        "952": "dibu",
        "953": "fue ",
        "954": "decidi",
        "955": ".\" El ",
        "956": "ar a otros ",
        "957": "viv\u00eda un ",
        "958": "contento",
        "959": "bol",
        "960": "eta ",
        "961": "imp",
        "962": "les ",
        "963": "ele",
        "964": "as y ",
        "965": "o de ",
        "966": "\u00f3. El ",
        "967": "color",
        "968": "suel",
        "969": ".\n\nMoraleja: Trabajar juntos ",
        "970": "\u00e1rbol ",
        "971": "operar ",
        "972": "Se ",
        "973": "flor",
        "974": "neces",
        "975": "o! ",
        "976": "tes ",
        "977": "a de ",
        "978": ", la ",
        "979": "cos",
        "980": "diver",
        "981": ".\n\n(249 palabras)",
        "982": "contr",
        "983": "tra",
        "984": "paci",
        "985": "quiso ",
        "986": "jugue",
        "987": "Trabaj",
        "988": "empujar",
        "989": "camin",
        "990": "Luis ",
        "991": "A veces, ",
        "992": "odemos ",
        "993": "ar claro ayuda a ",
        "994": "fo",
        "995": "im",
        "996": "las",
        "997": "pes",
        "998": "pan",
        "999": "za",
        "1000": "zan",
        "1001": "o y el ",
        "1002": "enten",
        "1003": "algo ",
        "1004": "asta ",
        "1005": "que el ",
        "1006": "es mejor",
        "1007": "che ",
        "1008": "solu",
        "1009": "era muy ",
        "1010": "lav",
        "1011": "o. El conejo ",
        "1012": "hace que todos ",
        "1013": "pudo ",
        "1014": "impor",
        "1015": "diverti",
        "1016": "As\u00ed",
        "1017": "No, ",
        "1018": "az",
        "1019": "ru",
        "1020": "estr",
        "1021": "amos",
        "1022": "o. La ",
        "1023": "!\"\n\n",
        "1024": ", pero no sab\u00eda ",
        "1025": "vez",
        "1026": "Qu\u00e9 ",
        "1027": "Un d\u00eda, el ",
        "1028": "ficar ",
        "1029": "hici",
        "1030": "y el P\u00e1jaro ",
        "1031": "Al final",
        "1032": "aprendieron que ",
        "1033": "bal",
        "1034": "cay",
        "1035": "o\n\nEn un ",
        "1036": "enfer",
        "1037": ".\n\nEntonces",
        "1038": "amb",
        "1039": "volar",
        "1040": "Pero el ",
        "1041": "respe",
        "1042": "llamada ",
        "1043": "disfru",
        "1044": "solucion",
        "1045": "hel",
        "1046": "id",
        "1047": "ja ",
        "1048": "s, el ",
        "1049": "za ",
        "1050": "ari",
        "1051": "uno ",
        "1052": "La C",
        "1053": "llor",
        "1054": "se solucion",
        "1055": "abajaron ",
        "1056": "fueron felices",
        "1057": "volar ",
        "1058": "an mejor ",
        "1059": "sonri\u00f3 y ",
        "1060": "grande y ",
        "1061": "se solucionan mejor ",
        "1062": "hasta ",
        "1063": "min",
        "1064": "tin",
        "1065": "tad",
        "1066": "comer",
        "1067": "encontr",
        "1068": "orro ",
        "1069": ". El perro ",
        "1070": "as\u00ed",
        "1071": "dijo: \"Yo ",
        "1072": "compartir",
        "1073": "trabajar juntos ",
        "1074": "past",
        "1075": "primero, ",
        "1076": "pelear",
        "1077": "Tobi ",
        "1078": "La Tortuga y el ",
        "1079": "sacri",
        "1080": "elefan",
        "1081": "Tin",
        "1082": "hab",
        "1083": "hoj",
        "1084": "ven",
        "1085": "todo ",
        "1086": "dilla ",
        "1087": "\u00e1 ",
        "1088": "alg",
        "1089": "conejo y un ",
        "1090": "\u2014dijo el ",
        "1091": "los problemas ",
        "1092": "te ayud",
        "1093": "quier",
        "1094": "o.\n\n\u2014",
        "1095": "o.\n\nMoraleja: ",
        "1096": "primero",
        "1097": "plan",
        "1098": "escuch",
        "1099": "cangrejo ",
        "1100": "mismo ",
        "1101": "sacrificar ",
        "1102": "Ahor",
        "1103": "Podemos ",
        "1104": "ce",
        "1105": "der",
        "1106": "ep",
        "1107": "nu",
        "1108": "ran",
        "1109": ". Un ",
        "1110": "dif\u00ed",
        "1111": "llen",
        "1112": "felices ",
        "1113": "o, el ",
        "1114": "agua",
        "1115": "r\u00e1pido ",
        "1116": "\n\nHab\u00eda un ",
        "1117": "\u00bfQui",
        "1118": "comer ",
        "1119": "hay que ",
        "1120": "primero, luego ",
        "1121": "dif\u00edci",
        "1122": "c\u00e1",
        "1123": "fe",
        "1124": "taron ",
        "1125": ". Un d\u00eda, ",
        "1126": "y quer\u00eda ",
        "1127": "colu",
        "1128": "ento",
        "1129": "ento ",
        "1130": ".\n\nLa tortuga ",
        "1131": "os, ",
        "1132": "o. \"\u00a1",
        "1133": "puso ",
        "1134": "raz",
        "1135": "cans",
        "1136": ".\n\nMoraleja: Compartir ",
        "1137": "vio el ",
        "1138": "es mejor que trabajar ",
        "1139": "ser ego\u00eds",
        "1140": "sigui",
        "1141": "columpi",
        "1142": "Neces",
        "1143": "lad",
        "1144": "arr",
        "1145": "tiemp",
        "1146": "llo ",
        "1147": "pato",
        "1148": "pied",
        "1149": "siemp",
        "1150": "cant\u00f3 ",
        "1151": "roj",
        "1152": "semi",
        "1153": "r\u00e1pido. ",
        "1154": "logr",
        "1155": "a vez",
        "1156": "Quer\u00edan ",
        "1157": "ola ",
        "1158": "ya no ",
        "1159": "a y ",
        "1160": ". Los dos ",
        "1161": "\u00f3 su ",
        "1162": "osito ",
        "1163": "llos ",
        "1164": "pez ",
        "1165": "Tom",
        "1166": "emos juntos",
        "1167": "amigos ",
        "1168": "iposa ",
        "1169": ".\n\nAl final, el ",
        "1170": "\", dijo",
        "1171": "\n\nHab\u00eda una vez un ",
        "1172": "Sol ",
        "1173": "se sinti\u00f3 ",
        "1174": "dif\u00edciles ",
        "1175": "Aprendieron que ",
        "1176": "c\u00f3",
        "1177": "dej",
        "1178": "la. ",
        "1179": "o.\n\nEl ",
        "1180": "o para ",
        "1181": "\u00edn",
        "1182": "abej",
        "1183": "alas ",
        "1184": "una tortuga ",
        "1185": "una ide",
        "1186": "mig",
        "1187": "\u00e9n ",
        "1188": "ten\u00eda una ",
        "1189": "lieb",
        "1190": ". As\u00ed",
        "1191": "pelo",
        "1192": "sonri\u00f3. ",
        "1193": "Quiero ",
        "1194": "Leo ",
        "1195": "competir ",
        "1196": "Pued",
        "1197": "importan",
        "1198": "\u00bfQuieres ",
        "1199": "Ambos ",
        "1200": "Lo ",
        "1201": "del",
        "1202": "lug",
        "1203": "ardilla ",
        "1204": "ori",
        "1205": "vieron ",
        "1206": "\u00e9di",
        "1207": "ta vez",
        "1208": ", pero no ten\u00eda ",
        "1209": "\n\nEn la ",
        "1210": "jugaron ",
        "1211": "somb",
        "1212": "ahori",
        "1213": "Trabajemos juntos",
        "1214": "zanahori",
        "1215": "elefante ",
        "1216": "siempre ",
        "1217": "dif\u00edciles se solucionan mejor ",
        "1218": "Cu",
        "1219": "adi",
        "1220": "dul",
        "1221": "ir",
        "1222": "o, pero ",
        "1223": "a y el ",
        "1224": "El P",
        "1225": "aleg",
        "1226": "to y ",
        "1227": "tengo ",
        "1228": "\u2014dijo ",
        "1229": "egu",
        "1230": "quer\u00eda ayudar",
        "1231": "cuid",
        "1232": "No pod",
        "1233": "Lolo y ",
        "1234": "r\u00e1pid",
        "1235": "cerca ",
        "1236": "\u00f3: \"\u00a1",
        "1237": "brillan",
        "1238": "se enoj",
        "1239": "poco de ",
        "1240": "Pab",
        "1241": "Ti",
        "1242": "caj",
        "1243": "ex",
        "1244": "lob",
        "1245": "ma",
        "1246": "mero ",
        "1247": "m\u00e9di",
        "1248": "pla",
        "1249": "sa",
        "1250": "son ",
        "1251": "tam",
        "1252": "ara\u00f1",
        "1253": "y los ",
        "1254": "cooperar ",
        "1255": "ena ",
        "1256": "ar la ",
        "1257": "en su ",
        "1258": "pico",
        "1259": "al mismo ",
        "1260": "Yo quiero ",
        "1261": "estaba feliz",
        "1262": "ni\u00f1os ",
        "1263": "pelu",
        "1264": "calen",
        "1265": "!\n\nMoraleja: ",
        "1266": ".\n\n\u2014\u00a1",
        "1267": "iente",
        "1268": "huev",
        "1269": "decidieron ",
        "1270": "Pablo ",
        "1271": "al mismo tiemp",
        "1272": "Ellos ",
        "1273": "Habl",
        "1274": "Lin",
        "1275": "Lola ",
        "1276": "cab",
        "1277": "ir ",
        "1278": "l\u00e1pi",
        "1279": "po ",
        "1280": "ser",
        "1281": "segu",
        "1282": "\u00f3 las ",
        "1283": ". El rat\u00f3n ",
        "1284": "rio ",
        "1285": "rito ",
        "1286": "se qued\u00f3 ",
        "1287": "se movi",
        "1288": "!\"\n\nEl ",
        "1289": "pre",
        "1290": "a. La ",
        "1291": "! \u00a1",
        "1292": "dijo: \"\u00a1Vamos a ",
        "1293": "emos",
        "1294": "m\u00e1s",
        "1295": ". Ambos ",
        "1296": "Luc",
        "1297": ", pero el p\u00e1jaro ",
        "1298": "gati",
        "1299": "despaci",
        "1300": "respon",
        "1301": "o.\n\u2014",
        "1302": ". Aprendieron que compartir ",
        "1303": "hacer un ",
        "1304": "patito ",
        "1305": "corri\u00f3 ",
        "1306": "gallina ",
        "1307": "hues",
        "1308": "correr ",
        "1309": "dibuj",
        "1310": "liebre ",
        "1311": ".\n\u2014\u00a1",
        "1312": "P\u00ed",
        "1313": "be",
        "1314": "far",
        "1315": "fav",
        "1316": "lej",
        "1317": "me",
        "1318": "uel",
        "1319": "a todos",
        "1320": "\u00edn ",
        "1321": "no ten\u00eda ",
        "1322": "p\u00e1jaro. ",
        "1323": "ador",
        "1324": "estu",
        "1325": "perr",
        "1326": "con su ",
        "1327": "ta, ",
        "1328": "No puedo ",
        "1329": "mariposa ",
        "1330": "?\" ",
        "1331": "\u00e1rbol",
        "1332": "El Conejo y el P\u00e1jaro ",
        "1333": "Gracias, ",
        "1334": "ar a otros es buen",
        "1335": "entendi",
        "1336": "primero, luego y",
        "1337": "Su",
        "1338": "ave",
        "1339": "her",
        "1340": "mes",
        "1341": "eran ",
        "1342": ". Y ",
        "1343": "to, ",
        "1344": "\u00f3 sus ",
        "1345": "oso ",
        "1346": "\u00e9l",
        "1347": "feliz ",
        "1348": "sig",
        "1349": "nido ",
        "1350": "cur",
        "1351": "t\u00f3 el ",
        "1352": "y un conejo ",
        "1353": "estaba triste",
        "1354": ".\n\nMoraleja: A veces, ",
        "1355": "felices.",
        "1356": "puedes ",
        "1357": "a veces ",
        "1358": "tuvo una ide",
        "1359": "f\u00edn ",
        "1360": "grit\u00f3",
        "1361": "Despu\u00e9s, ",
        "1362": "ar claro ayuda a trabajar juntos",
        "1363": "divertido",
        "1364": "No, yo ",
        "1365": "pastel ",
        "1366": "ag",
        "1367": "cru",
        "1368": "das ",
        "1369": "ju",
        "1370": "pa ",
        "1371": "zorro ",
        "1372": ", hab\u00eda una ",
        "1373": "\u00edan",
        "1374": "p\u00e1jaro",
        "1375": "que no ",
        "1376": "ader",
        "1377": "es m\u00e1s ",
        "1378": "nifi",
        "1379": "acep",
        "1380": "puer",
        "1381": "bus",
        "1382": "vio a ",
        "1383": "rod",
        "1384": "otro ",
        "1385": "comida",
        "1386": ". Pero el ",
        "1387": "hace felices ",
        "1388": "bajar",
        "1389": "La Tortuga y el Conejo ",
        "1390": "favor",
        "1391": "signifi",
        "1392": "cruz",
        "1393": "significa ",
        "1394": "Amig",
        "1395": "Bu",
        "1396": "aci",
        "1397": "d\u00eda ",
        "1398": "fun",
        "1399": "hamb",
        "1400": "no",
        "1401": ". C",
        "1402": "\u00f3.\n\n",
        "1403": "col",
        "1404": "esper",
        "1405": ".\n\nUn d\u00eda, ",
        "1406": "ar al ",
        "1407": "osau",
        "1408": "eron y ",
        "1409": "a. \"",
        "1410": "a. \u00a1",
        "1411": "che",
        "1412": "! Yo ",
        "1413": "solo.",
        "1414": "o, y ",
        "1415": "gus",
        "1416": "ganen",
        "1417": "Lueg",
        "1418": "hizo ",
        "1419": "\u00f3n de ",
        "1420": "viv\u00eda una ",
        "1421": "es mejor que ser ego\u00eds",
        "1422": "!\", dijo el conej",
        "1423": "Esta vez",
        "1424": "hace que todos ganen",
        "1425": "As\u00ed ",
        "1426": "los problemas dif\u00edciles se solucionan mejor ",
        "1427": "Cuando ",
        "1428": "!\n\nEl ",
        "1429": "? ",
        "1430": "aqu",
        "1431": "cl",
        "1432": "is",
        "1433": "yas",
        "1434": "la tortuga ",
        "1435": "ado. ",
        "1436": "trabajaron ",
        "1437": "de los ",
        "1438": "pan ",
        "1439": "con sus ",
        "1440": "lis",
        "1441": "lag",
        "1442": "fr\u00ed",
        "1443": "cuando trabaj",
        "1444": "Solo ",
        "1445": "o.\n\n\u2014\u00a1",
        "1446": "semill",
        "1447": "delf\u00edn ",
        "1448": "respondi",
        "1449": "hace felices a todos",
        "1450": "Amigos",
        "1451": "Dos ",
        "1452": "Ten",
        "1453": "bos",
        "1454": "dor",
        "1455": "ech",
        "1456": "ic",
        "1457": "ram",
        "1458": "El p\u00e1jaro ",
        "1459": "\u00f3 una ",
        "1460": "uni",
        "1461": "ar un ",
        "1462": "se cay",
        "1463": "payas",
        "1464": "pod\u00edan ",
        "1465": "or favor",
        "1466": "qui\u00e9n ",
        "1467": "tan ",
        "1468": "mover",
        "1469": "fres",
        "1470": "dijo: \"\u00a1Yo quiero ",
        "1471": "reglas",
        "1472": "y el P\u00e1jaro",
        "1473": "cambiar ",
        "1474": "dinosau",
        "1475": "necesi",
        "1476": "cosas ",
        "1477": "algo para ",
        "1478": "enferm",
        "1479": "te ayudo",
        "1480": "No podemos ",
        "1481": "Era ",
        "1482": "dam",
        "1483": "mon",
        "1484": "rin",
        "1485": "rem",
        "1486": "\u00edri",
        "1487": "co\u00edri",
        "1488": "ente",
        "1489": "ques",
        "1490": "dijeron",
        "1491": "tro",
        "1492": "en una ",
        "1493": "viento ",
        "1494": "\u00eda. ",
        "1495": "eron el ",
        "1496": "pro",
        "1497": "char",
        "1498": "ayuda",
        "1499": "lo que ",
        "1500": "hab\u00eda dos ",
        "1501": "aron el ",
        "1502": "juntos. ",
        "1503": "en el suel",
        "1504": "tu ",
        "1505": "hacer",
        "1506": "!\", dijo ",
        "1507": "sean ",
        "1508": "pueden ",
        "1509": "peque\u00f1o ",
        "1510": "Lila",
        "1511": "barco ",
        "1512": "gallin",
        "1513": "zapato",
        "1514": "importante ",
        "1515": "ara\u00f1a ",
        "1516": "l\u00e1piz ",
        "1517": "lejos",
        "1518": "acept\u00f3",
        "1519": "hambre",
        "1520": "dinosaurio ",
        "1521": "Mi",
        "1522": "ax",
        "1523": "aun",
        "1524": "equi",
        "1525": "ard",
        "1526": "arreg",
        "1527": "er\u00eda",
        "1528": ", viv\u00eda un ",
        "1529": "\u00f3 feliz",
        "1530": "alcan",
        "1531": ". El pato ",
        "1532": "y el perro ",
        "1533": "traj",
        "1534": "patin",
        "1535": "est\u00e1 ",
        "1536": "ayudar a ",
        "1537": "em\u00e1",
        "1538": "te y ",
        "1539": "y un p\u00e1jaro ",
        "1540": "saltar",
        "1541": ".\n\nMoraleja: Ayud",
        "1542": "empez",
        "1543": "Juntos, el ",
        "1544": "ado y ",
        "1545": "luz ",
        "1546": ".\n\nAprendieron que ",
        "1547": "todos gan",
        "1548": "otra vez",
        "1549": ", pero no pod\u00eda lleg",
        "1550": "Conej",
        "1551": "y el Pa",
        "1552": "T\u00fa primero, luego y",
        "1553": "! \u2014dijo ",
        "1554": "\u00bfQu\u00e9 ",
        "1555": "uela ",
        "1556": "\", dijo el ",
        "1557": "sin pelear",
        "1558": "ave ",
        "1559": "contentos",
        "1560": "hicieron un ",
        "1561": "Al final, ",
        "1562": "hasta el ",
        "1563": "Tino ",
        "1564": "Ahora ",
        "1565": "Necesi",
        "1566": "pelota ",
        "1567": "Puedes ",
        "1568": "lugar ",
        "1569": "orila ",
        "1570": "m\u00e9dico ",
        "1571": "cooperar significa ",
        "1572": "bebi",
        "1573": "a veces hay que ",
        "1574": "alcanz",
        "1575": ".\n\u2014",
        "1576": "Ana ",
        "1577": "Jug",
        "1578": "L\u00eda ",
        "1579": "cre",
        "1580": "glob",
        "1581": "lan",
        "1582": "mas",
        "1583": "erro ",
        "1584": ". Juntos, ",
        "1585": "orr",
        "1586": "un poco",
        "1587": ", por favor",
        "1588": "o. Los dos ",
        "1589": "mied",
        "1590": "los dos",
        "1591": ", el p\u00e1jaro ",
        "1592": "ta.",
        "1593": "rat\u00f3n",
        "1594": "amos juntos",
        "1595": "fuertes",
        "1596": "sonri\u00f3. \"\u00a1",
        "1597": "llegaron ",
        "1598": "o.\n\u2014\u00a1",
        "1599": "co\u00edris ",
        "1600": "En ",
        "1601": "Max",
        "1602": "den",
        "1603": "et",
        "1604": "fl",
        "1605": "gorila ",
        "1606": "m\u00ed",
        "1607": "mor",
        "1608": "mal",
        "1609": "marti",
        "1610": "nadi",
        "1611": "er\u00eda ",
        "1612": "\u00f3! ",
        "1613": "cocin",
        "1614": "ar una ",
        "1615": "ar su ",
        "1616": "asinti",
        "1617": "p\u00e1jaro.\n\n",
        "1618": "till",
        "1619": ", pero la ",
        "1620": "es divertido",
        "1621": "dijo:",
        "1622": "tend",
        "1623": "o. Un d\u00eda, ",
        "1624": "se ri",
        "1625": "suci",
        "1626": "\u00f1e",
        "1627": "parque",
        "1628": "perrito ",
        "1629": "o, hab\u00eda un ",
        "1630": "guard",
        "1631": "para ver ",
        "1632": "t\u00f3n ",
        "1633": "aron y ",
        "1634": "compar",
        "1635": "lan ",
        "1636": "salt\u00f3",
        "1637": "\u00fadam",
        "1638": "agua. ",
        "1639": "primero ",
        "1640": "casita ",
        "1641": "como ",
        "1642": "frutas ",
        "1643": "\n\nHab\u00eda una vez una tortuga ",
        "1644": "tienes ",
        "1645": "libro ",
        "1646": "dijo la tortug",
        "1647": ", pero no sab\u00eda c\u00f3",
        "1648": "respeto",
        "1649": "as\u00ed, ",
        "1650": "sacrificar algo para ",
        "1651": "es mejor que trabajar solos",
        "1652": "brillante",
        "1653": "No podemos solos",
        "1654": "trajo ",
        "1655": "Ar",
        "1656": "Tita ",
        "1657": "cto",
        "1658": "gol",
        "1659": "ho",
        "1660": "ios",
        "1661": "mos",
        "1662": "r\u00f3 ",
        "1663": "sos",
        "1664": "ted",
        "1665": "taban ",
        "1666": "ul ",
        "1667": "y dijo: \"",
        "1668": "y dijo: \"\u00a1",
        "1669": "escon",
        "1670": "jard",
        "1671": "no llor",
        "1672": ", preg",
        "1673": ", pero estaba ",
        "1674": "La G",
        "1675": "se mir",
        "1676": "!\". ",
        "1677": "suave",
        "1678": "pr\u00edn",
        "1679": "egun",
        "1680": "bien ",
        "1681": "pic",
        "1682": "sir",
        "1683": "pusi",
        "1684": "con respeto",
        "1685": "aron la ",
        "1686": "volc\u00e1",
        "1687": "amis",
        "1688": "todos disfru",
        "1689": "T\u00fa tienes ",
        "1690": "\u00bfY ",
        "1691": "viv\u00edan ",
        "1692": "Entonces, ",
        "1693": "?\", preg",
        "1694": ".\"\n\nEl conejo ",
        "1695": "polli",
        "1696": "ahora",
        "1697": "tiene ",
        "1698": "por el ",
        "1699": "r\u00e1pido, pero ",
        "1700": "dijo: \"\u00a1S\u00ed, ",
        "1701": "bajo ",
        "1702": "cador ",
        "1703": "dibujar",
        "1704": "azul",
        "1705": "helado ",
        "1706": "alegr",
        "1707": "bosque",
        "1708": "payaso ",
        "1709": "pr\u00ednci",
        "1710": "\u00bfY si ",
        "1711": "?\", pregun",
        "1712": "De",
        "1713": "Er",
        "1714": "Fu",
        "1715": "Tien",
        "1716": "a\n\nEn una ",
        "1717": "du",
        "1718": "dado ",
        "1719": "gar",
        "1720": "lin",
        "1721": "pe ",
        "1722": "tal",
        "1723": "vel",
        "1724": "eri",
        "1725": "El C",
        "1726": "tos",
        "1727": "abuela ",
        "1728": "quina ",
        "1729": "\u00e1n",
        "1730": ". El sol ",
        "1731": "no se ",
        "1732": "ar turn",
        "1733": "as. ",
        "1734": "conejito",
        "1735": "y el rat\u00f3n ",
        "1736": "o. La tortuga ",
        "1737": "sul",
        "1738": "pregun",
        "1739": "estar ",
        "1740": "! Pero ",
        "1741": "ayud\u00f3 a ",
        "1742": ", pero no pud",
        "1743": "quito ",
        "1744": ".\n\nMoraleja: Si ",
        "1745": "bur",
        "1746": "rompi",
        "1747": "en la C",
        "1748": "comid",
        "1749": "his",
        "1750": "llev\u00f3 al ",
        "1751": "le dio su ",
        "1752": "correr",
        "1753": ".\n\nAl final, los dos ",
        "1754": "Despu\u00e9s, el ",
        "1755": "competir",
        "1756": "jugar con ",
        "1757": "bonita",
        "1758": "colores",
        "1759": "flores",
        "1760": "flores ",
        "1761": "hace que todos sean ",
        "1762": "o.\n\nMoraleja: Compartir ",
        "1763": "sacrificar alg",
        "1764": "r\u00e1pido y ",
        "1765": "tampoco",
        "1766": "Lucas ",
        "1767": "P\u00edo ",
        "1768": "aqu\u00ed",
        "1769": "a veces hay que sacrificar algo para ",
        "1770": "es divertido, pero ",
        "1771": "Es ",
        "1772": "Si",
        "1773": "ca, ",
        "1774": "do.\n\n",
        "1775": "d\u00f3n",
        "1776": "ede ",
        "1777": "plu",
        "1778": "sen",
        "1779": "sab",
        "1780": "t\u00ed",
        "1781": "vo",
        "1782": "\ufffdl ",
        "1783": "\u00c9l ",
        "1784": "a para ",
        "1785": ". Quer\u00edan ",
        "1786": "y cambiar ",
        "1787": "tori",
        "1788": ".\n\nLos dos ",
        "1789": "alto y ",
        "1790": "un p\u00e1jaro ",
        "1791": "ella ",
        "1792": "no pudo ",
        "1793": "asus",
        "1794": "conejo",
        "1795": "os. ",
        "1796": "ada",
        "1797": "y el gato ",
        "1798": "vieron un ",
        "1799": "!\"\n\nE",
        "1800": "dijo: \"S\u00ed",
        "1801": "\u2014. ",
        "1802": "mis ",
        "1803": "\u00f1o ",
        "1804": "paragu",
        "1805": "podemos",
        "1806": "solo. ",
        "1807": ", pero no lleg",
        "1808": "puede ",
        "1809": "mu\u00f1e",
        "1810": "para \u00e9l",
        "1811": "tax",
        "1812": "saltar ",
        "1813": "\u00f3. \u00a1",
        "1814": "tus ",
        "1815": "ni\u00f1a ",
        "1816": "sob",
        "1817": "las reglas",
        "1818": "luz",
        "1819": "se\u00f1",
        "1820": "Trabajaron ",
        "1821": "gato",
        "1822": "es mejor si ",
        "1823": "T\u00fa puedes ",
        "1824": "calor",
        "1825": "caliente",
        "1826": "despu\u00e9",
        "1827": "llev\u00f3 ",
        "1828": "!\" El p\u00e1jaro ",
        "1829": "patitas",
        "1830": "pajarito",
        "1831": "cambiar",
        "1832": ", la tortuga ",
        "1833": "enfermer",
        "1834": ".\n\nEntonces, el ",
        "1835": "hablan ",
        "1836": "hojas ",
        "1837": "es mejor que trabajar solo.",
        "1838": "sombr",
        "1839": "cerca del ",
        "1840": "Tengo ",
        "1841": "charco ",
        "1842": ".\n\nMoraleja: Ayudar a otros es buen",
        "1843": "\u00fadame",
        "1844": "hablan clar",
        "1845": "\" ",
        "1846": "\". El ",
        "1847": "Cer",
        "1848": "Luna ",
        "1849": "Pa",
        "1850": "Pi",
        "1851": "Pri",
        "1852": "centr",
        "1853": "dri",
        "1854": "dad",
        "1855": "e. ",
        "1856": "evi",
        "1857": "f\u00e1",
        "1858": "for",
        "1859": "lo.\n\n",
        "1860": "ron",
        "1861": "ar. ",
        "1862": "aren",
        "1863": "\u00f3. El conejo ",
        "1864": "y yo ",
        "1865": "enc",
        "1866": "toc",
        "1867": "abuel",
        "1868": "\u00f3 much",
        "1869": "\u00e1n ",
        "1870": "elo ",
        "1871": ", pu",
        "1872": "p\u00e1jaro, ",
        "1873": "y el Sol",
        "1874": "tram",
        "1875": "en equi",
        "1876": "ten\u00edan ",
        "1877": "!\".\n\n",
        "1878": "!\". El ",
        "1879": "pis",
        "1880": ".\n\nEl perro ",
        "1881": ".\n\nEl rat\u00f3n ",
        "1882": "torre ",
        "1883": "cho",
        "1884": "chu",
        "1885": "! La ",
        "1886": "acu",
        "1887": "ten\u00eda much",
        "1888": "o. El ni\u00f1o ",
        "1889": "sali",
        "1890": ".\n\nMoraleja: Habl",
        "1891": "volaba ",
        "1892": "comida ",
        "1893": "Lula ",
        "1894": ", pero el conejo ",
        "1895": "tristes",
        "1896": "usar",
        "1897": "carre",
        "1898": "pens\u00f3 y ",
        "1899": ". Aprendieron que habl",
        "1900": "dijo: \"\u00a1Yo puedo ",
        "1901": "termin",
        "1902": "?\"\n\nEl ",
        "1903": "barquito ",
        "1904": "patitas ",
        "1905": "cangrej",
        "1906": "libr",
        "1907": "Quer\u00eda ",
        "1908": "juguetes",
        "1909": ". Un p\u00e1jaro ",
        "1910": "piedr",
        "1911": "abeja ",
        "1912": ". As\u00ed ",
        "1913": "sonri\u00f3. \"",
        "1914": ".\n\nMoraleja: A veces, cooperar significa ",
        "1915": "agarr",
        "1916": "rod\u00f3 ",
        "1917": "gusan",
        "1918": "aunque no ",
        "1919": "Max ",
        "1920": "tendr",
        "1921": "escondi",
        "1922": "Decidi",
        "1923": "hace que todos sean felices.",
        "1924": "sobre ",
        "1925": "Las ",
        "1926": "Mar",
        "1927": "Oh",
        "1928": "Par",
        "1929": "Sal",
        "1930": "Tambi\u00e9",
        "1931": "a, pero ",
        "1932": "ce ",
        "1933": "des ",
        "1934": "due",
        "1935": "dem\u00e1",
        "1936": "ma ",
        "1937": "men",
        "1938": "o, pero no ",
        "1939": "red",
        "1940": "\u00c1",
        "1941": "arse",
        "1942": ", no ",
        "1943": ", viv\u00eda una ",
        "1944": "\u00ed ",
        "1945": "colib",
        "1946": "coche ",
        "1947": "aban",
        "1948": "\u00f3 los ",
        "1949": "allo ",
        "1950": "la mes",
        "1951": ", pens",
        "1952": "ar juntos",
        "1953": "tir",
        "1954": ", pero quer\u00eda ",
        "1955": "una can",
        "1956": "to en el ",
        "1957": "tener ",
        "1958": "o. Pero ",
        "1959": "dijo: \"No ",
        "1960": "\u00f1a ",
        "1961": "quer\u00eda",
        "1962": "parque ",
        "1963": "gran ",
        "1964": "para los dos",
        "1965": "con cuid",
        "1966": "aron a ",
        "1967": "aron juntos",
        "1968": "t\u00f3 la ",
        "1969": "cantaba ",
        "1970": "Un p\u00e1jaro ",
        "1971": "pelo ",
        "1972": "Fin.\n\n(249 palabras)",
        "1973": "juntos y ",
        "1974": "ganar",
        "1975": "Cooperar ",
        "1976": "es mejor cuando ",
        "1977": "descans",
        "1978": "resbal",
        "1979": "Entonces, el ",
        "1980": "Entonces, el conejo ",
        "1981": "Juntos podemos",
        "1982": "nada. ",
        "1983": "frutas",
        "1984": "cama ",
        "1985": "grande, hab\u00eda un ",
        "1986": "auto ",
        "1987": "o. \u00a1Todos ",
        "1988": "vio al p\u00e1jaro ",
        "1989": "idea",
        "1990": "pens\u00f3: \"Si ",
        "1991": "decidi\u00f3 ",
        "1992": "quiso ayudar",
        "1993": "foga",
        "1994": "volar alto",
        "1995": "conejo y un p\u00e1jaro ",
        "1996": "Ahora",
        "1997": "nuev",
        "1998": "lleno de ",
        "1999": "siguieron ",
        "2000": "columpio ",
        "2001": "piedra ",
        "2002": "rojo ",
        "2003": "Toma ",
        "2004": "Lo logr",
        "2005": "zanahorias",
        "2006": "maestr",
        "2007": "sapo ",
        "2008": "huevos",
        "2009": "premi",
        "2010": "dibujo ",
        "2011": "grit\u00f3: \"\u00a1",
        "2012": "jueg",
        "2013": "buscar ",
        "2014": "bajar ",
        "2015": "d\u00eda sigu",
        "2016": "Luego, ",
        "2017": "es mejor que ser ego\u00edsta.",
        "2018": "hace felices a todos.",
        "2019": "dormi",
        "2020": "zapatos ",
        "2021": "martillo ",
        "2022": "nadie ",
        "2023": "dijo:\n\u2014",
        "2024": "no llor\u00f3. \"\u00a1",
        "2025": "pusieron ",
        "2026": "volc\u00e1n ",
        "2027": "pollito ",
        "2028": "pr\u00edncipe ",
        "2029": "Sin ",
        "2030": "Tambi\u00e9n ",
        "2031": "colibr\u00ed",
        "2032": "\". El p\u00e1jaro ",
        "2033": ") ",
        "2034": "Cada ",
        "2035": "Ven",
        "2036": "a! ",
        "2037": "be ",
        "2038": "beb",
        "2039": "eto",
        "2040": "gente ",
        "2041": "len",
        "2042": "o!\" ",
        "2043": "t ",
        "2044": "tamos ",
        "2045": "udi",
        "2046": "o a ",
        "2047": "l d\u00eda sigu",
        "2048": ". Un d\u00eda, el ",
        "2049": ", y la ",
        "2050": "\u00f3x",
        "2051": "codri",
        "2052": "qu\u00e9 ",
        "2053": "\u00eda much",
        "2054": "escal",
        "2055": ".\n\nUn d\u00eda, el ",
        "2056": "\u00f3 y el ",
        "2057": "orden",
        "2058": ". El pajarito ",
        "2059": "p\u00e1jaro. El p\u00e1jaro ",
        "2060": "conejo.\n\n",
        "2061": "trabajar",
        "2062": "ci\u00f3n",
        "2063": "pr\u00f3x",
        "2064": "pod\u00eda",
        "2065": "perfe",
        "2066": "tor ",
        "2067": "ayudar a otros ",
        "2068": "los dem\u00e1",
        "2069": "cuer",
        "2070": "te do",
        "2071": "t\u00f3 y ",
        "2072": "era peque\u00f1",
        "2073": "o. El perro ",
        "2074": "estaba muy ",
        "2075": "\u00f3. \"",
        "2076": "en el bosque",
        "2077": "volvi",
        "2078": "vio la ",
        "2079": "moj",
        "2080": "Los ni\u00f1os ",
        "2081": "a, hab\u00eda un ",
        "2082": "fici",
        "2083": "y el Perro ",
        "2084": "cerr",
        "2085": "castill",
        "2086": "\u00f3 un poco ",
        "2087": "brill\u00f3 ",
        "2088": "hablamos ",
        "2089": "a veces, ",
        "2090": "El Conejo y el ",
        "2091": "polic",
        "2092": ", y yo ",
        "2093": "abrigo ",
        "2094": "escuel",
        "2095": "bonita. ",
        "2096": "necesito ",
        "2097": "empujar ",
        "2098": "imen",
        "2099": "As\u00ed, ",
        "2100": "bal\u00f3n ",
        "2101": "disfrutaron ",
        "2102": "uno pod\u00eda ",
        "2103": "tad ",
        "2104": "trabajar juntos es mejor que trabajar solos",
        "2105": "ventan",
        "2106": "Necesito ",
        "2107": "dej\u00f3 ",
        "2108": "\u2014dijo Lol",
        "2109": "caja ",
        "2110": "y los Amigos",
        "2111": "Lina. ",
        "2112": "El Conejo y el P\u00e1jaro en el ",
        "2113": "Su ",
        "2114": "La Tortuga y el Conejo en el ",
        "2115": "Buen ",
        "2116": "Esta vez, ",
        "2117": "hicieron un plan",
        "2118": "globo ",
        "2119": "En la ",
        "2120": "para ver qui\u00e9n ",
        "2121": "jard\u00edn ",
        "2122": "Eres ",
        "2123": "Tienes ",
        "2124": "t\u00edter",
        "2125": "paraguas ",
        "2126": "Pipo",
        "2127": ", pued",
        "2128": "trampol",
        "2129": "l d\u00eda siguiente",
        "2130": "\"\u00bfQuieres ",
        "2131": "* ",
        "2132": "Clar",
        "2133": "Deb",
        "2134": "Ella ",
        "2135": "M\u00eda ",
        "2136": "No",
        "2137": "ai",
        "2138": "aco",
        "2139": "atr",
        "2140": "a. El p\u00e1jaro ",
        "2141": "a. El conejo ",
        "2142": "a.\n\u2014\u00a1",
        "2143": "cada ",
        "2144": "eci",
        "2145": "gas",
        "2146": "lev",
        "2147": "nue",
        "2148": "o!\n\n",
        "2149": "o!\", dijo",
        "2150": "taba",
        "2151": "arco\u00edris ",
        "2152": ", un ",
        "2153": ", y el p\u00e1jaro ",
        "2154": "\u00edcu",
        "2155": "el p\u00e1jaro ",
        "2156": "cogi",
        "2157": "cooper",
        "2158": "tos ",
        "2159": "abraz",
        "2160": "\u00eda el ",
        "2161": ".\n\nLina ",
        "2162": "an.",
        "2163": "anim",
        "2164": ". El mono ",
        "2165": ", pero se ",
        "2166": "La F",
        "2167": "tran",
        "2168": "o. \"",
        "2169": "o. Pero el ",
        "2170": "de un ",
        "2171": "de acu",
        "2172": "ci\u00f3n ",
        "2173": "sufici",
        "2174": ".\n\nEl ni\u00f1o ",
        "2175": "cha",
        "2176": "chi",
        "2177": "cho ",
        "2178": "solo.\n\n",
        "2179": ", pero no pudo ",
        "2180": "los ni\u00f1os ",
        "2181": "dijo: \"\u00a1Ayud",
        "2182": "quer\u00eda comer",
        "2183": "con el ",
        "2184": "o.\n\nFin.",
        "2185": "Yo lo ",
        "2186": "cantar ",
        "2187": "o. El rat\u00f3n ",
        "2188": "sal\u00f3n de ",
        "2189": "vol\u00f3 y ",
        "2190": "grandes ",
        "2191": "robo",
        "2192": "corni",
        "2193": ".\n\nAhor",
        "2194": "m\u00e1s fuertes",
        "2195": "aje",
        "2196": "fuerte ",
        "2197": "cerdo ",
        "2198": "cerca",
        "2199": "! \u2014dijo la ",
        "2200": "Lila. ",
        "2201": "lleg\u00f3 ",
        "2202": "nadar",
        "2203": "dijo: \"\u00a1Yo te ayudo",
        "2204": "ter\u00eda ",
        "2205": "\u00f3 un poco",
        "2206": "ayuda a todos",
        "2207": "auto",
        "2208": "ver la ",
        "2209": "aprendi\u00f3 que compartir ",
        "2210": "play",
        "2211": "diner",
        "2212": "colores ",
        "2213": "o! \u00a1",
        "2214": "azul ",
        "2215": "La Carr",
        "2216": "tintor",
        "2217": "pastel",
        "2218": "competir es divertido, pero ",
        "2219": "Puedo ",
        "2220": "dulce",
        "2221": "picote",
        "2222": "peluche ",
        "2223": "gatito ",
        "2224": "faro ",
        "2225": "estuvo ",
        "2226": "El Conejo y el P\u00e1jaro en la ",
        "2227": "entendi\u00f3. ",
        "2228": "funcion",
        "2229": "hace que todos ganen.",
        "2230": "trabajaron juntos",
        "2231": "cuando trabajan ",
        "2232": "enfermera ",
        "2233": "importante es ",
        "2234": ".\n\nAprendieron que los problemas dif\u00edciles se solucionan mejor ",
        "2235": "ar turnos ",
        "2236": "d\u00f3nde ",
        "2237": "taxi ",
        "2238": "sombrero ",
        "2239": "en equipo",
        "2240": "Decidieron ",
        "2241": "due\u00f1o ",
        "2242": "colibr\u00ed ",
        "2243": "polic\u00eda ",
        "2244": "levan",
        "2245": "de acuer",
        "2246": "robot ",
        "2247": "La Carrera ",
        "2248": "\".\n\n",
        "2249": "\".\n\nEl ",
        "2250": "Fun",
        "2251": "Hi",
        "2252": "Ra",
        "2253": "Ros",
        "2254": "Us",
        "2255": "Una ",
        "2256": "ba\u00f1",
        "2257": "cel",
        "2258": "ca. ",
        "2259": "cla",
        "2260": "cami",
        "2261": "ctor ",
        "2262": "har",
        "2263": "ib",
        "2264": "io ",
        "2265": "ia ",
        "2266": "jus",
        "2267": "luna ",
        "2268": "ne",
        "2269": "o, pero no pod\u00eda ",
        "2270": "ocer",
        "2271": "o.\" El ",
        "2272": "ray",
        "2273": "s\u00e9 ",
        "2274": "t\u00fa",
        "2275": "arse ",
        "2276": ". Juntos ",
        "2277": ". Pipo ",
        "2278": ", hab\u00eda dos ",
        "2279": ", todos gan",
        "2280": "el conejo ",
        "2281": "y una ",
        "2282": "cos ",
        "2283": "cocodri",
        "2284": "dice",
        "2285": "esp",
        "2286": "alas",
        "2287": "un poco de ",
        "2288": ". El zorro ",
        "2289": "consul",
        "2290": "no tuvo ",
        "2291": "no se enoj",
        "2292": "no pod\u00edan ",
        "2293": ", pero solo ",
        "2294": ", pero era muy ",
        "2295": ", pero siempre ",
        "2296": "que era ",
        "2297": "ospi",
        "2298": "ado, ",
        "2299": "y el C",
        "2300": "La A",
        "2301": "tened",
        "2302": "o. No ",
        "2303": "se subi",
        "2304": "se puso ",
        "2305": "se asus",
        "2306": "cia ",
        "2307": "visi",
        "2308": "!\". El p\u00e1jaro ",
        "2309": "pote",
        "2310": "pron",
        "2311": "miel ",
        "2312": "patas ",
        "2313": "esta",
        "2314": "esta ",
        "2315": "piz",
        "2316": "ta y ",
        "2317": "ta no ",
        "2318": "! El ",
        "2319": "lo que el ",
        "2320": "nido",
        "2321": "quer\u00eda un ",
        "2322": "pul",
        "2323": "para el ",
        "2324": "ve\u00eda ",
        "2325": "con amigos",
        "2326": "quieres ",
        "2327": "Yo puedo ",
        "2328": "fueron ",
        "2329": "juntos.\n\nFin.",
        "2330": "artija ",
        "2331": "compr",
        "2332": "jugaban ",
        "2333": "estaba conten",
        "2334": "m\u00e1quina ",
        "2335": "vio un ",
        "2336": "vio a la ",
        "2337": "ni\u00f1os",
        "2338": "muy bien",
        "2339": ". Al final",
        "2340": "Los problemas ",
        "2341": "lumin",
        "2342": "doctor ",
        "2343": "juntos son ",
        "2344": "comi\u00f3 ",
        "2345": "fir",
        "2346": "\n\nEn una ca",
        "2347": "peque\u00f1o. ",
        "2348": "verde",
        "2349": "pensaron",
        "2350": "Vamos juntos",
        "2351": "triste. \"",
        "2352": "de la escuel",
        "2353": "es bueno. ",
        "2354": "manzan",
        "2355": ".\"\n\nEl p\u00e1jaro ",
        "2356": "le dio el ",
        "2357": "galle",
        "2358": "tambi\u00e9n se sinti\u00f3 ",
        "2359": "\n\nHab\u00eda una vez una ",
        "2360": "se sen",
        "2361": "empuj\u00f3 ",
        "2362": "empuj\u00f3 con ",
        "2363": "abrir ",
        "2364": "pintar ",
        "2365": "r\u00edo ",
        "2366": "camino ",
        "2367": "ima vez",
        "2368": "hicieron ",
        "2369": "quiero",
        "2370": "quiere ",
        "2371": "escuch\u00f3 y ",
        "2372": "c\u00e1mar",
        "2373": "raz\u00f3n",
        "2374": "ladr",
        "2375": "semilla ",
        "2376": "ya no estaba ",
        "2377": "lugar",
        "2378": "alegre",
        "2379": "\u00f3: \"\u00a1S\u00ed",
        "2380": "!\n\nMoraleja: Trabajar juntos ",
        "2381": "cabra ",
        "2382": "No puedo solo",
        "2383": "tuvo una idea. \"\u00a1",
        "2384": "fundi",
        "2385": "Luego, el ",
        "2386": "!\", dijo el conejo. \"\u00a1",
        "2387": "dijeron: \"\u00a1",
        "2388": "hacerlo ",
        "2389": "flor ",
        "2390": "golpe",
        "2391": "iosco ",
        "2392": "amistad ",
        "2393": "alegr\u00eda",
        "2394": "?\", pregunt\u00f3",
        "2395": "Primer",
        "2396": "maestra ",
        "2397": "pr\u00f3xima vez",
        "2398": "perfecto",
        "2399": "los dem\u00e1s",
        "2400": "Funcion",
        "2401": "oceron",
        "2402": "lo que el otro ",
        "2403": "pr\u00f3xima vez, ",
        "2404": "Ki",
        "2405": "Mu",
        "2406": "Per",
        "2407": "Rosa ",
        "2408": "Vol",
        "2409": "bej",
        "2410": "ban",
        "2411": "hech",
        "2412": "ien ",
        "2413": "ilumin",
        "2414": "jam",
        "2415": "les",
        "2416": "nos ",
        "2417": "nas",
        "2418": "op",
        "2419": "o.\"\n\n",
        "2420": "pli",
        "2421": "s, el conejo ",
        "2422": "val",
        "2423": ". Lolo ",
        "2424": ". Despu\u00e9s, ",
        "2425": "y se ",
        "2426": "todo",
        "2427": "espaci",
        "2428": "\u00f3 despaci",
        "2429": "os y ",
        "2430": "aman",
        "2431": "rito",
        "2432": "rieron y ",
        "2433": "ar las ",
        "2434": "tiv",
        "2435": "tico",
        "2436": "tico ",
        "2437": "y el sol ",
        "2438": "y el cangrejo ",
        "2439": "La ardilla ",
        "2440": "trep",
        "2441": "se fue ",
        "2442": "suave ",
        "2443": "eron la ",
        "2444": "miel",
        "2445": "papel",
        "2446": "quer\u00edan",
        "2447": "\u00e9l ",
        "2448": "a. La tortuga ",
        "2449": "pared",
        "2450": "pidi",
        "2451": "pilla ",
        "2452": "perro",
        "2453": "chimen",
        "2454": "soldado ",
        "2455": "o, hab\u00eda una ",
        "2456": "nicer",
        "2457": "quer\u00eda comer ",
        "2458": "para su ",
        "2459": "cul",
        "2460": "cuar",
        "2461": "cuader",
        "2462": "con un ",
        "2463": "prendi\u00f3 que ",
        "2464": "quill",
        "2465": "Yo tampoco",
        "2466": "aron las ",
        "2467": "dec",
        "2468": "y un conej",
        "2469": "pez",
        "2470": "estaba contento",
        "2471": ".\n\nMoraleja: Trabajar ",
        "2472": ".\n\nMoraleja: Cuando ",
        "2473": ".\n\nMoraleja: Cooperar ",
        "2474": "granja ",
        "2475": "perro y un ",
        "2476": "soy ",
        "2477": "amigo ",
        "2478": "pel\u00edcu",
        "2479": "gan\u00f3",
        "2480": ", pero no pod\u00eda porque ",
        "2481": "mbero ",
        "2482": "comi\u00f3 y ",
        "2483": ", pero el perro ",
        "2484": "fuertes ",
        "2485": "claro.",
        "2486": ". \u00a1El ",
        "2487": "agua fres",
        "2488": "y la tortuga ",
        "2489": "casi",
        "2490": "casa ",
        "2491": ".\n\nAl final, el conejo ",
        "2492": "mejor.",
        "2493": "cav",
        "2494": "nada",
        "2495": "nad\u00f3 ",
        "2496": "compartir es mejor que ",
        "2497": "limpiar",
        "2498": "hablar ",
        "2499": "hablar clar",
        "2500": "!\" El conejo ",
        "2501": "le\u00f3n ",
        "2502": "estaban contentos",
        "2503": ".\n\nEl p\u00e1jaro dijo: \"\u00a1",
        "2504": "ta. \u00a1",
        "2505": "da de ",
        "2506": "poner ",
        "2507": "El Conejo y el Pa",
        "2508": "pollo ",
        "2509": "amigos: ",
        "2510": "ado\n\nEn un ",
        "2511": "\n\nEn el sal\u00f3n de ",
        "2512": "se sintieron ",
        "2513": "Pum",
        "2514": "me das ",
        "2515": "juguetes ",
        "2516": "empujaron ",
        "2517": "uno ten\u00eda ",
        "2518": "trabajar juntos es mejor",
        "2519": "cepi",
        "2520": "nube ",
        "2521": "rana ",
        "2522": "vio el problem",
        "2523": "abejita ",
        "2524": "pelota",
        "2525": "importante",
        "2526": "peluche",
        "2527": "serv",
        "2528": "!\"\n\nEl conejo ",
        "2529": "hueso ",
        "2530": "con su pico",
        "2531": "hermos",
        "2532": "puerta ",
        "2533": "puerta",
        "2534": "busc",
        "2535": "Solo hab\u00eda un ",
        "2536": "unicorni",
        "2537": "moverse",
        "2538": "arregl",
        "2539": "empez\u00f3 a ",
        "2540": "\u00bfQu\u00e9 pas",
        "2541": "Necesitamos ",
        "2542": "alcanzar",
        "2543": "creci",
        "2544": "se rieron",
        "2545": "tedr",
        "2546": "todos disfrutan",
        "2547": "Fue ",
        "2548": "despu\u00e9s",
        "2549": "enfermer\u00eda ",
        "2550": "evita ",
        "2551": "f\u00e1ci",
        "2552": "abuelo ",
        "2553": "choza ",
        "2554": "Oh ",
        "2555": "Lo logramos",
        "2556": "dormir ",
        "2557": "Buen trabaj",
        "2558": "Tienes raz\u00f3n",
        "2559": "animal",
        "2560": "tranqui",
        "2561": "chapote",
        "2562": "oceronte ",
        "2563": "chimene",
        "2564": ".\n\nMoraleja: Trabajar con ",
        "2565": " \u00a1",
        "2566": "\". El conejo ",
        "2567": "Bas",
        "2568": "Bien ",
        "2569": "En",
        "2570": "Tito ",
        "2571": "cac",
        "2572": "cado ",
        "2573": "dar ",
        "2574": "der ",
        "2575": "gor",
        "2576": "gas ",
        "2577": "ido ",
        "2578": "jab",
        "2579": "mos ",
        "2580": "mel",
        "2581": "oci",
        "2582": "peg",
        "2583": "rer",
        "2584": "test",
        "2585": "u\u00f1",
        "2586": "vuel",
        "2587": "yo",
        "2588": "arte",
        "2589": ". D",
        "2590": ", que ",
        "2591": "\u00edr",
        "2592": "\u00f3. El p\u00e1jaro ",
        "2593": "y no ",
        "2594": "y turn",
        "2595": "todas ",
        "2596": "esco",
        "2597": "espal",
        "2598": "eja ",
        "2599": "\u00e1gi",
        "2600": "ale",
        "2601": "alto ",
        "2602": "alas y ",
        "2603": "jaron",
        "2604": "angr",
        "2605": "la man",
        "2606": "un ni\u00f1o ",
        "2607": "inche ",
        "2608": "contest",
        "2609": "no sab\u00eda ",
        "2610": "oscur",
        "2611": "ados",
        "2612": "ador ",
        "2613": "y el Conej",
        "2614": "o. Lolo ",
        "2615": "se abri",
        "2616": "cic",
        "2617": "cios",
        "2618": "vieron felices",
        "2619": "dijo: \"Vamos a ",
        "2620": "pren",
        "2621": "\u2014pregun",
        "2622": "eget",
        "2623": "estaci",
        "2624": "a. Ambos ",
        "2625": "cha ",
        "2626": "lo m\u00e1s ",
        "2627": "dijo: \"\u00a1Gracias",
        "2628": "dijo: \"\u00a1No, yo ",
        "2629": "quer\u00eda jugar",
        "2630": "quer\u00eda hacer un ",
        "2631": "embar",
        "2632": "puente ",
        "2633": "gui",
        "2634": "ten\u00eda el ",
        "2635": "ten\u00eda mied",
        "2636": "quieto",
        "2637": "o.\n\nLa ",
        "2638": "fuego ",
        "2639": "era m\u00e1s ",
        "2640": "cant\u00f3",
        "2641": "cantad",
        "2642": "lago ",
        "2643": "y un perr",
        "2644": "estaba feliz ",
        "2645": "co y ",
        "2646": "vio y ",
        "2647": "vio que el ",
        "2648": ". Ahor",
        "2649": "!\", dijo la ",
        "2650": "m\u00e1s alto",
        "2651": "sec",
        "2652": "Un d\u00eda, el conejo ",
        "2653": "a, hab\u00eda una ",
        "2654": "S\u00ed! \u00a1",
        "2655": "aje ",
        "2656": "sonri\u00f3",
        "2657": "tarse",
        "2658": "calor ",
        "2659": "ada para ",
        "2660": ". \u00a1Y ",
        "2661": "!\n\nFin.",
        "2662": "caraco",
        "2663": "agua y ",
        "2664": "agua para ",
        "2665": "palo",
        "2666": "problemas",
        "2667": "problema. ",
        "2668": "problema: ",
        "2669": "all\u00ed",
        "2670": "allina ",
        "2671": "Juntos hicieron un plan",
        "2672": "grande y un ",
        "2673": "nadar ",
        "2674": "Y as\u00ed, ",
        "2675": "?\"\n\n",
        "2676": "brillar ",
        "2677": "\u00f3 a la ",
        "2678": "tar el ",
        "2679": "\", dijo ",
        "2680": "Ay\u00fadame",
        "2681": "ser buen",
        "2682": "solo hab\u00eda un ",
        "2683": "Estaban ",
        "2684": "peleas y ",
        "2685": "ver el ",
        "2686": "a.\n\nLa ",
        "2687": "ego\u00edsta, ",
        "2688": "salt\u00f3 de ",
        "2689": "turnos, ",
        "2690": "abrir",
        "2691": "subir ",
        "2692": "bai",
        "2693": "dijo: \"\u00a1S\u00ed! ",
        "2694": "bonita, ",
        "2695": "dadi",
        "2696": ".\n\nMoraleja: Trabajar juntos es mejor que trabajar solo.",
        "2697": ".\n\nMoraleja: Trabajar juntos es mejor que ser ego\u00edsta.",
        "2698": "\u00e1rbol y ",
        "2699": "trap",
        "2700": "pescador ",
        "2701": "lavador",
        "2702": "Al final, el ",
        "2703": "ambos ",
        "2704": "todo el ",
        "2705": "Podemos compartir",
        "2706": "sigui\u00f3 ",
        "2707": "cant\u00f3 feliz",
        "2708": "cant\u00f3 una can",
        "2709": ". As\u00ed, ",
        "2710": "jugaron felices",
        "2711": "Tico ",
        "2712": "m\u00e9dico",
        "2713": "plato ",
        "2714": "huevos ",
        "2715": "gatito",
        "2716": "medi",
        "2717": "entendi\u00f3 y ",
        "2718": ". Y as\u00ed, ",
        "2719": "tuvo una idea. \"",
        "2720": "ar claro ayuda a trabajar juntos.",
        "2721": "ar claro ayuda a trabajar juntos.\n\nFin.",
        "2722": "es m\u00e1s f\u00e1ci",
        "2723": "Buena ",
        "2724": "hace que todos ganen.\n\nFin.",
        "2725": "lagartija ",
        "2726": "cuando trabajamos juntos",
        "2727": "semillas",
        "2728": "necesitaba ",
        "2729": "lo que yo ",
        "2730": "empezaron a ",
        "2731": ", pero no pod\u00eda llegar al ",
        "2732": "llegaron al ",
        "2733": "cocinero ",
        "2734": "sostuvo ",
        "2735": "La Gallina ",
        "2736": "se miraron",
        "2737": "T\u00fa tienes lo que yo ",
        "2738": "garita ",
        "2739": "linter",
        "2740": "plum",
        "2741": "roncador ",
        "2742": "gusano ",
        "2743": "Ven, ",
        "2744": "t\u00edtere ",
        "2745": ", pueden ",
        "2746": "suficiente ",
        "2747": "competir es divertido, pero lo m\u00e1s ",
        "2748": "estuvo de acuer",
        "2749": "cocodrilo ",
        "2750": ", pero siempre con respeto",
        "2751": "Kik",
        "2752": "cuaderno ",
        "2753": "uno ten\u00eda lo que el otro ",
        "2754": "unicornio ",
        "2755": "evita peleas y ",
        "2756": "Bien hech",
        "2757": "y turnarse ",
        "2758": "caracol ",
        "2759": "competir es divertido, pero lo m\u00e1s importante es ",
        "2760": "\n-",
        "2761": ",\" ",
        "2762": "Cor",
        "2763": "Cambi",
        "2764": "Chis",
        "2765": "Uy",
        "2766": "Vamos",
        "2767": "ato",
        "2768": "a, p",
        "2769": "a.\n\nEl ",
        "2770": "atas",
        "2771": "apla",
        "2772": "blan",
        "2773": "clu",
        "2774": "clav",
        "2775": "da. ",
        "2776": "do. El ",
        "2777": "etris",
        "2778": "go",
        "2779": "ham",
        "2780": "hospi",
        "2781": "ica ",
        "2782": "jo",
        "2783": "jun",
        "2784": "lento",
        "2785": "mam",
        "2786": "mad",
        "2787": "ne ",
        "2788": "oc",
        "2789": "ojaron",
        "2790": "r\u00f3",
        "2791": "ros",
        "2792": "sor",
        "2793": "tac",
        "2794": "vac",
        "2795": "veget",
        "2796": "zorr",
        "2797": "\u00fc",
        "2798": "o del ",
        "2799": "a al ",
        "2800": "err",
        "2801": "erro",
        "2802": ". T\u00fa ",
        "2803": ". \u00c9l ",
        "2804": "\u00f3!\n\n",
        "2805": "El B",
        "2806": "El T",
        "2807": "tobo",
        "2808": "abla ",
        "2809": "able ",
        "2810": ".\n\nFin.\n\n(249 palabras)",
        "2811": "\u00f3 en el ",
        "2812": "\u00f3 porque ",
        "2813": "orque ",
        "2814": "anten",
        "2815": ". El ni\u00f1o ",
        "2816": "ello ",
        "2817": "rieron",
        "2818": ", porque ",
        "2819": "as, pero no pod\u00eda ",
        "2820": "conejo.\n\u2014",
        "2821": "on. El ",
        "2822": "tita ",
        "2823": "oscu",
        "2824": "os, hab\u00eda un ",
        "2825": "La pr\u00f3xima vez, ",
        "2826": "tren",
        "2827": "mple",
        "2828": "p\u00e1jaro y un ",
        "2829": "cir",
        "2830": "dijo: \"Gracias, ",
        "2831": "pag",
        "2832": "pap",
        "2833": "estau",
        "2834": "est\u00e9n ",
        "2835": "parti",
        "2836": "piez",
        "2837": ".\n\nEl mono ",
        "2838": "aba a ",
        "2839": "chinche ",
        "2840": "ayudar ",
        "2841": "ayudar a otros es buen",
        "2842": "tecl",
        "2843": "sola. ",
        "2844": "soldadi",
        "2845": "o, y el ",
        "2846": "lo vi",
        "2847": "lo logr",
        "2848": "silo ",
        "2849": ", pero no pod\u00edan ",
        "2850": "grab",
        "2851": "ni ",
        "2852": "nic",
        "2853": "gues",
        "2854": "mur",
        "2855": "Yo tambi\u00e9n",
        "2856": "su amigo ",
        "2857": "jugaban",
        "2858": "salv",
        "2859": "sale ",
        "2860": "sala de ",
        "2861": "salir ",
        "2862": ".\"\n\nE",
        "2863": ".\n\nMoraleja: Los problemas ",
        "2864": "m\u00e1gi",
        "2865": "vio que ",
        "2866": "sopl",
        "2867": "las alas ",
        "2868": "muy buen",
        "2869": "recor",
        "2870": "rea de ",
        "2871": "romp",
        "2872": "No hab\u00eda ",
        "2873": "amiento",
        "2874": "corre",
        "2875": ". El p\u00e1jaro ten\u00eda ",
        "2876": "an turnos, ",
        "2877": "gan\u00f3. El ",
        "2878": "todos pueden ",
        "2879": "otra ",
        "2880": "S\u00ed! ",
        "2881": "mbre ",
        "2882": "fuerte y ",
        "2883": "Los dos estaban felices",
        "2884": "triste y ",
        "2885": "usar el ",
        "2886": "bombero ",
        "2887": "bonita ",
        "2888": "itos",
        "2889": ". \u00a1La ",
        "2890": "resol",
        "2891": "carta ",
        "2892": "pasaman",
        "2893": ".\" La ",
        "2894": "pens\u00f3 un poco ",
        "2895": "ayudarte",
        "2896": "cometa ",
        "2897": ". Aprendieron que los problemas dif\u00edciles se solucionan mejor ",
        "2898": "viv\u00eda una tortuga ",
        "2899": "margarita ",
        "2900": "ter\u00eda",
        "2901": "\u00f3 a su ",
        "2902": "ser felices.",
        "2903": "trabajaban ",
        "2904": "trabajamos juntos",
        "2905": "patio ",
        "2906": "y el P\u00e1jaro\n\nEn un ",
        "2907": "Esper",
        "2908": "corrieron ",
        "2909": "a\u00f1an",
        "2910": ", y el conejo ",
        "2911": ", y el pato ",
        "2912": "tometris",
        "2913": "toman turnos, ",
        "2914": "empuj\u00f3 el ",
        "2915": "Gracias ",
        "2916": "Leo. ",
        "2917": "Sof",
        "2918": "\u00f3 con el ",
        "2919": "\u00f3 con su ",
        "2920": "jugar juntos",
        "2921": "bonitas",
        "2922": ".\n\nMoraleja: Trabajar juntos es mejor si ",
        "2923": "juguete ",
        "2924": "helado",
        "2925": "habi",
        "2926": "hojas",
        "2927": "todo sale ",
        "2928": "llena de ",
        "2929": "lograron ",
        "2930": "Tomar turnos ",
        "2931": "competir para ver qui\u00e9n ",
        "2932": "vieron una ",
        "2933": "sombra",
        "2934": "sombra ",
        "2935": "plaza ",
        "2936": "decidieron trabajar juntos",
        "2937": "decidieron competir para ver qui\u00e9n ",
        "2938": "al mismo tiempo.\n\n\u2014\u00a1",
        "2939": "p\u00e1jaro. \"",
        "2940": "p\u00e1jaro.\n\nEl conejo ",
        "2941": "rodar",
        "2942": "La Tortuga y el Conejo en la ",
        "2943": "gustaba ",
        "2944": "listo",
        "2945": "semillas ",
        "2946": "Dos amigos",
        "2947": "rinoceronte ",
        "2948": "prot",
        "2949": "\n\nHab\u00eda una vez una tortuga y un conejo ",
        "2950": ", pero no sab\u00eda c\u00f3m",
        "2951": ", pero no sab\u00eda c\u00f3mo ",
        "2952": "Arco\u00edris ",
        "2953": "erizo ",
        "2954": "burgues",
        "2955": "a veces hay que sacrificar algo para ayudar a ",
        "2956": "!\"\n\nEntonces",
        "2957": "dijo: \"S\u00ed, ",
        "2958": "mu\u00f1eco ",
        "2959": "ni\u00f1a llamada ",
        "2960": "encendi",
        "2961": "ten\u00eda muchas ",
        "2962": "tendr\u00e9 ",
        "2963": "fogata ",
        "2964": "Cada uno ten\u00eda lo que el otro ",
        "2965": "te doy ",
        "2966": "trampol\u00edn ",
        "2967": "en equipo.\n\nFin.",
        "2968": "Hici",
        "2969": "Rat\u00f3n ",
        "2970": "cami\u00f3n ",
        "2971": "dice: \"\u00a1",
        "2972": "La Abej",
        "2973": "tenedor ",
        "2974": "pulpo ",
        "2975": "abrir la ",
        "2976": "Primero, el ",
        "2977": "Funcion\u00f3! ",
        "2978": "dec\u00eda",
        "2979": "El Conejo y el Pato en el ",
        "2980": "escolar",
        "2981": "Buena idea",
        "2982": "\n- ",
        "2983": "aplaudi",
        "2984": "vegetal ",
        "2985": "tobog",
        "2986": "estauran",
        "2987": "An",
        "2988": "Al d\u00eda siguiente",
        "2989": "Aprendi\u00f3 que ",
        "2990": "Gan",
        "2991": "Le ",
        "2992": "Pel",
        "2993": "Pla",
        "2994": "Pabl",
        "2995": "Tina ",
        "2996": "Vi",
        "2997": "Ver",
        "2998": "avi",
        "2999": "afuer",
        "3000": "a.\n\u2014",
        "3001": "bl",
        "3002": "bo ",
        "3003": "cen",
        "3004": "cuna ",
        "3005": "c\u00f3: \"",
        "3006": "dar",
        "3007": "deli",
        "3008": "ec",
        "3009": "fal",
        "3010": "fon",
        "3011": "g\u00fc",
        "3012": "igol",
        "3013": "kiosco ",
        "3014": "lo. ",
        "3015": "m\u00fa",
        "3016": "mens",
        "3017": "mez",
        "3018": "mos, ",
        "3019": "mader",
        "3020": "no! ",
        "3021": "o, pero el ",
        "3022": "o\n\nEn una ",
        "3023": "o.\n\nEl conejo ",
        "3024": "o\n\nHab\u00eda una vez un ",
        "3025": "pos",
        "3026": "rar",
        "3027": "restauran",
        "3028": "sta vez",
        "3029": "sem\u00e1",
        "3030": "uc",
        "3031": "vari",
        "3032": "a los ",
        "3033": "arre",
        "3034": "ar, pero no pod\u00eda ",
        "3035": "arena ",
        "3036": ". No ",
        "3037": ". Se ",
        "3038": ". Tobi ",
        "3039": ". Ellos ",
        "3040": ". Era ",
        "3041": ". Tambi\u00e9n ",
        "3042": "\u00f3, ",
        "3043": "cola",
        "3044": "entes",
        "3045": "El M",
        "3046": "todo. ",
        "3047": "toda ",
        "3048": "\u00eda a ",
        "3049": ".\n\nLolo ",
        "3050": ".\n\nJuntos, ",
        "3051": "\u00f3 bien",
        "3052": "os de ",
        "3053": "os amigos",
        "3054": "\u00e1s ",
        "3055": "ora ",
        "3056": "una",
        "3057": ": el ",
        "3058": ": \u2014",
        "3059": "inter",
        "3060": "oll",
        "3061": "ame ",
        "3062": "amabl",
        "3063": "amari",
        "3064": "ella",
        "3065": "rico",
        "3066": "no lo ",
        "3067": "ar bien",
        "3068": "ar sus ",
        "3069": "as. \u00a1",
        "3070": "p\u00e1jaro.\n\nEl ",
        "3071": "conejo. El conejo ",
        "3072": ", pero con ",
        "3073": "y el ni\u00f1o ",
        "3074": "La L",
        "3075": "La liebre ",
        "3076": "La Mar",
        "3077": "tren ",
        "3078": "llave",
        "3079": "llave ",
        "3080": "o. Quer\u00edan ",
        "3081": "se escondi",
        "3082": "cielo ",
        "3083": "dijo: \"T\u00fa primero, luego y",
        "3084": "mien",
        "3085": "mitad",
        "3086": "patas",
        "3087": "estan",
        "3088": "ay\u00fadame",
        "3089": "eligi",
        "3090": "pico ",
        "3091": "pimien",
        "3092": "podemos ",
        "3093": "perrito",
        "3094": "ches",
        "3095": "ayudaba a ",
        "3096": "tech",
        "3097": "o, aunque no ",
        "3098": "sil",
        "3099": "sien",
        "3100": "siento",
        "3101": "al ni\u00f1",
        "3102": "los zapatos ",
        "3103": "quer\u00eda jugar con ",
        "3104": "para jugar",
        "3105": "para hacer un ",
        "3106": "pod\u00eda volar",
        "3107": "con una ",
        "3108": "o.\n\nAl final, ",
        "3109": "lim",
        "3110": "aron una ",
        "3111": "era grande y ",
        "3112": "tap",
        "3113": "ta, pero ",
        "3114": "ta. El p\u00e1jaro ",
        "3115": "cantar",
        "3116": "canica ",
        "3117": "o. El sol ",
        "3118": "o. El gato ",
        "3119": "o. El elefante ",
        "3120": "y un p\u00e1jaro. ",
        "3121": "pein",
        "3122": ".\n\nMoraleja: Tomar turnos ",
        "3123": "en el parque",
        "3124": "ni\u00f1os, ",
        "3125": "agua. El ",
        "3126": "muy fuerte",
        "3127": "muy r\u00e1pido, pero ",
        "3128": ". A ",
        "3129": "hac\u00eda ",
        "3130": "!\", gri",
        "3131": "!\", grit\u00f3",
        "3132": "!\", dijeron",
        "3133": "recogi",
        "3134": ". La maestra ",
        "3135": "ropa",
        "3136": "ropa ",
        "3137": "No puedes ",
        "3138": "!\" Pero ",
        "3139": "compartieron",
        "3140": "compartieron el ",
        "3141": "compartimos, ",
        "3142": "le pidi",
        "3143": "sea ",
        "3144": "trabajar mejor",
        "3145": "a, viv\u00eda un ",
        "3146": "todos a ",
        "3147": "otros",
        "3148": "S\u00ed! \u2014dijo el ",
        "3149": "\n\nEn un parque ",
        "3150": "comieron ",
        "3151": "Los dos se ",
        "3152": "Los dos amigos ",
        "3153": "fic",
        "3154": "usar la ",
        "3155": "La tortuga dijo: \"",
        "3156": "peque\u00f1a ",
        "3157": "taron",
        "3158": "calien",
        "3159": "llegar",
        "3160": "!\n\n\u2014",
        "3161": "pasi",
        "3162": "ar a la ",
        "3163": "ar a los ",
        "3164": "sus patitas",
        "3165": ", hab\u00eda un ni\u00f1o ",
        "3166": ", hab\u00eda un conejo y un ",
        "3167": "quer\u00edan jugar",
        "3168": "comuni",
        "3169": "nadaba ",
        "3170": "nad\u00f3 feliz",
        "3171": "es mejor que pelear",
        "3172": "ojo ",
        "3173": "muchas ",
        "3174": ".\n\n\u2014\"\u00a1",
        "3175": ".\n\n\u2014Vamos a ",
        "3176": "\u00f3 un poco de ",
        "3177": "\u00f3 al suel",
        "3178": "qued\u00f3 limpi",
        "3179": "Competi",
        "3180": "car el ",
        "3181": "Lila y ",
        "3182": "ebra ",
        "3183": "ayuda a todos a ",
        "3184": "turno ",
        "3185": "corri\u00f3 a ",
        "3186": "Trabajar juntos es mejor",
        "3187": ", y el sol ",
        "3188": "aprendi\u00f3 que habl",
        "3189": "o\". El p\u00e1jaro ",
        "3190": "tomar ",
        "3191": "salt\u00f3 y ",
        "3192": "ahora ",
        "3193": "tienda de ",
        "3194": "Tobi, ",
        "3195": "empuj\u00f3 la ",
        "3196": "llamado Lol",
        "3197": "Luis",
        "3198": "por la ",
        "3199": "a la vez",
        "3200": "en un \u00e1rbol",
        "3201": "en un lugar ",
        "3202": "bati",
        "3203": "!\", dijo. El ",
        "3204": "t\u00fa me das ",
        "3205": "dijo: \"\u00a1S\u00ed! Yo ",
        "3206": "cador",
        "3207": "pint\u00f3 ",
        "3208": "vol\u00f3 hasta el ",
        "3209": ". La tortuga quer\u00eda ",
        "3210": "estaban felices.\n\nMoraleja: Compartir ",
        "3211": "\". Entonces, ",
        "3212": ".\" El p\u00e1jaro ",
        "3213": "boli",
        "3214": "traer ",
        "3215": "juguete",
        "3216": "Trabajaban ",
        "3217": "entend\u00eda",
        "3218": "divertido ",
        "3219": "No, es ",
        "3220": "estrella ",
        "3221": "amos.",
        "3222": ".\n\nEntonces, ",
        "3223": "llamada Lila. ",
        "3224": "elefante",
        "3225": "hoja ",
        "3226": "venado ",
        "3227": "\u2014dijo el conejo.\n\u2014",
        "3228": "los problemas grandes ",
        "3229": "primero!\" ",
        "3230": "ser ego\u00edsta no ",
        "3231": ".\n\nAl final, el p\u00e1jaro ",
        "3232": "c\u00f3mo ",
        "3233": "Lo siento",
        "3234": "El Perro ",
        "3235": "No pod\u00edan ",
        "3236": "sapi",
        "3237": "tampoco ",
        "3238": "servi",
        "3239": "seguir ",
        "3240": "!\"\n\nEl p\u00e1jaro ",
        "3241": "no ten\u00eda n",
        "3242": "?\" El ",
        "3243": "?\" El p\u00e1jaro ",
        "3244": "eran amigos",
        "3245": "es m\u00e1s importante ",
        "3246": "vio a un ",
        "3247": "cruzar",
        "3248": "colch",
        "3249": "esper\u00f3. ",
        "3250": "Esta vez, el ",
        "3251": "aquero ",
        "3252": "iste ",
        "3253": "con sus patitas",
        "3254": "ramas",
        "3255": "ramas ",
        "3256": "y el P\u00e1jaro\n\nEn una ",
        "3257": "moned",
        "3258": "!\", dijo Lol",
        "3259": "Lila, ",
        "3260": "zapatos",
        "3261": "Mimi ",
        "3262": "Necesitaba ",
        "3263": "bebi\u00f3 ",
        "3264": "Jugaron ",
        "3265": "mordi",
        "3266": "trajo un ",
        "3267": "hoyo ",
        "3268": "todos disfrutan ",
        "3269": "dijo: \"\u00a1S\u00ed, yo ",
        "3270": "dibujar ",
        "3271": "dur",
        "3272": "velo",
        "3273": "o.\n\nMoraleja: Compartir hace que todos sean felices.",
        "3274": "Trabajaron juntos",
        "3275": "encen",
        "3276": "\u00f3 mucho. ",
        "3277": ".\n\nMoraleja: Hablar claro ayuda a trabajar juntos.",
        "3278": "carreta ",
        "3279": "piedras",
        "3280": ".\n\nMoraleja: A veces, cooperar significa sacrificar alg",
        "3281": "red ",
        "3282": "\u00eda mucho ",
        "3283": "disfrutaron sin pelear",
        "3284": "trabajar juntos es mejor que trabajar solos.\n\nFin.",
        "3285": "\u2014dijo Lolo.\n\u2014",
        "3286": "y los Amigos\n\nEn una ",
        "3287": "aire",
        "3288": "ayuda a todos.",
        "3289": "tintorer\u00eda ",
        "3290": "clavo ",
        "3291": "iba ",
        "3292": "justo",
        "3293": "espej",
        "3294": "consulado ",
        "3295": "estacion",
        "3296": "juntos son m\u00e1s fuertes",
        "3297": "firm",
        "3298": "tuvo una idea. \"\u00a1Trabajemos juntos",
        "3299": "nasi",
        "3300": "espacio para ",
        "3301": "nicer\u00eda",
        "3302": "perro y un gato",
        "3303": "animales ",
        "3304": ".\n\nMoraleja: Trabajar con otros ",
        "3305": "Basta",
        "3306": "estaci\u00f3n de ",
        "3307": "salt\u00f3 de alegr\u00eda",
        "3308": "linterna ",
        "3309": ", pero siempre con respeto.",
        "3310": ",\" dijo",
        "3311": "hamburgues",
        "3312": "r\u00f3fan",
        "3313": "mplea\u00f1",
        "3314": "papel ",
        "3315": "record",
        "3316": "al mismo tiempo.\n\n\u2014\u00a1Yo quiero ",
        "3317": "aplaudieron",
        "3318": "g\u00fce",
        "3319": "igolf",
        "3320": "m\u00fasi",
        "3321": "mezcl",
        "3322": "sem\u00e1for",
        "3323": "Competir ",
        "3324": "\nEl p\u00e1jaro ",
        "3325": "\". La ",
        "3326": "\".\n\nEl conejo ",
        "3327": "\". Pero ",
        "3328": "\".\n\nLa tortuga ",
        "3329": ".*",
        "3330": "Az",
        "3331": "Aqu",
        "3332": "Ani",
        "3333": "Abu",
        "3334": "De ",
        "3335": "Dame ",
        "3336": "Ele",
        "3337": "Hac",
        "3338": "In",
        "3339": "Ju",
        "3340": "Me ",
        "3341": "Osi",
        "3342": "Pal",
        "3343": "Pin",
        "3344": "P\u00e1jar",
        "3345": "Rita ",
        "3346": "Tu",
        "3347": "Vale",
        "3348": "Zorro ",
        "3349": "a, pero no ",
        "3350": "atrap",
        "3351": "b ",
        "3352": "br",
        "3353": "ber",
        "3354": "borr",
        "3355": "camis",
        "3356": "cebra ",
        "3357": "don",
        "3358": "dra",
        "3359": "ga ",
        "3360": "gallo ",
        "3361": "gles",
        "3362": "lab",
        "3363": "los",
        "3364": "ltr",
        "3365": "nev",
        "3366": "nav",
        "3367": "oa ",
        "3368": "ono ",
        "3369": "ote",
        "3370": "ocu",
        "3371": "o.\" ",
        "3372": "o.\"\n\nEl ",
        "3373": "o\n\nEn el ",
        "3374": "o\u2014. ",
        "3375": "sed",
        "3376": "sinti",
        "3377": "sne ",
        "3378": "t\u00eda ",
        "3379": "ten ",
        "3380": "tado ",
        "3381": "tele",
        "3382": "tamb",
        "3383": "vaquero ",
        "3384": "ya ",
        "3385": "zaje",
        "3386": "arla ",
        "3387": "arri",
        "3388": ". Lina ",
        "3389": ". Todos ",
        "3390": ". Sin ",
        "3391": ", luego ",
        "3392": ", aunque no ",
        "3393": "y lo ",
        "3394": "y dijo: \"\u00a1Yo te ayudo",
        "3395": "cog",
        "3396": "ensal",
        "3397": "entes ",
        "3398": "encantad",
        "3399": "difer",
        "3400": "dice ",
        "3401": "espon",
        "3402": ".\n\nPero ",
        "3403": ".\n\nLila ",
        "3404": ".\n\nJuntos, el ",
        "3405": ".\n\nEn la ",
        "3406": "\u00f3 de ",
        "3407": "\u00e1s",
        "3408": "organ",
        "3409": "ander",
        "3410": "la claro.",
        "3411": ": Lolo y ",
        "3412": "ing",
        "3413": ". El gato ",
        "3414": ". El conejito ",
        "3415": ". El perrito ",
        "3416": "concentr",
        "3417": "conoci",
        "3418": "olin",
        "3419": "ri\u00f3 ",
        "3420": "no quer\u00eda ",
        "3421": "ar y ",
        "3422": "p\u00e1jaro. El conejo ",
        "3423": "p\u00e1jaro.\n\u2014",
        "3424": "p\u00e1jaro.\n\u2014\u00a1",
        "3425": "conejo, ",
        "3426": "ontes ",
        "3427": "tillo ",
        "3428": ", pero los dos ",
        "3429": "y el G",
        "3430": "y el pato ",
        "3431": "y el mono ",
        "3432": "La Es",
        "3433": ": \"\u00bf",
        "3434": "tre",
        "3435": "ugi",
        "3436": "dijo: \u2014",
        "3437": "ten\u00eda",
        "3438": "o. Un ",
        "3439": "o. Se ",
        "3440": "o. Ambos ",
        "3441": "se hab",
        "3442": "se rompi",
        "3443": "se sien",
        "3444": "ciel",
        "3445": "cig\u00fce",
        "3446": "cisne ",
        "3447": "suav",
        "3448": "dijo: \"Quiero ",
        "3449": "\u2014 ",
        "3450": "\u2014. \u00a1",
        "3451": "\u2014dijo la tortug",
        "3452": "pavo ",
        "3453": "estar",
        "3454": "a. Un d\u00eda, ",
        "3455": ".\n\nEl pato ",
        "3456": ".\n\nEl pajarito ",
        "3457": ".\n\nEl conejito ",
        "3458": "torta ",
        "3459": "torni",
        "3460": "tortita ",
        "3461": "\n\nEra ",
        "3462": "o, un ",
        "3463": "o, viv\u00eda un ",
        "3464": "lo us",
        "3465": "lo encontr",
        "3466": "lo agarr",
        "3467": ", pero no s\u00e9 ",
        "3468": "los juguetes",
        "3469": "los huevos",
        "3470": "gru\u00f1",
        "3471": "dijo: \"\u00a1Quiero ",
        "3472": "nid",
        "3473": "nie",
        "3474": "cubri",
        "3475": "cumplea\u00f1",
        "3476": "ten\u00eda hambre",
        "3477": "vela ",
        "3478": "con la ",
        "3479": "con las ",
        "3480": "quir\u00f3fan",
        "3481": "o.\n\nLa tortuga ",
        "3482": "o.\n\n(249 palabras)",
        "3483": "lidad",
        "3484": "fueg",
        "3485": "fuego",
        "3486": "canto ",
        "3487": "jugaron",
        "3488": "o. El pato ",
        "3489": "deb",
        "3490": "y un rat\u00f3n ",
        "3491": "salud",
        "3492": "salta ",
        "3493": "\u00f3. No ",
        "3494": "\u00f3. Juntos ",
        "3495": "en el C",
        "3496": "grani",
        "3497": "grandes",
        "3498": "felices.\n\nFin.",
        "3499": "\u00f3 y se ",
        "3500": "\u00f3 y dijo: \"\u00a1",
        "3501": "muy alto",
        "3502": "muy r\u00e1pido. ",
        "3503": "!\", dijo la tortug",
        "3504": "reci",
        "3505": "reina ",
        "3506": "!\" dijo",
        "3507": ".\n\nAs\u00ed",
        "3508": ".\n\nAna ",
        "3509": "m\u00e1s que ",
        "3510": "m\u00e1s fuerte",
        "3511": "m\u00e1s r\u00e1pido",
        "3512": "le dijo: \"\u00a1",
        "3513": "le dijo ",
        "3514": "Todo ",
        "3515": "a, y ",
        "3516": "a, yo ",
        "3517": "go y ",
        "3518": "sonaj",
        "3519": "ganas",
        "3520": "gan\u00f3. ",
        "3521": ", pero no pod\u00eda alcanzar",
        "3522": "en la aren",
        "3523": "comieron felices",
        "3524": ", pero el pato ",
        "3525": "Consul",
        "3526": "filtr",
        "3527": "triste ",
        "3528": "T\u00fa tambi\u00e9n ",
        "3529": "T\u00fa eres ",
        "3530": "y el p\u00e1jaro vol\u00f3 ",
        "3531": "peque\u00f1o. El ",
        "3532": "peque\u00f1a. La ",
        "3533": "hier",
        "3534": "hiel",
        "3535": "bot\u00f3n ",
        "3536": "!\n\nAl final, ",
        "3537": "respi",
        "3538": "carg",
        "3539": "carrito ",
        "3540": "pasar",
        "3541": ", hab\u00eda un p\u00e1jaro y un ",
        "3542": "Juntos trabajar",
        "3543": "Juntos lo logr",
        "3544": "comes ",
        "3545": "llevar ",
        "3546": "lodo ",
        "3547": ". Aprendieron que ayudar a otros es buen",
        "3548": "triste. \"\u00a1",
        "3549": ", el conejo y el p\u00e1jaro ",
        "3550": ". Pero no pod\u00eda ",
        "3551": "brillaba ",
        "3552": "camp",
        "3553": "camello ",
        "3554": "limpiar el ",
        "3555": "grande, viv\u00eda un ",
        "3556": "!\", dijo el p\u00e1jaro.\n\n",
        "3557": "!\" El perro ",
        "3558": "barcos ",
        "3559": "Lina y ",
        "3560": "Esta",
        "3561": "entro ",
        "3562": "entras ",
        "3563": "hay un ",
        "3564": "hacia ",
        "3565": "intent\u00f3 empujar ",
        "3566": "pelearon",
        "3567": "Pipo. ",
        "3568": "Pipo y ",
        "3569": "El Conejo y el Perro ",
        "3570": "corri\u00f3 y ",
        "3571": "ten\u00eda un problema: ",
        "3572": "le dio un ",
        "3573": ", y el perro ",
        "3574": "aprendi\u00f3 que ser ego\u00edsta no ",
        "3575": "ego\u00edsta ",
        "3576": "o\". El conejo ",
        "3577": ". \"T\u00fa ",
        "3578": "fante ",
        "3579": "corr\u00eda ",
        "3580": "subir",
        "3581": "o. El p\u00e1jaro quer\u00eda ",
        "3582": "que todos est\u00e9n ",
        "3583": "y el conejo quer\u00edan ",
        "3584": ".\"\n\nLa ",
        "3585": ".\"\n\nMoraleja: ",
        "3586": "movi\u00f3 sus ",
        "3587": "Despu\u00e9s, el conejo ",
        "3588": "La Tortuga y el P\u00e1jaro ",
        "3589": "dijo: \"\u00a1S\u00ed! Pero ",
        "3590": "tortuga. \"\u00a1",
        "3591": "pens\u00f3: \"Puedo ",
        "3592": "vol\u00f3 alto y ",
        "3593": "estaban felices. Aprendieron que compartir ",
        "3594": "dinero ",
        "3595": "fue feliz",
        "3596": ".\" El perro ",
        "3597": "o de los ",
        "3598": "panader",
        "3599": "zapato ",
        "3600": "es mejor.\n\nFin.",
        "3601": "aprendieron que compartir ",
        "3602": "aprendieron que habl",
        "3603": ".\n\nEntonces, el conejo ",
        "3604": "volar. El p\u00e1jaro ",
        "3605": "La Cas",
        "3606": "fueron felices. Aprendieron que ",
        "3607": "hasta la ",
        "3608": "as\u00ed ",
        "3609": "algun",
        "3610": "te ayudo a ",
        "3611": "planch",
        "3612": "nube",
        "3613": "piedra",
        "3614": "se sinti\u00f3 mejor",
        "3615": "o para todos",
        "3616": ". As\u00ed, el ",
        "3617": "dulces",
        "3618": "dulce ",
        "3619": "quer\u00eda ayudar, pero no pod\u00eda ",
        "3620": "se enoj\u00f3 y ",
        "3621": "extr",
        "3622": "tamontes ",
        "3623": ".\n\n\u2014\u00a1No puedo solo",
        "3624": "Lina, ",
        "3625": "Lola y ",
        "3626": "seguir",
        "3627": ". Ambos quer\u00edan ",
        "3628": "Luc\u00eda ",
        "3629": "adorn",
        "3630": "estudi",
        "3631": "pastel qued\u00f3 ",
        "3632": "hizo un ",
        "3633": "es mejor que ser ego\u00edsta",
        "3634": "? T\u00fa ",
        "3635": "respondi\u00f3: \"",
        "3636": "necesitaba",
        "3637": "tropez",
        "3638": "juntos. Lolo ",
        "3639": "aunque ",
        "3640": "arreglar",
        "3641": "patineta ",
        "3642": "T\u00fa primero, luego yo.\n\n",
        "3643": "sin pelear.",
        "3644": "asinti\u00f3.\n\n",
        "3645": "se rieron y ",
        "3646": "casita del ",
        "3647": "se miraron y ",
        "3648": "sirena ",
        "3649": "viv\u00edan dos ",
        "3650": "bajo el ",
        "3651": "pregunt\u00f3",
        "3652": "burro ",
        "3653": "sentar",
        "3654": "Cerca ",
        "3655": "centro ",
        "3656": "p\u00e1jaro, y el p\u00e1jaro ",
        "3657": "chuza ",
        "3658": "sali\u00f3 ",
        "3659": ". Aprendieron que hablar claro ayuda a ",
        "3660": ". Aprendieron que hablar claro ayuda a trabajar juntos.\n\nFin.",
        "3661": "piedras ",
        "3662": "con cuidad",
        "3663": "resbaladi",
        "3664": "pens\u00f3: \"Si no ",
        "3665": "beber",
        "3666": "lenta ",
        "3667": "hablamos clar",
        "3668": "Su amig",
        "3669": "jard\u00edn de ",
        "3670": "\"\u00bfQuieres cambiar",
        "3671": "nueces",
        "3672": "cuando trabajan juntos.\n\nFin.",
        "3673": "La Carrera de los ",
        "3674": "no se enoj\u00f3. ",
        "3675": "se subi\u00f3 al ",
        "3676": "se asust\u00f3 y ",
        "3677": "pronto, ",
        "3678": "galletas",
        "3679": "tambi\u00e9n se sinti\u00f3 feliz",
        "3680": "granja encantad",
        "3681": "pel\u00edcula",
        "3682": "cepill",
        "3683": "Necesitamos trabajar juntos",
        "3684": "tedral",
        "3685": "todos disfrutan.",
        "3686": "chimenea ",
        "3687": "cactus ",
        "3688": "angrej",
        "3689": "ten\u00eda el pelo ",
        "3690": "ada para comer",
        "3691": "paloma ",
        "3692": "ser buenos amigos",
        "3693": "cant\u00f3 una canci\u00f3n ",
        "3694": "medicin",
        "3695": "suficiente para los dos",
        "3696": "estuvo de acuerdo. ",
        "3697": "Kiko ",
        "3698": "mam\u00e1",
        "3699": "madera ",
        "3700": "zorro, ",
        "3701": "sopl\u00f3 ",
        "3702": "pens\u00f3 un poco y dijo: \"",
        "3703": "tometrista",
        "3704": "Sof\u00eda ",
        "3705": "habilidad",
        "3706": "proteg",
        "3707": "Hicieron un ",
        "3708": "tobog\u00e1n ",
        "3709": "delicios",
        "3710": "toda la ",
        "3711": "La Mariposa ",
        "3712": "ayuda a todos a ser felices.",
        "3713": "los problemas grandes se solucionan mejor ",
        "3714": "colch\u00f3n ",
        "3715": "veloz",
        "3716": "m\u00fasica ",
        "3717": "Azul ",
        "3718": "Aqu\u00ed ",
        "3719": "Animal",
        "3720": "Elefante ",
        "3721": "glesia ",
        "3722": "televisi",
        "3723": "organis",
        "3724": "se habla claro.",
        "3725": "se sienten ",
        "3726": "*\u00a1",
        "3727": "L\u00eda",
        "3728": "M\u00eda",
        "3729": "Mi ",
        "3730": "M\u00eda. ",
        "3731": "M\u00e1gi",
        "3732": "Nadi",
        "3733": "Pac",
        "3734": "Rojo ",
        "3735": "agr",
        "3736": "a.\n\nEl p\u00e1jaro ",
        "3737": "a\n\nHab\u00eda un ",
        "3738": "apre",
        "3739": "apag",
        "3740": "ba. ",
        "3741": "cri",
        "3742": "c\u00f3 y ",
        "3743": "clas",
        "3744": "c\u00edr",
        "3745": "dol",
        "3746": "das",
        "3747": "eta. ",
        "3748": "im\u00e1",
        "3749": "ido. ",
        "3750": "ijo",
        "3751": "jer",
        "3752": "jue",
        "3753": "lado ",
        "3754": "mol",
        "3755": "ma\u00f1an",
        "3756": "n\u00fa",
        "3757": "nari",
        "3758": "o!\", dijo el ",
        "3759": "o\n\nHab\u00eda un ",
        "3760": "pen",
        "3761": "pad",
        "3762": "ste ",
        "3763": "stan",
        "3764": "tej",
        "3765": "tel",
        "3766": "tabla ",
        "3767": "ur",
        "3768": "ve ",
        "3769": "ven ",
        "3770": "v\u00eda",
        "3771": "zz",
        "3772": "o de la ",
        "3773": "a que ",
        "3774": "a su ",
        "3775": "arl",
        "3776": "ar\u00eda ",
        "3777": "armar",
        "3778": "ern",
        "3779": "ervo ",
        "3780": ". Pablo ",
        "3781": ". Solo ",
        "3782": ". Max ",
        "3783": ". Luego, ",
        "3784": ", hab\u00eda ",
        "3785": ", yo ",
        "3786": "\u00f3, pero ",
        "3787": "\u00f3gi",
        "3788": "\n\nCerca ",
        "3789": "y dijo: \"\u00a1Yo quiero ",
        "3790": "enci",
        "3791": "enoj",
        "3792": "entien",
        "3793": "ense\u00f1",
        "3794": "El Conej",
        "3795": "to. El ",
        "3796": "divi",
        "3797": "dieron",
        "3798": "es. ",
        "3799": "espin",
        "3800": ".\n\nDespu\u00e9s, ",
        "3801": "\u00f3 en la ",
        "3802": "\u00f3 en su ",
        "3803": "os no ",
        "3804": "\u00e1rea de ",
        "3805": "alta. ",
        "3806": "anch",
        "3807": "ando",
        "3808": "ando. ",
        "3809": "la us",
        "3810": "la llev",
        "3811": "la mariposa ",
        "3812": "la gente ",
        "3813": ": no ",
        "3814": ". El re",
        "3815": ". El osito ",
        "3816": ". El delf\u00edn ",
        "3817": ". El gorila ",
        "3818": "cont\u00f3 ",
        "3819": "conmig",
        "3820": "confundi",
        "3821": "conserv",
        "3822": "amor",
        "3823": "amento",
        "3824": "ella. ",
        "3825": "ris",
        "3826": "rieron ",
        "3827": "no escuch",
        "3828": "no quiso ayudar",
        "3829": "no entendi\u00f3. ",
        "3830": "ar es buen",
        "3831": "ar mi ",
        "3832": "conejos ",
        "3833": "conejo. \"\u00a1",
        "3834": "conejo.\n\u2014\u00a1",
        "3835": "ones",
        "3836": "tim",
        "3837": "tijer",
        "3838": ", pero yo ",
        "3839": ", pero sin ",
        "3840": "que me ",
        "3841": "oset",
        "3842": "adas",
        "3843": "y el D",
        "3844": "y el elefante ",
        "3845": "y el p\u00e1jaro",
        "3846": "La I",
        "3847": "La R",
        "3848": "tru",
        "3849": "as a ",
        "3850": "en lo ",
        "3851": "o. Todos ",
        "3852": "se des",
        "3853": "se ca",
        "3854": "se der",
        "3855": "vivieron felices",
        "3856": "!\"\u2014 ",
        "3857": "sur",
        "3858": "super",
        "3859": "eron al ",
        "3860": "\u2014dijo la ",
        "3861": "\u2014contest",
        "3862": "mientras ",
        "3863": "pate",
        "3864": "\u00e9r",
        "3865": ".\n\nEl osito ",
        "3866": ".\n\nEl patito ",
        "3867": "aba el ",
        "3868": "ches ",
        "3869": "! T\u00fa ",
        "3870": "! Ahora ",
        "3871": "ayuda ",
        "3872": "ayudar al ",
        "3873": "temp",
        "3874": "techo ",
        "3875": "sole",
        "3876": "o, \u00bf",
        "3877": "o, y la ",
        "3878": "lo empuj\u00f3 con ",
        "3879": "simp",
        "3880": "al final",
        "3881": ", pero no puedo ",
        "3882": ", pero no tengo ",
        "3883": ", pero no pod\u00eda",
        "3884": "er el ",
        "3885": "los libr",
        "3886": "nieta ",
        "3887": "quer\u00eda pintar ",
        "3888": "puente",
        "3889": "muev",
        "3890": ", el perro ",
        "3891": "para hacer ",
        "3892": "para m\u00ed",
        "3893": "culo ",
        "3894": "pod\u00eda volar ",
        "3895": "ten\u00eda agua ",
        "3896": "ten\u00eda fr\u00ed",
        "3897": "ten\u00eda patitas ",
        "3898": "o.\n\nAprendieron que ",
        "3899": "r el ",
        "3900": "lip",
        "3901": "Yo solo ",
        "3902": "Yo te ayudo",
        "3903": "fuente ",
        "3904": "aron un ",
        "3905": "juntos.",
        "3906": "t\u00f3 al ",
        "3907": "era buen",
        "3908": "era grande",
        "3909": "era fuerte",
        "3910": "era perfecto",
        "3911": "canoa ",
        "3912": "compu",
        "3913": "su amig",
        "3914": "jugaba ",
        "3915": "jugando ",
        "3916": "detu",
        "3917": "decor",
        "3918": "y un perro ",
        "3919": "saltamontes ",
        "3920": "estaba ro",
        "3921": "estaba enferm",
        "3922": "\u00f3. La ",
        "3923": "Pero la ",
        "3924": "tura",
        "3925": "tura ",
        "3926": "tuvieron ",
        "3927": "tulip",
        "3928": "vio una ",
        "3929": "las cosas ",
        "3930": "muy bonita. ",
        "3931": ". Ana ",
        "3932": "mom",
        "3933": "mover ",
        "3934": "mochi",
        "3935": "mover la ",
        "3936": "prendieron que",
        "3937": ". La ardilla ",
        "3938": "No quiero ",
        "3939": "No funcion",
        "3940": "d\u00eda, ",
        "3941": "mercad",
        "3942": "!\" Pero el ",
        "3943": ".\n\nAmbos ",
        "3944": "comparti\u00f3 su ",
        "3945": "rat\u00f3n y un ",
        "3946": "le gustaba ",
        "3947": ". El conejo quer\u00eda ",
        "3948": "an un poco",
        "3949": "ganan",
        "3950": "tricic",
        "3951": ", pero no pod\u00eda solo",
        "3952": "S\u00ed!\", dijo el ",
        "3953": "\n\nEn un cir",
        "3954": "comieron y ",
        "3955": "comi\u00f3 feliz",
        "3956": ", pero el agua ",
        "3957": ", pero el gato ",
        "3958": "fiesta ",
        "3959": "sonrieron",
        "3960": "Com",
        "3961": "Comi",
        "3962": "Coco ",
        "3963": "Compi",
        "3964": "del conejo ",
        "3965": "del sol ",
        "3966": "us\u00f3 sus ",
        "3967": "y el p\u00e1jaro vol",
        "3968": "\n\nEn una plaza ",
        "3969": "tari",
        "3970": "cali",
        "3971": "cerez",
        "3972": "hielo ",
        "3973": "! \u2014dijo la tortug",
        "3974": "bonito ",
        "3975": "llegar ",
        "3976": ". \u00a1Fue ",
        "3977": ".\n\nEl conejo vio al p\u00e1jaro ",
        "3978": "ipos",
        "3979": "carr",
        "3980": "carne",
        "3981": "carnicer\u00eda",
        "3982": "\n\nHab\u00eda una tortuga ",
        "3983": "agua al ",
        "3984": "agua estaba ",
        "3985": "pas\u00f3 ",
        "3986": ".\" La tortuga ",
        "3987": "Entonces, pens",
        "3988": "castillo ",
        "3989": "quedaron ",
        "3990": ", hab\u00eda un conejo ",
        "3991": "grande y un p\u00e1jaro ",
        "3992": "tanto ",
        "3993": "lomo ",
        "3994": "capilla ",
        "3995": "eron. El ",
        "3996": ". \"\u00a1Gracias, ",
        "3997": "fruta ",
        "3998": ". Pero la ",
        "3999": "Y as\u00ed",
        "4000": "mucho ",
        "4001": "mucha ",
        "4002": "muchos ",
        "4003": "aprendi\u00f3: \"",
        "4004": "los dos amigos ",
        "4005": "regal",
        "4006": "reglas ",
        "4007": "qued\u00f3 bonito",
        "4008": "qued\u00f3 hermos",
        "4009": "grande. ",
        "4010": "car la ",
        "4011": "!\" El rat\u00f3n ",
        "4012": "!\" El pato ",
        "4013": "barr",
        "4014": "barco",
        "4015": "le\u00f1",
        "4016": "lechuza ",
        "4017": "abr\u00eda ",
        "4018": "tuvo un ",
        "4019": "hacer cosas ",
        "4020": "mano ",
        "4021": "ta. Pero ",
        "4022": "solo uno pod\u00eda ",
        "4023": "entrar ",
        "4024": "pon\u00eda ",
        "4025": "pongo ",
        "4026": "audi",
        "4027": "cuando se ",
        "4028": "cuando ayud",
        "4029": "iento",
        "4030": "alto. El p\u00e1jaro ",
        "4031": "le dio una ",
        "4032": "le dio sus ",
        "4033": "porque el ",
        "4034": "tambi\u00e9n quer\u00eda ",
        "4035": "gim",
        "4036": "! \u2014dijo el conejo.\n\u2014\u00a1",
        "4037": "aprendi\u00f3 que trabajar juntos es mejor",
        "4038": "a.\n\nLa tortuga ",
        "4039": "o\".\n\n",
        "4040": "tom\u00f3 el ",
        "4041": "se enojaron",
        "4042": ", y t\u00fa ",
        "4043": "si se ",
        "4044": "llamado Tobi",
        "4045": "subi\u00f3 al ",
        "4046": "Leo y ",
        "4047": "discu",
        "4048": "Somb",
        "4049": "zo de ",
        "4050": "cine ",
        "4051": "cinta ",
        "4052": "movi\u00f3 la ",
        "4053": "misma ",
        "4054": "baj\u00f3 la ",
        "4055": "pincel",
        "4056": "conejito salt\u00f3 ",
        "4057": "tortuga",
        "4058": "tortuga. ",
        "4059": "pens\u00f3: \"El ",
        "4060": "pens\u00f3: \"Deb",
        "4061": "fue al ",
        "4062": ".\" El conejo ",
        "4063": "colore",
        "4064": ".\n\nMoraleja: Trabajar juntos es mejor cuando ",
        "4065": "necesari",
        "4066": "a de los ",
        "4067": "cosas",
        "4068": "trae ",
        "4069": "foco",
        "4070": "foco ",
        "4071": "lastim",
        "4072": "pesada",
        "4073": "pantan",
        "4074": "o y el perro ",
        "4075": "estrech",
        "4076": ", pero no sab\u00eda qu\u00e9 ",
        "4077": "Qu\u00e9 bonito",
        "4078": "aprendieron que competir es divertido, pero lo m\u00e1s importante es ",
        "4079": "Pero el conejo ",
        "4080": "llamada Lina. ",
        "4081": "helad",
        "4082": "ja En",
        "4083": "sonri\u00f3 y dijo: \"\u00a1Gracias",
        "4084": "grande y bonito",
        "4085": "minigolf",
        "4086": "algod",
        "4087": "conejo y un p\u00e1jaro. ",
        "4088": "\u2014dijo el p\u00e1jaro.\n\u2014",
        "4089": "quieres",
        "4090": "quieren ",
        "4091": "o.\n\nMoraleja: Ayud",
        "4092": "derse",
        "4093": "ranja En",
        "4094": "o, el p\u00e1jaro ",
        "4095": "hay que hablar clar",
        "4096": "feter\u00eda ",
        "4097": ". Un d\u00eda, un ",
        "4098": ". Un d\u00eda, vieron un ",
        "4099": ".\n\nMoraleja: Compartir hace que todos sean felices.",
        "4100": "ladr\u00f3 ",
        "4101": "c\u00f3mo",
        "4102": "dej\u00f3 que ",
        "4103": ", pero no ten\u00eda diner",
        "4104": "\n\nEn la enfermer\u00eda ",
        "4105": "\n\nEn la sala de ",
        "4106": "jugaron juntos",
        "4107": "dif\u00edciles se solucionan mejor cuando trabajamos juntos",
        "4108": "El P\u00e1jar",
        "4109": "\u2014dijo Lila",
        "4110": "r\u00e1pido. El conejo ",
        "4111": "brillante ",
        "4112": "brillantes",
        "4113": "Tilo ",
        "4114": "expor",
        "4115": "expli",
        "4116": "maquill",
        "4117": "en su espal",
        "4118": "calentar el ",
        "4119": ".\n\n\u2014\u00a1No podemos solos",
        "4120": "caball",
        "4121": "caballo ",
        "4122": "se qued\u00f3 quieto",
        "4123": "se movi\u00f3 ",
        "4124": ". Ambos se sintieron ",
        "4125": ", pero el p\u00e1jaro quer\u00eda ",
        "4126": "gatita ",
        "4127": ". Aprendieron que compartir y turnarse ",
        "4128": ". Y el ",
        "4129": "nido bonito",
        "4130": ".\n\nMoraleja: A veces, compartir es mejor que ",
        "4131": "tuvo una idea",
        "4132": "juego ",
        "4133": ". Pero el p\u00e1jaro ",
        "4134": "La Tortuga y el Conejo en la C",
        "4135": "acili",
        "4136": "noche",
        "4137": "colina ",
        "4138": "o, y yo ",
        "4139": "!\n\nEl conejo ",
        "4140": "? Yo quiero ",
        "4141": "closet",
        "4142": "respondi\u00f3 ",
        "4143": "respondi\u00f3: \"\u00a1S\u00ed",
        "4144": "hace felices a todos.\n\nFin.",
        "4145": "Amigos\n\nEn un ",
        "4146": "dormir",
        "4147": "dijo: \"\u00a1Yo quiero el ",
        "4148": "queso ",
        "4149": "queso. ",
        "4150": "trozo de ",
        "4151": "charco",
        "4152": "gallinero ",
        "4153": "er\u00eda, hab\u00eda un ",
        "4154": ", pero no pod\u00eda llegar",
        "4155": "y el Pato",
        "4156": "cooperar significa sacrificar alg",
        "4157": "alcanzar el ",
        "4158": "Jugar ",
        "4159": "lancha ",
        "4160": "o. Los dos quer\u00edan ",
        "4161": "sonri\u00f3. \"\u00a1Gracias, ",
        "4162": "martill",
        "4163": "cocinar",
        "4164": "dijo:\n\u2014\u00a1",
        "4165": "tedes ",
        "4166": "jard\u00edn",
        "4167": ", pero estaba muy ",
        "4168": "La Granja En",
        "4169": "picnic",
        "4170": "sirve",
        "4171": "eriz",
        "4172": "histori",
        "4173": "correr. El conejo ",
        "4174": "competir, pero siempre con respeto.",
        "4175": "plumas",
        "4176": "no pudo seguir",
        "4177": "despu\u00e9s ",
        "4178": ".\n\nMoraleja: Ayudar a otros es bueno. \u00a1Todos ",
        "4179": "Cerca, ",
        "4180": "\u00e1n felices",
        "4181": "y el Sol\n\nEn un ",
        "4182": "chup",
        "4183": ".\n\nMoraleja: Hablar claro ayuda a ",
        "4184": "terminad",
        "4185": ".\n\nMoraleja: A veces, cooperar significa dar ",
        "4186": "Para ",
        "4187": "Parque",
        "4188": "\u00c1r",
        "4189": "o. Pero al final",
        "4190": "descansar",
        "4191": "conejo y un p\u00e1jaro quer\u00edan ",
        "4192": "conejo y un p\u00e1jaro en un ",
        "4193": "siguieron las reglas",
        "4194": "premio ",
        "4195": "escaler",
        "4196": "cuerdas ",
        "4197": "a veces, la gente ",
        "4198": "dej\u00f3 de ",
        "4199": "dej\u00f3 ca",
        "4200": "Eres muy ",
        "4201": "trampol\u00edn",
        "4202": "No, p",
        "4203": "dijo: \"\u00a1Ayuda! ",
        "4204": "aprendi\u00f3 que compartir es buen",
        "4205": "picote\u00f3 el ",
        "4206": "Rosa. ",
        "4207": "Ustedes ",
        "4208": "har\u00e9 ",
        "4209": ", todos ganan.",
        "4210": "se asust\u00f3",
        "4211": "con amigos.\n\nFin.",
        "4212": "galletas ",
        "4213": "fundir el ",
        "4214": "opla ",
        "4215": "valios",
        "4216": ".\n\nMoraleja: Cooperar es mejor que ser ego\u00edsta.",
        "4217": "agua fresca",
        "4218": "cav\u00f3 un ",
        "4219": "Oh no! ",
        "4220": "jab\u00f3n ",
        "4221": "mel\u00f3n ",
        "4222": "todas las ",
        "4223": "embarg",
        "4224": "estaba feliz porque ",
        "4225": ". Ahora ",
        "4226": "S\u00ed! \u00a1Buena idea",
        "4227": "ego\u00edsta, quiso ",
        "4228": "bail",
        "4229": "tuvo una idea. \"\u00bfY si ",
        "4230": "es m\u00e1s f\u00e1cil ",
        "4231": "T\u00fa tienes lo que yo quiero",
        "4232": "El Bar",
        "4233": "antena ",
        "4234": "teclado ",
        "4235": "soldadito ",
        "4236": ", pero no pod\u00edan solos",
        "4237": "trabajaban juntos",
        "4238": "Gracias por ",
        "4239": ", pero no sab\u00eda c\u00f3mo.\n\n",
        "4240": "a veces hay que sacrificar algo para ayudar a otros",
        "4241": "dec\u00eda: \"\u00a1",
        "4242": "Plaza",
        "4243": "Viv",
        "4244": "amarill",
        "4245": ".\n\nMoraleja: Tomar turnos evita peleas y ",
        "4246": "!\", grit\u00f3 el ",
        "4247": "llamado Lolo. Lolo ",
        "4248": "boliche ",
        "4249": "No, es m\u00ed",
        "4250": "no ten\u00eda nada para comer",
        "4251": "es m\u00e1s importante que ",
        "4252": "durmi",
        "4253": "sem\u00e1foro ",
        "4254": "Hac\u00eda mucho ",
        "4255": "drag",
        "4256": "coger ",
        "4257": "esponja ",
        "4258": "trepar",
        "4259": "cig\u00fce\u00f1a ",
        "4260": "!\", dijo la tortuga. \"\u00a1",
        "4261": ".\n\nAs\u00ed, ",
        "4262": "Juntos trabajaron",
        "4263": "panader\u00eda ",
        "4264": "extra\u00f1",
        "4265": "\"\u00bfQuieres cambiar?\", pregun",
        "4266": "Animales",
        "4267": "Nadie ",
        "4268": "Paco ",
        "4269": "agrad",
        "4270": "juez ",
        "4271": "n\u00famero ",
        "4272": "El Conejito ",
        "4273": "Yo solo quiero ",
        "4274": "prendieron que, ",
        "4275": "triciclo ",
        "4276": "explic\u00f3: \"",
        "4277": "closet ",
        "4278": "\nEl ",
        "4279": "\".\n\nEl p\u00e1jaro ",
        "4280": "\".\n\nLa ",
        "4281": ".\n- ",
        "4282": "3D",
        "4283": "B ",
        "4284": "Cay",
        "4285": "Era",
        "4286": "Far",
        "4287": "Feli",
        "4288": "Gim",
        "4289": "Kiosco ",
        "4290": "Lal",
        "4291": "L\u00e1pi",
        "4292": "Mon",
        "4293": "Ni",
        "4294": "No! \u00a1",
        "4295": "Op",
        "4296": "Por ",
        "4297": "Pus",
        "4298": "Ro",
        "4299": "Sab\u00eda ",
        "4300": "Te ",
        "4301": "Uno ",
        "4302": "a, el ",
        "4303": "a! Yo ",
        "4304": "a, pero el conejo ",
        "4305": "bes",
        "4306": "bas",
        "4307": "bli",
        "4308": "ble ",
        "4309": "cel ",
        "4310": "cas ",
        "4311": "daba ",
        "4312": "dentr",
        "4313": "e\u00f1",
        "4314": "eta",
        "4315": "fad",
        "4316": "fla",
        "4317": "flo",
        "4318": "facili",
        "4319": "gente",
        "4320": "ill",
        "4321": "ida ",
        "4322": "iglesia ",
        "4323": "je",
        "4324": "jeti",
        "4325": "jeta ",
        "4326": "l\u00ed",
        "4327": "la. \"\u00a1",
        "4328": "mn",
        "4329": "may",
        "4330": "nel ",
        "4331": "nun",
        "4332": "nave ",
        "4333": "om",
        "4334": "ov",
        "4335": "o: ",
        "4336": "ool",
        "4337": "o, p",
        "4338": "om\u00e1",
        "4339": "o.\n\nEl p\u00e1jaro ",
        "4340": "plor",
        "4341": "rel",
        "4342": "ras",
        "4343": "rti",
        "4344": "roll",
        "4345": "tal ",
        "4346": "uvi",
        "4347": "urer",
        "4348": "ves",
        "4349": "vamos ",
        "4350": "vestr",
        "4351": "z\u00f3 ",
        "4352": "zaron ",
        "4353": "o es ",
        "4354": "a el ",
        "4355": "a un ",
        "4356": "a grande",
        "4357": "a idea",
        "4358": "ardi",
        "4359": "arlo ",
        "4360": "arom\u00e1",
        "4361": "erta ",
        "4362": "er\u00e9 ",
        "4363": ". Lila ",
        "4364": ". Luis ",
        "4365": ". Lola ",
        "4366": ". Cuando ",
        "4367": ". Dos ",
        "4368": ". Entonces, ",
        "4369": ". Trabajaron ",
        "4370": ". Luna ",
        "4371": ". Una ",
        "4372": ". Tico ",
        "4373": ". Le ",
        "4374": ", \u00bf",
        "4375": ", t\u00fa ",
        "4376": ", Lolo y ",
        "4377": ", todo sale ",
        "4378": ", ay\u00fadame",
        "4379": "\u00f3, pero no ",
        "4380": "\u00f3.\n\nEl conejo ",
        "4381": "\u00f3, y ",
        "4382": "\n\n*",
        "4383": "y bien",
        "4384": "y no pod\u00eda ",
        "4385": "y Lucas ",
        "4386": "encu",
        "4387": "endo ",
        "4388": "entonces",
        "4389": "enroll",
        "4390": "El G",
        "4391": "El R",
        "4392": "El rat\u00f3n ",
        "4393": "El columpi",
        "4394": "El Kiosco ",
        "4395": "toal",
        "4396": "tocin",
        "4397": "dientes",
        "4398": "esto ",
        "4399": ".\n\n\"",
        "4400": ".\n\nUn ",
        "4401": ".\n\nJuntos ",
        "4402": ".\n\nPipo ",
        "4403": ".\n\nPero el ",
        "4404": ".\n\nLeo ",
        "4405": ".\n\nEllos ",
        "4406": ".\n\nJuntos hicieron un plan",
        "4407": "\u00f3 fuerte",
        "4408": "\u00f3 tambi\u00e9n",
        "4409": "orro",
        "4410": "alta ",
        "4411": "almo",
        "4412": "jar ",
        "4413": "jaritos",
        "4414": "ano ",
        "4415": "antes ",
        "4416": "la para ",
        "4417": "la c\u00e1mar",
        "4418": "la llave",
        "4419": "un pajarito ",
        "4420": "un \u00e1rbol ",
        "4421": "un d\u00eda ",
        "4422": ": un ",
        "4423": ": Compartir ",
        "4424": ": el conejo ",
        "4425": ". El Sol ",
        "4426": ". El patito ",
        "4427": ". El viento ",
        "4428": ". El m\u00e9dico ",
        "4429": ". El columpio ",
        "4430": ". El pr\u00edncipe ",
        "4431": ". El due\u00f1o ",
        "4432": ". El polic\u00eda ",
        "4433": "consu",
        "4434": "amor ",
        "4435": "ellos ",
        "4436": "riti",
        "4437": "rico ",
        "4438": "ridad",
        "4439": "no estaba ",
        "4440": "no pud",
        "4441": "no se en",
        "4442": "no me ",
        "4443": "no tengo ",
        "4444": "no se movi",
        "4445": "no sab",
        "4446": "no pod\u00eda",
        "4447": "no entend\u00eda",
        "4448": ", podemos ",
        "4449": "ar todo ",
        "4450": "ar cosas ",
        "4451": "aste ",
        "4452": "p\u00e1jaros ",
        "4453": "p\u00e1jaros",
        "4454": "p\u00e1jaro\n\nEn un ",
        "4455": "p\u00e1jaro. \"\u00a1",
        "4456": "tibi",
        "4457": "tiza ",
        "4458": "timbre ",
        "4459": ", pero t\u00fa ",
        "4460": ", pero se cay",
        "4461": ", pero ten\u00eda mied",
        "4462": ", pero tampoco ",
        "4463": "que quer\u00eda ",
        "4464": "que ten\u00eda un ",
        "4465": "que otros ",
        "4466": "que hacerlo ",
        "4467": "osito",
        "4468": "y el A",
        "4469": "y el pajarito ",
        "4470": "y el erizo ",
        "4471": "y el Elefante ",
        "4472": "y el p\u00e1jaro\n\nEn un ",
        "4473": "es diverti",
        "4474": "es importante",
        "4475": "es valios",
        "4476": "La Fu",
        "4477": "La torre ",
        "4478": "La Pel",
        "4479": "La casita del ",
        "4480": "tres ",
        "4481": "trella ",
        "4482": "una pel\u00edcula",
        "4483": "as el ",
        "4484": "as de ",
        "4485": "as simp",
        "4486": "lluvi",
        "4487": "to en la ",
        "4488": "tensi",
        "4489": "o. Lila ",
        "4490": "o. Juntos, ",
        "4491": "o. Ellos ",
        "4492": "se fu",
        "4493": "se cal",
        "4494": "se res",
        "4495": "se dis",
        "4496": "se cans",
        "4497": "se calen",
        "4498": "se arreg",
        "4499": "se hablan clar",
        "4500": "se ve\u00eda ",
        "4501": "se sec",
        "4502": "se maquill",
        "4503": "de una ",
        "4504": "de las ",
        "4505": "de colores",
        "4506": "de mader",
        "4507": "ciervo ",
        "4508": "viol",
        "4509": "vivieron ",
        "4510": "!\". El conejo ",
        "4511": "!\".\n\nEl p\u00e1jaro ",
        "4512": "!\".\n\nLa ",
        "4513": "!\". El perro ",
        "4514": "!\". El rat\u00f3n ",
        "4515": "suy",
        "4516": "sustan",
        "4517": "dijo: \"T\u00fa ",
        "4518": "dijo: \"Si ",
        "4519": "dijo: \"T\u00fa puedes ",
        "4520": "eron las ",
        "4521": "\u2014\u00a1",
        "4522": "\u2014dice ",
        "4523": "mido ",
        "4524": "pat",
        "4525": "bicho ",
        "4526": "parar",
        "4527": "pijam",
        "4528": ".\n\nEl sol ",
        "4529": ".\n\nEl Sol ",
        "4530": ".\n\nEl arco\u00edris ",
        "4531": "torer\u00eda",
        "4532": "tortill",
        "4533": "chera ",
        "4534": "ta de ",
        "4535": "! No ",
        "4536": "ayudaba",
        "4537": "ayuda. ",
        "4538": "ayud\u00f3 al ",
        "4539": "temb",
        "4540": "solo. El ",
        "4541": "solo\"",
        "4542": "solos no ",
        "4543": "o, quer\u00edan ",
        "4544": "o, sin ",
        "4545": "o, hab\u00eda dos ",
        "4546": "o, trae ",
        "4547": "lo vio ",
        "4548": "lo llev\u00f3 ",
        "4549": "lo quer\u00eda",
        "4550": "lo compartieron",
        "4551": "sill",
        "4552": "al parque",
        "4553": "al p\u00e1jaro. El p\u00e1jaro ",
        "4554": "dijo: \"\u00a1El ",
        "4555": "dijo: \"\u00a1Trabajemos juntos",
        "4556": "dijo: \"\u00a1T\u00fa tienes ",
        "4557": "dijo: \"\u00a1T\u00fa puedes ",
        "4558": "dijo: \"\u00a1Necesitamos trabajar juntos",
        "4559": "nido. ",
        "4560": "acer",
        "4561": "quer\u00eda el ",
        "4562": "quer\u00eda bajar ",
        "4563": "emente",
        "4564": "muse",
        "4565": ", el rat\u00f3n ",
        "4566": "para todos",
        "4567": "t\u00f3n",
        "4568": "pod\u00eda ayudar",
        "4569": "pod\u00eda saltar ",
        "4570": "ten\u00eda patas ",
        "4571": "hab\u00eda espacio para ",
        "4572": "veo ",
        "4573": "prendizaje",
        "4574": "quito",
        "4575": "o.\n\nLolo ",
        "4576": "o.\n\nJuntos, ",
        "4577": "o.\n\nAl final",
        "4578": "o.\n\nUn p\u00e1jaro ",
        "4579": "tortuga y un p\u00e1jaro. ",
        "4580": "Yo tra",
        "4581": "fuiste ",
        "4582": "aron al ",
        "4583": "era r\u00e1pido y ",
        "4584": "taco",
        "4585": "taci\u00f3n",
        "4586": "tacos ",
        "4587": "cant",
        "4588": "canto",
        "4589": "jugamos ",
        "4590": "jug\u00f3 con ",
        "4591": "y un ni\u00f1o ",
        "4592": "y un pato ",
        "4593": "y un cangrejo ",
        "4594": "saltas",
        "4595": "estaba en el ",
        "4596": "estaba limpi",
        "4597": "\u00f3. La tortuga ",
        "4598": "\u00f3. Juntos, ",
        "4599": "\u00f3. Despu\u00e9s, el ",
        "4600": ".\n\nMoraleja: Puedes ",
        "4601": ".\n\nMoraleja: Jugar ",
        "4602": "en el mar",
        "4603": "en el r\u00ed",
        "4604": "en el ba\u00f1",
        "4605": "bula ",
        "4606": "volte",
        "4607": "Pero yo ",
        "4608": "felices!\n\nMoraleja: ",
        "4609": "vio las alas ",
        "4610": "vio los zapatos ",
        "4611": "perro y el gato ",
        "4612": "agua.\n\n",
        "4613": "agua. \u00a1",
        "4614": "sopa",
        "4615": "sopa ",
        "4616": "somos ",
        "4617": "somn",
        "4618": "\u00f3 y no ",
        "4619": "las llev\u00f3 ",
        "4620": "las piez",
        "4621": "muy bonito",
        "4622": "muy grande, hab\u00eda un ",
        "4623": "mov",
        "4624": ". La gallina ",
        "4625": ". La mariposa ",
        "4626": ". La abeja ",
        "4627": ". La caja ",
        "4628": "Juntos, el conejo ",
        "4629": "No pod\u00eda ",
        "4630": "No llor",
        "4631": "Los barcos ",
        "4632": "luces ",
        "4633": "Lolo",
        "4634": "laron",
        "4635": "largas ",
        "4636": "largo y ",
        "4637": ". El p\u00e1jaro pic",
        "4638": ".\n\nAl ",
        "4639": ".\n\nAl d\u00eda siguiente",
        "4640": "final ",
        "4641": "rat\u00f3n quer\u00eda ",
        "4642": "rat\u00f3n llamado ",
        "4643": "juntos pueden ",
        "4644": "m\u00e1s clar",
        "4645": "m\u00e1s r\u00e1pido. ",
        "4646": "le da ",
        "4647": "secar",
        "4648": "trabajar con ",
        "4649": "trabajar bien",
        "4650": "Toco ",
        "4651": "Hab\u00eda un ",
        "4652": "a, hab\u00eda dos ",
        "4653": "gante ",
        "4654": "ganso ",
        "4655": "gan\u00f3. El conejo ",
        "4656": "todos son ",
        "4657": "trig",
        "4658": ", pero no pod\u00eda abrir",
        "4659": "mbre",
        "4660": "\n\nEn un parque",
        "4661": "\n\nEn un hospi",
        "4662": "en la mes",
        "4663": "en la play",
        "4664": "en la pared",
        "4665": "comis",
        "4666": "comi\u00f3. ",
        "4667": "comi\u00f3 el ",
        "4668": "comi\u00f3 la ",
        "4669": "Lula",
        "4670": ", pero el sol ",
        "4671": "yo di",
        "4672": "ensay",
        "4673": "o y la ",
        "4674": "able",
        "4675": "y el Pol",
        "4676": "y el Perro",
        "4677": "sonri\u00f3: \"\u00a1",
        "4678": "del p\u00e1jaro ",
        "4679": "horn",
        "4680": "us\u00f3 su ",
        "4681": "amigo. ",
        "4682": "T\u00fa ganas",
        "4683": "y el p\u00e1jaro en la ",
        "4684": "y el p\u00e1jaro cant\u00f3 feliz",
        "4685": "\n\nEn una tienda de ",
        "4686": "peque\u00f1as",
        "4687": "peque\u00f1o y ",
        "4688": "tarra ",
        "4689": "tarlo.\n\n",
        "4690": "buena idea",
        "4691": "cerca. ",
        "4692": "verde ",
        "4693": "verlo ",
        "4694": "desper",
        "4695": "descubri",
        "4696": "lleg\u00f3 un ",
        "4697": ". \u00a1Era ",
        "4698": ". \u00a1Pum",
        "4699": "!\n\n(249 palabras)",
        "4700": "!\n\nAprendieron que ",
        "4701": ".\n\nEl conejo dijo: \"\u00a1Yo ",
        "4702": "ni\u00f1o dijo: \"",
        "4703": "probar ",
        "4704": "carrer",
        "4705": "\u00f3 el agua ",
        "4706": "\u00f3 el pan ",
        "4707": "\u00f3 el agua. ",
        "4708": "bien.\" ",
        "4709": "bien. Y ",
        "4710": "\n\nHab\u00eda una casita ",
        "4711": "agua limpi",
        "4712": "agua caliente",
        "4713": ".\" Pero el ",
        "4714": ".\" As\u00ed ",
        "4715": "palaci",
        "4716": "problema",
        "4717": "ayudarme",
        "4718": "Conejo en el ",
        "4719": "quer\u00edan usar el ",
        "4720": "primero. ",
        "4721": "llevar el ",
        "4722": "llevar la ",
        "4723": "lov\u00eda",
        "4724": ". Aprendieron que competir ",
        "4725": ". Aprendieron que trabajar juntos es mejor que trabajar solos.\n\nFin.",
        "4726": "triste. ",
        "4727": "caf",
        "4728": "catedral",
        "4729": "tas, ",
        "4730": ". \"\u00a1Quiero ",
        "4731": ". \"\u00a1Basta",
        "4732": "fruta",
        "4733": "Lolo salt\u00f3 ",
        "4734": "maripos",
        "4735": "dijo: \"\u00a1Yo tambi\u00e9n",
        "4736": ". Pero no sab\u00eda ",
        "4737": "Y el ",
        "4738": "tera",
        "4739": "?\", ",
        "4740": ".\n\n\u2014\"",
        "4741": ".\n\n\u2014Yo ",
        "4742": "compartir mi ",
        "4743": "aprendi\u00f3 a ",
        "4744": "brillar",
        "4745": "brill\u00f3",
        "4746": "sab\u00eda que ",
        "4747": "los dos lo ",
        "4748": "los dos amigos",
        "4749": "portiv",
        "4750": "no pod\u00eda volar",
        "4751": "!\", dijo el p\u00e1jaro. \"",
        "4752": "es bueno, aunque no ",
        "4753": "!\" El gato ",
        "4754": "barcos",
        "4755": "leer",
        "4756": "letr",
        "4757": "leer ",
        "4758": "estaban tristes",
        "4759": "\", dijo la ",
        "4760": "tuvo men",
        "4761": "hacer una ",
        "4762": "manos",
        "4763": "manch",
        "4764": "mango ",
        "4765": "ser amabl",
        "4766": "patito",
        "4767": "solo hab\u00eda una ",
        "4768": "solo para \u00e9l",
        "4769": "intent\u00f3 solo. ",
        "4770": "sin problemas",
        "4771": "pelean",
        "4772": ": \"\u00a1Trabajemos juntos",
        "4773": ".\"\n\nEl perro ",
        "4774": "ver bien",
        "4775": "ver qui\u00e9n ",
        "4776": "El Conejo y la ",
        "4777": "ten\u00eda un sombrero ",
        "4778": "le dio la ",
        "4779": "porque no pod\u00eda ",
        "4780": "porque era muy ",
        "4781": ", y el rat\u00f3n ",
        "4782": ", y el pajarito ",
        "4783": "tambi\u00e9n quiero ",
        "4784": "tambi\u00e9n estaba conten",
        "4785": "gigante ",
        "4786": "polv",
        "4787": "! \u2014dijo el p\u00e1jaro.\n\u2014\u00a1",
        "4788": "a.\n\nLos dos ",
        "4789": "ego\u00edsta. ",
        "4790": ". \"La pr\u00f3xima vez, ",
        "4791": ". \"Trabajar juntos es mejor",
        "4792": "tom\u00f3 la ",
        "4793": "tomar turn",
        "4794": "tomar turnos ",
        "4795": "se enfer",
        "4796": "mirador ",
        "4797": "fanti",
        "4798": "tienes",
        "4799": "o. \u00a1El ",
        "4800": "llamado Pipo ",
        "4801": "llamado Pablo ",
        "4802": "mono y un ",
        "4803": "Luis, ",
        "4804": "por un ",
        "4805": "A ve",
        "4806": ".\n\nAl final, aprendieron que ",
        "4807": "en un \u00e1rbol ",
        "4808": "\u00f3 con sus ",
        "4809": "r\u00e1pido, pero no pod\u00eda ",
        "4810": "cine",
        "4811": "y el conejo en el ",
        "4812": "pincel ",
        "4813": "tortuga. La tortuga ",
        "4814": "solo, pero se ",
        "4815": "Ayudar es buen",
        "4816": "se sintieron felices",
        "4817": "vol\u00f3 lejos",
        "4818": "ding",
        "4819": "ar a otros es valios",
        "4820": "viv\u00eda un p\u00e1jaro ",
        "4821": "\u00f3. El rat\u00f3n ",
        "4822": ".\n\nMoraleja: Trabajar juntos es mejor",
        "4823": ".\n\nMoraleja: Trabajar juntos es mejor que ser ego\u00eds",
        "4824": "Se sinti",
        "4825": "A veces, ayudar a otros ",
        "4826": "foca ",
        "4827": "fotos ",
        "4828": "pescar",
        "4829": "pescado ",
        "4830": "pantal",
        "4831": "que el p\u00e1jaro ",
        "4832": "importa ",
        "4833": "No, yo",
        "4834": "azote",
        "4835": "!\"\n\nMoraleja: ",
        "4836": "!\"\n\nLos dos ",
        "4837": "Qu\u00e9 ri",
        "4838": "Al final, la tortuga ",
        "4839": "balne",
        "4840": "cay\u00f3 al suel",
        "4841": ".\n\nEntonces, la ",
        "4842": "respetar",
        "4843": "respetan",
        "4844": "respetar ",
        "4845": "arida ",
        "4846": "fueron felices. Aprendieron que compartir ",
        "4847": "fueron felices.\n\nMoraleja: Si ",
        "4848": "sonri\u00f3 y dijo: \"\u00a1",
        "4849": "hasta que ",
        "4850": "encontr\u00f3 ",
        "4851": "encontr\u00f3 un ",
        "4852": "dijo: \"Yo quiero ",
        "4853": "dijo: \"Yo puedo ",
        "4854": "La Tortuga y el C",
        "4855": "Tino. ",
        "4856": "Tintorer\u00eda",
        "4857": "te ayudo\"",
        "4858": "planeta ",
        "4859": "escuch\u00f3 bien",
        "4860": ". Un conejo ",
        "4861": ". Un pajarito ",
        "4862": "feter\u00eda",
        "4863": ". Un d\u00eda, decidieron competir para ver qui\u00e9n ",
        "4864": "y quer\u00eda un ",
        "4865": "puso en el ",
        "4866": "cansad",
        "4867": ".\n\nMoraleja: Compartir hace que todos ganen.",
        "4868": ".\n\nMoraleja: Compartir y turnarse ",
        "4869": "ser ego\u00edsta.",
        "4870": "lado, ",
        "4871": "arrug",
        "4872": "ya no ten\u00eda ",
        "4873": "Toma, ",
        "4874": "se sinti\u00f3 feliz",
        "4875": "Aprendieron que los problemas dif\u00edciles se solucionan mejor ",
        "4876": "alas para ",
        "4877": "liebre",
        "4878": "\u00bfQuieres cambiar",
        "4879": "Trabajemos juntos! \u2014dijo el ",
        "4880": "zanahorias ",
        "4881": "siempre se ",
        "4882": "\u2014dijo Pipo",
        "4883": "quer\u00eda ayudarla",
        "4884": "Lolo y Lina ",
        "4885": "cerca de la ",
        "4886": "\u00f3: \"\u00a1No, yo ",
        "4887": "Tico",
        "4888": "explor",
        "4889": "lobo ",
        "4890": "!\n\nMoraleja: Compartir ",
        "4891": "al mismo tiempo. Pero ",
        "4892": "l\u00e1piz",
        "4893": "ser\u00e1 ",
        "4894": "segur",
        "4895": "segu\u00eda ",
        "4896": "prepar",
        "4897": "corri\u00f3 muy r\u00e1pido, pero ",
        "4898": "dibuj\u00f3 un ",
        "4899": ".\n\u2014\u00a1Yo tampoco",
        "4900": "P\u00edo y ",
        "4901": "no ten\u00eda nada. ",
        "4902": "estuvieron ",
        "4903": "estuvieron felices",
        "4904": "primero, luego yo\"",
        "4905": "Sus ",
        "4906": "Subi",
        "4907": "eran felices",
        "4908": ". Y as\u00ed",
        "4909": "estaba triste. \"\u00a1",
        "4910": "estaba triste. \"",
        "4911": "grit\u00f3n",
        "4912": "ar claro ayuda a trabajar juntos.\n\n(249 palabras)",
        "4913": "No, yo la ",
        "4914": "juego",
        "4915": "otro lad",
        "4916": "cruzar juntos",
        "4917": ". Chis",
        "4918": "esperar su ",
        "4919": "! Yo tengo ",
        "4920": "hizo una ",
        "4921": "hizo su ",
        "4922": "fr\u00edo. ",
        "4923": "respondi\u00f3: \"\u00a1",
        "4924": "hace felices a todos.\n\n(249 palabras)",
        "4925": "Dos ni\u00f1os, ",
        "4926": "El p\u00e1jaro y el ",
        "4927": "y el P\u00e1jaro\n\nHab\u00eda un ",
        "4928": "rinc",
        "4929": "remar ",
        "4930": "troz",
        "4931": "en el suelo. Quer\u00edan ",
        "4932": "acept\u00f3. ",
        "4933": "Mimi",
        "4934": "patinar",
        "4935": "patinar ",
        "4936": ", pero no pod\u00eda llegar a ",
        "4937": "! \u2014dijo Lol",
        "4938": "Ahora los dos ",
        "4939": "pelota rod\u00f3 ",
        "4940": ".\n\u2014\"\u00a1",
        "4941": ", por favor! ",
        "4942": "asinti\u00f3. ",
        "4943": "tend\u00edan",
        "4944": "o. Un d\u00eda, decidieron competir para ver qui\u00e9n ",
        "4945": "sucia. ",
        "4946": "compart",
        "4947": "casita de ",
        "4948": "\n\nHab\u00eda una vez una tortuga llamada ",
        "4949": "es mejor que trabajar solos.",
        "4950": "Aren",
        "4951": "hoy",
        "4952": "y dijo: \"\u00a1T\u00fa tienes ",
        "4953": "bien y ",
        "4954": "sirvi",
        "4955": "volc\u00e1n",
        "4956": "viv\u00edan all\u00ed",
        "4957": "bajo un ",
        "4958": "azul. El ",
        "4959": "pr\u00edncipe",
        "4960": "duraz",
        "4961": "El Cir",
        "4962": ". El sol ten\u00eda ",
        "4963": "estar limpi",
        "4964": "comida a ",
        "4965": "comida.\n\n",
        "4966": "o.\n\nMoraleja: Compartir hace felices a todos.",
        "4967": "sabi",
        "4968": "torio\n\nEn un ",
        "4969": "un p\u00e1jaro y un conej",
        "4970": "!\"\n\nEsta vez",
        "4971": "dijo: \"S\u00ed, por favor",
        "4972": "mu\u00f1ecas",
        "4973": "taxi",
        "4974": "\u00f3. \u00a1El ",
        "4975": "se\u00f1ora ",
        "4976": "pajaritos ",
        "4977": "hojas ver",
        "4978": "Tengo hambre",
        "4979": "Pajaritos",
        "4980": "Primero ",
        "4981": "f\u00e1bula ",
        "4982": "ten\u00eda muchos ",
        "4983": "usarlo ",
        "4984": "terminaron ",
        "4985": "sobre un ",
        "4986": "Las flores ",
        "4987": "Mar\u00eda ",
        "4988": "\u00c1tico ",
        "4989": "la mesa ",
        "4990": "tener todo",
        "4991": "con cuidado. ",
        "4992": "vio al p\u00e1jaro y el p\u00e1jaro ",
        "4993": "Lo lograron",
        "4994": "martillo golpe",
        "4995": "no llor\u00f3. \"\u00a1Buen trabaj",
        "4996": "pusieron tristes",
        "4997": "\". El p\u00e1jaro dijo: \"S\u00ed, ",
        "4998": "beber ",
        "4999": "hablamos claro.",
        "5000": "trabajar juntos es mejor que trabajar solos. \u00a1Y ",
        "5001": "t\u00edtere",
        "5002": ", puedes ",
        "5003": "atrevi",
        "5004": "gase",
        "5005": "gasolin",
        "5006": "o!\n\nAprendieron que ",
        "5007": "dijo: \"\u00a1Ayuda, p",
        "5008": "quer\u00eda comer, pero no ten\u00eda ",
        "5009": "Yo lo har\u00e9 ",
        "5010": "! \u2014dijo la gallin",
        "5011": "lleg\u00f3 vol",
        "5012": "tintorer\u00eda",
        "5013": "El Conejo y el P\u00e1jaro en la Plaza",
        "5014": ", hab\u00eda dos amigos: ",
        "5015": "pronto",
        "5016": "pizar",
        "5017": "comprar ",
        "5018": ". Al final, el ",
        "5019": "\n\nEn una catedr",
        "5020": "pensaron: \"",
        "5021": "es bueno. Todos ",
        "5022": "manzanas ",
        "5023": "tambi\u00e9n se sinti\u00f3 contento",
        "5024": "se sent\u00f3 ",
        "5025": "se sentaron ",
        "5026": "hicieron una ",
        "5027": "!\n\nMoraleja: Trabajar juntos es mejor que trabajar solo.",
        "5028": "Luego, el conejo ",
        "5029": "Muy bien",
        "5030": "Perdi",
        "5031": "Vol\u00f3 ",
        "5032": "banan",
        "5033": "jam\u00f3n ",
        "5034": ". Despu\u00e9s, la ",
        "5035": "cuarto ",
        "5036": "fuertes para ",
        "5037": "agua fresca. ",
        "5038": "casita. ",
        "5039": "\n\nEn el sal\u00f3n de arte",
        "5040": "\n\nEn el sal\u00f3n de clas",
        "5041": "empujaron y ",
        "5042": "cepillo ",
        "5043": "\u00bfQu\u00e9 pasa",
        "5044": "\u00bfQu\u00e9 pasa, ",
        "5045": "creci\u00f3 ",
        "5046": "Oh no",
        "5047": "Tienes raz\u00f3n! \u2014dijo el ",
        "5048": " \u00a1S\u00ed",
        "5049": "gordo ",
        "5050": "jab\u00f3n",
        "5051": "prende",
        "5052": "\u2014pregunt\u00f3 el ",
        "5053": "dijo: \"\u00a1No, yo primero!\" ",
        "5054": "y un perro. El ",
        "5055": "lavadora ",
        "5056": "todo el d\u00eda",
        "5057": ". As\u00ed, los dos ",
        "5058": "gatito.\n\nEl ",
        "5059": "es m\u00e1s f\u00e1cil",
        "5060": "necesitaba ayud",
        "5061": "llegaron al otro lad",
        "5062": "Cambiamos",
        "5063": "Chispa ",
        "5064": "atascad",
        "5065": "club ",
        "5066": "rosquill",
        "5067": "oscuridad",
        "5068": "trenza ",
        "5069": "Yo tambi\u00e9n! \u2014dijo el ",
        "5070": "romper ",
        "5071": "correcto",
        "5072": "resolver ",
        "5073": "Espera",
        "5074": ".\n\nMoraleja: Trabajar juntos es mejor si hablan clar",
        "5075": "Cada uno ten\u00eda lo que el otro quer\u00eda",
        "5076": "Cada uno ten\u00eda lo que el otro necesitaba",
        "5077": "Rat\u00f3n en la ",
        "5078": "La Abejita ",
        "5079": "abrir la la",
        "5080": "escolar, hab\u00eda una ",
        "5081": "Ana. ",
        "5082": "mensaje ",
        "5083": "posi",
        "5084": "uctura ",
        "5085": "El Mono ",
        "5086": ", pero con reglas",
        "5087": "se escondi\u00f3 ",
        "5088": "pimienta ",
        "5089": "silvestr",
        "5090": "pod\u00eda volar, pero no pod\u00eda ",
        "5091": "lim\u00f3n ",
        "5092": ". A veces, ",
        "5093": "recogieron ",
        "5094": ". La maestra dijo: \"\u00a1",
        "5095": "!\" Pero no pod\u00eda ",
        "5096": "sea justo",
        "5097": "pasion",
        "5098": "corri\u00f3 a buscar ",
        "5099": "llamada Lila. Lila ",
        "5100": "sapito ",
        "5101": "servir ",
        "5102": "monedas ",
        "5103": "dibujar un ",
        "5104": "encender ",
        "5105": ".\n\nMoraleja: A veces, cooperar significa sacrificar algo.",
        "5106": "perro y un gato. El perro ",
        "5107": "mezclar ",
        "5108": "Abuel",
        "5109": "Jueg",
        "5110": "Palabr",
        "5111": "donde ",
        "5112": "labor",
        "5113": "naveg",
        "5114": ". Sin que ",
        "5115": "ensalada ",
        "5116": "inguno pod\u00eda ",
        "5117": "suavemente",
        "5118": "tornillo ",
        "5119": "nieto ",
        "5120": "debemos ",
        "5121": "granizo ",
        "5122": "le dijo al ",
        "5123": "en la arena",
        "5124": ". Aprendieron que ayudar a otros es bueno.\n\nFin.",
        "5125": "hacia el ",
        "5126": "Pipo. Pipo ",
        "5127": "le dio un abraz",
        "5128": "aprendi\u00f3 que ser ego\u00edsta no sirve",
        "5129": "La Tortuga y el P\u00e1jaro en el ",
        "5130": "zapato rojo ",
        "5131": "algunas ",
        "5132": "o para todos.",
        "5133": "se miraron y dijeron: \"\u00a1",
        "5134": "resbaladill",
        "5135": "granja encantada, viv\u00eda un ",
        "5136": "protegi",
        "5137": "Hicieron un plan",
        "5138": "Aqu\u00ed est",
        "5139": "organista ",
        "5140": "se sienten felices",
        "5141": "nariz",
        "5142": "zzle ",
        "5143": "\u00f3gico",
        "5144": "!\"\u2014 dijo el ",
        "5145": "los libros ",
        "5146": "an un poco.",
        "5147": "\n\nEn un circo ",
        "5148": "! \u2014dijo la tortuga.\n\u2014\u00a1",
        "5149": "lomo del ",
        "5150": "discutir",
        "5151": "Sombra ",
        "5152": ".\n\nMoraleja: Trabajar juntos es mejor cuando se habla claro.",
        "5153": "\u00c1rbol ",
        "5154": "drag\u00f3n ",
        "5155": "n\u00famero de ",
        "5156": "Eran ",
        "5157": "Gimnasi",
        "5158": "Optometrista",
        "5159": "Puso ",
        "5160": "ool\u00f3gico",
        "5161": "relaj",
        "5162": "vesti",
        "5163": "vamos a ",
        "5164": "almoh",
        "5165": "que hacerlo solo.",
        "5166": "La Fuente ",
        "5167": "as simples",
        "5168": "tensi\u00f3n ",
        "5169": "se resuel",
        "5170": "sustanti",
        "5171": "tortuga y un p\u00e1jaro. La tortuga ",
        "5172": "somnol",
        "5173": "No llores",
        "5174": "T\u00fa ganaste",
        "5175": ".\n\nMoraleja: Trabajar juntos es mejor que ser ego\u00edsta. Pero ",
        "5176": "pantalla ",
        "5177": "balneari",
        "5178": ".\n\nMoraleja: Compartir y turnarse evita peleas y ",
        "5179": "\u00bfQuieres cambiar?\"\n\nEl ",
        "5180": "esperar su turno ",
        "5181": "\n\nEn una catedral ",
        "5182": "Muy bien! ",
        "5183": "\n\nEn el sal\u00f3n de clases",
        "5184": "dijo: \"\u00a1No, yo primero!\" Se ",
        "5185": " primero",
        "5186": " primero ",
        "5187": "!*",
        "5188": "!\n\nE",
        "5189": "!* ",
        "5190": "\". El pato ",
        "5191": "(A",
        "5192": "(B",
        "5193": "*d",
        "5194": "?\n\nEl ",
        "5195": "Ah",
        "5196": "Aun",
        "5197": "Audi",
        "5198": "Clu",
        "5199": "Del",
        "5200": "Dul",
        "5201": "Flor",
        "5202": "Hel",
        "5203": "Hospi",
        "5204": "Habla ",
        "5205": "Jun",
        "5206": "Lo",
        "5207": "Lun",
        "5208": "Lav",
        "5209": "Ma\u00f1an",
        "5210": "No! ",
        "5211": "Otr",
        "5212": "P\u00eda",
        "5213": "Pod",
        "5214": "Pic",
        "5215": "Por favor",
        "5216": "Ser",
        "5217": "Sab",
        "5218": "Tra",
        "5219": "Tito",
        "5220": "Viento",
        "5221": "Ya no ",
        "5222": "a\n\nEn un ",
        "5223": "a, pero el ",
        "5224": "a\n\nHab\u00eda una ",
        "5225": "a, el conejo ",
        "5226": "atar ",
        "5227": "a.\n\nAl final, ",
        "5228": "adilla ",
        "5229": "apro",
        "5230": "afeter\u00eda",
        "5231": "apasion",
        "5232": "ble",
        "5233": "bo de ",
        "5234": "bru",
        "5235": "braz",
        "5236": "cer ",
        "5237": "cina ",
        "5238": "cado",
        "5239": "crem",
        "5240": "cray",
        "5241": "ceja ",
        "5242": "dest",
        "5243": "do, ",
        "5244": "da, ",
        "5245": "do. El p\u00e1jaro ",
        "5246": "do.\n\nMoraleja: ",
        "5247": "dar un ",
        "5248": "ela ",
        "5249": "eten",
        "5250": "ez ",
        "5251": "fe ",
        "5252": "fri",
        "5253": "fli",
        "5254": "flar",
        "5255": "gin",
        "5256": "gorro ",
        "5257": "garon el ",
        "5258": "habr\u00eda ",
        "5259": "ier",
        "5260": "is ",
        "5261": "idi",
        "5262": "igo ",
        "5263": "imo ",
        "5264": "ific",
        "5265": "lento ",
        "5266": "m\u00eda ",
        "5267": "mun",
        "5268": "mar ",
        "5269": "nos",
        "5270": "nci",
        "5271": "no, ",
        "5272": "o: \"",
        "5273": "oco ",
        "5274": "omb",
        "5275": "ocion",
        "5276": "o!\" El ",
        "5277": "o!\"\n\n",
        "5278": "o\", dijo",
        "5279": "o\n\nEn la ",
        "5280": "o!\", dijo ",
        "5281": "o\n\nHab\u00eda una vez una tortuga ",
        "5282": "o!\" El p\u00e1jaro ",
        "5283": "o.\"\n\nEl p\u00e1jaro ",
        "5284": "o!\", dijo el conejo. \"\u00a1",
        "5285": "o, pueden ",
        "5286": "p\u00e1",
        "5287": "pero ",
        "5288": "p\u00fa",
        "5289": "rugi",
        "5290": "s\u00f3",
        "5291": "sla ",
        "5292": "sti",
        "5293": "sfe",
        "5294": "s: Lolo y ",
        "5295": "tera ",
        "5296": "tando ",
        "5297": "tamiento",
        "5298": "ues",
        "5299": "uti",
        "5300": "va",
        "5301": "wi",
        "5302": "y, no ",
        "5303": "zg",
        "5304": "zo. ",
        "5305": "zool\u00f3gico",
        "5306": "o y un ",
        "5307": "o primero",
        "5308": "a las ",
        "5309": "a muy ",
        "5310": "a de la ",
        "5311": "a pelear",
        "5312": "ar. El ",
        "5313": "ar\u00e9",
        "5314": "ero, hab\u00eda un ",
        "5315": ". Trabajar ",
        "5316": ". Leo ",
        "5317": ". Juntos, el ",
        "5318": ". Despu\u00e9s, el ",
        "5319": ". Los ni\u00f1os ",
        "5320": ". Trabajaban ",
        "5321": ", \u00a1",
        "5322": ", una ",
        "5323": ", los dos ",
        "5324": ", decidieron trabajar juntos",
        "5325": "\u00edr ",
        "5326": "e a ",
        "5327": "e el ",
        "5328": "e la ",
        "5329": "\u00f3.\n\n\u2014",
        "5330": "\u00f3, y el ",
        "5331": "\u00f3.\n\nAl final, el ",
        "5332": "el sol ",
        "5333": "el mismo ",
        "5334": "el m\u00ed",
        "5335": "el globo ",
        "5336": "el cumplea\u00f1",
        "5337": "el n\u00famero de ",
        "5338": "y su ",
        "5339": "y son",
        "5340": "y si ",
        "5341": "y jugar",
        "5342": "y t\u00fa ",
        "5343": "y Luis ",
        "5344": "y Sol ",
        "5345": "y dej",
        "5346": "y esperar su turno ",
        "5347": "cola ",
        "5348": "cotas",
        "5349": "coraz",
        "5350": "cobr",
        "5351": "encaj",
        "5352": "enchu",
        "5353": "encantaba ",
        "5354": "enojaron",
        "5355": "enfri",
        "5356": "El Con",
        "5357": "El Es",
        "5358": "El Sol",
        "5359": "El Pu",
        "5360": "El patito ",
        "5361": "El Far",
        "5362": "El \u00c1rbol ",
        "5363": "toy ",
        "5364": "tomar",
        "5365": "torio ",
        "5366": "todo.\n\n",
        "5367": "dite ",
        "5368": "dir ",
        "5369": "dise\u00f1",
        "5370": "abue",
        "5371": "aballo ",
        "5372": "abur",
        "5373": "quem",
        "5374": "eso ",
        "5375": "ese ",
        "5376": "es. El ",
        "5377": "espe",
        "5378": "esquina ",
        "5379": ".\n\n\"\u00a1",
        "5380": ".\n\nTodos ",
        "5381": ".\n\nLuis ",
        "5382": ".\n\nLola ",
        "5383": ".\n\nP\u00edo ",
        "5384": ".\n\nLuna ",
        "5385": ".\n\nPrimer",
        "5386": ".\n\nUn d\u00eda, el conejo ",
        "5387": "\u00f3 r\u00e1pido. ",
        "5388": "\u00f3 fuerte y ",
        "5389": "os para ",
        "5390": "\u00e1tico",
        "5391": "\u00e1\". Entonces, ",
        "5392": "or\n\nEn un ",
        "5393": "untamiento",
        "5394": "alor",
        "5395": "alta",
        "5396": "altas",
        "5397": "la si",
        "5398": "la sal",
        "5399": "la mejor ",
        "5400": "la pal",
        "5401": "la luz ",
        "5402": "la mas",
        "5403": "la luz",
        "5404": "la amistad ",
        "5405": "la pelota",
        "5406": "la linterna ",
        "5407": "la sonaj",
        "5408": "un d\u00eda",
        "5409": "un lugar ",
        "5410": "un plato ",
        "5411": "un conejo y un p\u00e1jaro. ",
        "5412": ": Pipo y ",
        "5413": "invi",
        "5414": "inven",
        "5415": "inder",
        "5416": "inclu",
        "5417": "inmens",
        "5418": "infanti",
        "5419": "investi",
        "5420": ". El \u00e1rbol ",
        "5421": ". El oso ",
        "5422": ". El payaso ",
        "5423": ". El cerdo ",
        "5424": ". El gatito ",
        "5425": ". El doctor ",
        "5426": ". El soldado ",
        "5427": ". El zapato rojo ",
        "5428": "cones ",
        "5429": "confi",
        "5430": "conec",
        "5431": "conseguir ",
        "5432": "confli",
        "5433": "condite ",
        "5434": "olla ",
        "5435": "amar",
        "5436": "amen",
        "5437": "amin",
        "5438": "amento ",
        "5439": "rido ",
        "5440": "no la ",
        "5441": "no ten",
        "5442": "no hab\u00eda ",
        "5443": "no puedo ",
        "5444": "no puede ",
        "5445": "no tendr\u00e9 ",
        "5446": ", pro",
        "5447": "ar de ",
        "5448": "ar para ",
        "5449": "ar her",
        "5450": "ar bien ",
        "5451": "on un ",
        "5452": "as, ",
        "5453": "asm\u00e1",
        "5454": "asado",
        "5455": "asom",
        "5456": "p\u00e1jaros, ",
        "5457": "p\u00e1jaro. El rat\u00f3n ",
        "5458": "conejo! ",
        "5459": "tier",
        "5460": "tipi",
        "5461": "tisfe",
        "5462": ", pero Lolo ",
        "5463": ", pero Luis ",
        "5464": ", pero primero ",
        "5465": ", pero con respeto",
        "5466": ", pero hay que hablar clar",
        "5467": ", pero jugamos ",
        "5468": "que los ",
        "5469": "que viv\u00eda ",
        "5470": "que solos",
        "5471": "que guard",
        "5472": "os. El p\u00e1jaro ",
        "5473": "os\n\nEn una ",
        "5474": "oso y el ",
        "5475": "adas ",
        "5476": "ada. ",
        "5477": "ado, el ",
        "5478": "ado, hab\u00eda un ",
        "5479": "adjeti",
        "5480": "y el B",
        "5481": "y el zorro ",
        "5482": "y el closet ",
        "5483": "y el Conejo en el ",
        "5484": "y el Viento",
        "5485": "es mi ",
        "5486": "es bonitas",
        "5487": "es necesari",
        "5488": "La mariposa ",
        "5489": "La enfermer\u00eda ",
        "5490": "La margarita ",
        "5491": ": \"\u00bfQu\u00e9 pasa, ",
        "5492": "tr\u00e1s ",
        "5493": "una ven",
        "5494": "una zanahori",
        "5495": "una ara\u00f1a ",
        "5496": "una gran ",
        "5497": "una piedra ",
        "5498": "una manzan",
        "5499": "una ni\u00f1a llamada ",
        "5500": "una buena idea",
        "5501": "conejo y ",
        "5502": "conejo r\u00e1pido y ",
        "5503": "conejo en su espal",
        "5504": "llos",
        "5505": "to porque ",
        "5506": "en que ",
        "5507": "en los ",
        "5508": "tener",
        "5509": "o. T\u00fa ",
        "5510": "o. Pablo ",
        "5511": "o. Era ",
        "5512": "o. As\u00ed, ",
        "5513": "se per",
        "5514": "se re",
        "5515": "se cur",
        "5516": "se pusieron tristes",
        "5517": "de su ",
        "5518": "de agua ",
        "5519": "de jueg",
        "5520": "de juguete",
        "5521": "de f\u00e1bula ",
        "5522": "cial",
        "5523": "ci\u00f3n de ",
        "5524": "vis",
        "5525": "vies",
        "5526": "vici",
        "5527": "viera ",
        "5528": "viejo ",
        "5529": "vieja ",
        "5530": "!\".\n\nEl ",
        "5531": "!\".\n\nEl conejo ",
        "5532": "!\". Los dos ",
        "5533": "!\". Pero el ",
        "5534": "!\". El pato ",
        "5535": "!\"\nEl ",
        "5536": "sue\u00f1",
        "5537": "dijo: \"Vamos ",
        "5538": "dijo: \"Podemos ",
        "5539": "dijo: \"\u00bfY si ",
        "5540": "dijo: \"Toma ",
        "5541": "dijo: \"Vamos juntos",
        "5542": "eron una ",
        "5543": "prado ",
        "5544": "egus",
        "5545": "ego, el ",
        "5546": "paj",
        "5547": "papa",
        "5548": "biber",
        "5549": "estas",
        "5550": "est\u00e1n felices",
        "5551": "\u00e9n",
        "5552": "a. Todos ",
        "5553": "a. Quer\u00eda ",
        "5554": "a. Dos ni\u00f1os, ",
        "5555": "parte ",
        "5556": "paraz",
        "5557": "elig",
        "5558": "elimin",
        "5559": "pier",
        "5560": "piens",
        "5561": ".\n\nEl gato ",
        "5562": ".\n\nEl barco ",
        "5563": ".\n\nEl dinosaurio ",
        "5564": ".\n\nEl m\u00e9dico ",
        "5565": ".\n\nEl sapo ",
        "5566": ".\n\nEl pr\u00edncipe ",
        "5567": "edor ",
        "5568": "educ",
        "5569": "edor\n\nEn un ",
        "5570": "pod\u00edan",
        "5571": "perimen",
        "5572": "torre",
        "5573": "aba la ",
        "5574": "aba de ",
        "5575": "aba su ",
        "5576": "aba much",
        "5577": "aba despaci",
        "5578": "ta y la ",
        "5579": "! Los dos ",
        "5580": "! Se ",
        "5581": "! \u00bfQui",
        "5582": "! El p\u00e1jaro ",
        "5583": "ayudan",
        "5584": "ayudaron al ",
        "5585": "solo, ",
        "5586": "sola.\n\n",
        "5587": "sol. El sol ",
        "5588": "sol, y el sol ",
        "5589": "o, que era ",
        "5590": "lo ve",
        "5591": "lo hi",
        "5592": "lo llev",
        "5593": "lo quiero ",
        "5594": "lo mis",
        "5595": "lo hici",
        "5596": "lo llev\u00f3 al ",
        "5597": "lo abraz",
        "5598": "sito ",
        "5599": "al suel",
        "5600": "al p\u00e1jaro, y el p\u00e1jaro ",
        "5601": ", pero no lo encontr",
        "5602": "los huev",
        "5603": "los juguetes ",
        "5604": "los vio y ",
        "5605": "los problemas",
        "5606": "graci",
        "5607": "grues",
        "5608": "dijo: \"\u00a1T\u00fa ",
        "5609": "dijo: \"\u00a1Es ",
        "5610": "dijo: \"\u00a1Tengo ",
        "5611": "dijo: \"\u00a1Sal",
        "5612": "dijo: \"\u00a1Juntos podemos",
        "5613": "dijo: \"\u00a1Ahora",
        "5614": "dijo: \"\u00a1Per",
        "5615": "dijo: \"\u00a1P\u00e1jar",
        "5616": "nico",
        "5617": "nieto",
        "5618": "acalor",
        "5619": "quer\u00eda nadar",
        "5620": "quer\u00eda beber ",
        "5621": "quer\u00eda dibujar un ",
        "5622": "emocion",
        "5623": "puzzle ",
        "5624": "para un",
        "5625": "para ti",
        "5626": "para ayudar",
        "5627": "para perr",
        "5628": "para agarr",
        "5629": "para comprar ",
        "5630": "cuev",
        "5631": "cu\u00e1n",
        "5632": "cubo ",
        "5633": "cubo de ",
        "5634": "pod\u00eda volar alto",
        "5635": "ten\u00eda hamb",
        "5636": "ten\u00eda comida ",
        "5637": "ten\u00eda zapatos ",
        "5638": "ten\u00eda alas y ",
        "5639": "hab\u00eda un",
        "5640": "do y ",
        "5641": "te dar",
        "5642": "con agua ",
        "5643": "con \u00e9l",
        "5644": "con hambre",
        "5645": "con ella",
        "5646": "o.\n\nLolo y ",
        "5647": "liz",
        "5648": "Yo tambi\u00e9n ",
        "5649": "Yo soy ",
        "5650": "Yo te doy ",
        "5651": "aron en ",
        "5652": "juntos. El p\u00e1jaro ",
        "5653": "era mejor",
        "5654": "era r\u00e1pido, pero ",
        "5655": "era lento",
        "5656": "ta. El ",
        "5657": "tape",
        "5658": "cancion",
        "5659": "cancha ",
        "5660": "comple",
        "5661": "compet",
        "5662": "competen",
        "5663": "su trabaj",
        "5664": "laz",
        "5665": "la.\n\nEl conejo ",
        "5666": "lazo ",
        "5667": "o. El cangrejo ",
        "5668": "o. El Sol ",
        "5669": "o. El oso ",
        "5670": "o. El perrito ",
        "5671": "detr\u00e1s ",
        "5672": "y un osito ",
        "5673": "y un poco de ",
        "5674": "y un conejito",
        "5675": "peces ",
        "5676": "salir",
        "5677": "salpic",
        "5678": "estaba suci",
        "5679": "\u00f3. Los dos ",
        "5680": ".\n\nMoraleja: Competir ",
        "5681": ".\n\nMoraleja: Compi",
        "5682": ".\n\nMoraleja: Para ",
        "5683": "en el mismo ",
        "5684": "en el lag",
        "5685": "en el ciel",
        "5686": "en el Consul",
        "5687": "co y el ",
        "5688": "buce",
        "5689": "\u00edan las reglas",
        "5690": "Pero hab\u00eda un ",
        "5691": "Pero t\u00fa ",
        "5692": "tus",
        "5693": "granos ",
        "5694": "perro ladr",
        "5695": "ni\u00f1o y ",
        "5696": "agua, ",
        "5697": "agua. La ",
        "5698": "\u00f3 y lo ",
        "5699": "las dos ",
        "5700": "las guard",
        "5701": "las flores",
        "5702": "las hojas ",
        "5703": "las semillas ",
        "5704": "las letr",
        "5705": "muy r\u00e1pido ",
        "5706": "muy contentos",
        "5707": "empac",
        "5708": ". Aprendi\u00f3 que ",
        "5709": "re\u00eda",
        "5710": "repar",
        "5711": "re\u00edr",
        "5712": "recoger ",
        "5713": ". La liebre ",
        "5714": ". La ara\u00f1a ",
        "5715": ". La abuela ",
        "5716": ". La gente ",
        "5717": ". La enfermera ",
        "5718": ". La cabra ",
        "5719": ". La flor ",
        "5720": ". La fogata ",
        "5721": ". La lechuza ",
        "5722": ". La pelota rod\u00f3 ",
        "5723": "Juntos",
        "5724": "ado para ",
        "5725": "roca ",
        "5726": "No pas",
        "5727": "No escuch",
        "5728": "mejor el ",
        "5729": "corto",
        "5730": "cort\u00f3 el ",
        "5731": "Los cangrej",
        "5732": "Los conejos ",
        "5733": "luego, el ",
        "5734": "pelud",
        "5735": "hab\u00eda un perro ",
        "5736": "!\" y ",
        "5737": "!\" La tortuga ",
        "5738": "!\" Lina ",
        "5739": "!\" Pipo ",
        "5740": "!\" Luis ",
        "5741": "doy ",
        "5742": "dobl",
        "5743": ". El p\u00e1jaro quer\u00eda ",
        "5744": ". El p\u00e1jaro ten\u00eda un ",
        "5745": ". El p\u00e1jaro cant\u00f3 ",
        "5746": ". El p\u00e1jaro volaba ",
        "5747": ". El p\u00e1jaro vol\u00f3 y ",
        "5748": ". El p\u00e1jaro cant\u00f3 feliz",
        "5749": ".\n\nAprende",
        "5750": "compartieron las ",
        "5751": "amos en equipo.\n\nFin.",
        "5752": "rat\u00f3n peque\u00f1o ",
        "5753": "m\u00e1s r\u00e1pido ",
        "5754": "m\u00e1s fuertes ",
        "5755": "seco",
        "5756": "sedi",
        "5757": "separ",
        "5758": "secre",
        "5759": "secar el ",
        "5760": ". El conejo pod\u00eda ",
        "5761": ". El conejo era ",
        "5762": ". El conejo ten\u00eda una ",
        "5763": ". El conejo dijo: \"\u00a1Vamos a ",
        "5764": "a, un ",
        "5765": "a, y la ",
        "5766": "fr\u00eda",
        "5767": "gan\u00f3 ",
        "5768": "ganan ",
        "5769": "gan\u00f3 un ",
        "5770": "gan\u00f3 porque ",
        "5771": "todos los ",
        "5772": "todos fueron felices",
        "5773": "todos toman turnos, ",
        "5774": "trigo ",
        "5775": "tritiv",
        "5776": "otro.\n\n",
        "5777": ", pero no pod\u00eda sol",
        "5778": "S\u00ed, podemos ",
        "5779": "\n\nEn un kiosco ",
        "5780": "\n\nEn un centro ",
        "5781": "en la pis",
        "5782": "en la ventan",
        "5783": "en la Tintorer\u00eda",
        "5784": "comieron el ",
        "5785": "emos que ",
        "5786": "Lula. ",
        "5787": ", pero el l\u00e1piz ",
        "5788": ", pero el colch\u00f3n ",
        "5789": "gato, ",
        "5790": "fuerz",
        "5791": "Los dos quer\u00edan ",
        "5792": "o y quer\u00eda ",
        "5793": "o y t\u00fa ",
        "5794": "tones",
        "5795": "sonri\u00f3: \"",
        "5796": "sonri\u00f3 al ",
        "5797": "sonri\u00f3: \"\u00a1S\u00ed",
        "5798": "sonri\u00f3 porque ",
        "5799": "Coco",
        "5800": "del sol",
        "5801": "del parque",
        "5802": "del jard\u00edn ",
        "5803": "del conejo. El conejo ",
        "5804": "del Parque",
        "5805": "hormig",
        "5806": "usa ",
        "5807": "usel",
        "5808": "usaron ",
        "5809": "usamos ",
        "5810": "usar mi ",
        "5811": "T\u00fa comes ",
        "5812": "y el p\u00e1jaro trabajaron juntos",
        "5813": "y el p\u00e1jaro cant\u00f3",
        "5814": "\n\nEn una libr",
        "5815": "\n\nEn una carnicer\u00eda",
        "5816": "peque\u00f1os",
        "5817": "peque\u00f1a, ",
        "5818": "peque\u00f1a para ",
        "5819": "tarde ",
        "5820": "tarlo ",
        "5821": "tarro ",
        "5822": "tarde",
        "5823": "tarjeta ",
        "5824": "ca llamada ",
        "5825": "s, Lolo y ",
        "5826": "\u00e9 a ",
        "5827": "cerr\u00f3 ",
        "5828": "cerca, ",
        "5829": "hij",
        "5830": "hil",
        "5831": "veran",
        "5832": "! \u2014 ",
        "5833": "! \u2014gri",
        "5834": "despens",
        "5835": "desagrad",
        "5836": "destroz",
        "5837": "ntonces, el conejo ",
        "5838": "bouti",
        "5839": "\u00bfPuedes ",
        "5840": "llegar al ",
        "5841": "ada de la escuel",
        "5842": "vo \"",
        "5843": ". \u00a1C",
        "5844": ". \u00a1No ",
        "5845": ". \u00a1Todos ",
        "5846": ". \u00a1Qu\u00e9 ",
        "5847": ". \u00a1As\u00ed ",
        "5848": "!\n\nLos dos ",
        "5849": ".\n\nEl conejo pens\u00f3: \"",
        "5850": "sol y la ",
        "5851": "sol calen",
        "5852": "sol brillante",
        "5853": "cara",
        "5854": "cari",
        "5855": "carse ",
        "5856": "carro ",
        "5857": "bien\", dijo el ",
        "5858": "Un d\u00eda, vieron un ",
        "5859": "\n\nHab\u00eda una choza ",
        "5860": "\n\nHab\u00eda una fiesta ",
        "5861": "llam\u00f3 al ",
        "5862": "agua en su ",
        "5863": ".\" Juntos ",
        "5864": "pens\u00f3. \"\u00a1",
        "5865": "Entonces, la ",
        "5866": "y la L",
        "5867": "casa. ",
        "5868": "casco ",
        "5869": "casi ",
        "5870": "cascada ",
        "5871": "problema, p",
        "5872": "ayudar\". ",
        "5873": "all\u00ed ",
        "5874": "so de los ",
        "5875": "mejor\". ",
        "5876": ", hab\u00eda un conejito ",
        "5877": ", hab\u00eda un rat\u00f3n y un ",
        "5878": "quer\u00edan to",
        "5879": "quer\u00edan ayudar",
        "5880": "come ",
        "5881": "llevar",
        "5882": "llev\u00f3 el ",
        "5883": "llev\u00f3 la ",
        "5884": "llev\u00f3 un ",
        "5885": "grande y un conejo ",
        "5886": "lo, pero no pod\u00eda ",
        "5887": "lo!\n\n",
        "5888": "triste, ",
        "5889": "triste. El ",
        "5890": "viv\u00eda cerca",
        "5891": "caci\u00f3n ",
        "5892": "caparaz",
        "5893": "nada, ",
        "5894": ". \"\u00a1No ",
        "5895": ". \"\u00a1S\u00ed",
        "5896": ". \"\u00a1Vamos a ",
        "5897": ". \"\u00a1Gracias",
        "5898": ". \"\u00a1Es ",
        "5899": "es mejor que estar ",
        "5900": "es mejor que hacerlo ",
        "5901": "maravi",
        "5902": "ojos ",
        "5903": "dio un ",
        "5904": "dijo: \"\u00a1Yo tengo ",
        "5905": "dijo: \"\u00a1Yo tampoco",
        "5906": ". Pero a veces, ",
        "5907": ". Pero solo hab\u00eda un ",
        "5908": ". Pero luego, el ",
        "5909": "cionamiento",
        "5910": "Y t\u00fa ",
        "5911": ".\n\n\u2014\"\u00bfQuieres ",
        "5912": "compartir su ",
        "5913": "intent\u00f3",
        "5914": "\u00f3 la puerta ",
        "5915": "\u00f3 un mom",
        "5916": "brillaba",
        "5917": "sab\u00eda cur",
        "5918": "los dos quer\u00edan ",
        "5919": "los dos estaban contentos",
        "5920": "\u00f3 a los ",
        "5921": "no pod\u00eda mover",
        "5922": "no pod\u00eda saltar",
        "5923": "no pod\u00eda llegar",
        "5924": "no pod\u00eda pasar",
        "5925": "limpiar ",
        "5926": "limpi\u00f3 el ",
        "5927": "limpiar la ",
        "5928": "grande, ",
        "5929": "de la tortuga. \"\u00a1",
        "5930": "de la panader\u00eda ",
        "5931": "!\", dijo el p\u00e1jaro.\n\nEl conejo ",
        "5932": "es bueno ",
        "5933": "!\" El ni\u00f1o ",
        "5934": "!\" El sol ",
        "5935": "!\" El mono ",
        "5936": "ley",
        "5937": "le\u00f1a ",
        "5938": "Vamos a cambiar",
        "5939": "Ay\u00fadam",
        "5940": "hacer las cosas ",
        "5941": "manta ",
        "5942": "manopla ",
        "5943": "ser divertido ",
        "5944": "trabaja ",
        "5945": "trabajando ",
        "5946": "trabajador",
        "5947": "solo quer\u00eda ",
        "5948": "solo un poco",
        "5949": "Lila salt\u00f3 ",
        "5950": "Lila y un osito ",
        "5951": "Escu",
        "5952": "entreg",
        "5953": "entr\u00f3 en el ",
        "5954": "entrada de la escuel",
        "5955": "intent\u00f3 empujar",
        "5956": "intent\u00f3 volar",
        "5957": "intent\u00f3 saltar",
        "5958": "intent\u00f3 saltar ",
        "5959": "poner",
        "5960": "cuando el ",
        "5961": "cuando yo di",
        "5962": ".\"\n\nEl pez ",
        "5963": "f\u00edn",
        "5964": "ver una pel\u00edcula",
        "5965": "corri\u00f3",
        "5966": "corrien",
        "5967": "fuerte: \"\u00a1",
        "5968": "alto, viv\u00eda un ",
        "5969": "contenta",
        "5970": "ten\u00eda un amigo. ",
        "5971": "Juntos, hicieron un plan",
        "5972": "gato llamado ",
        "5973": "porque el p\u00e1jaro ",
        "5974": "galleta ",
        "5975": "tambi\u00e9n fue feliz",
        "5976": "poll",
        "5977": "tas y ",
        "5978": "! \u2014dijo el ni\u00f1",
        "5979": "! \u2014dijo el conejo",
        "5980": "palabras simples",
        "5981": "aprendi\u00f3 que ayudar ",
        "5982": "ego\u00edsta",
        "5983": "Si te ",
        "5984": "Si compar",
        "5985": "Tortug",
        "5986": "Tortuga ",
        "5987": "feria ",
        "5988": "o\" ",
        "5989": "o\". ",
        "5990": "o\". El ",
        "5991": "tom\u00f3 ",
        "5992": "tomar el ",
        "5993": "se entien",
        "5994": "se encontr",
        "5995": "se enfad",
        "5996": ", y \u00a1",
        "5997": ", y todos ",
        "5998": "salt\u00f3 alto",
        "5999": "salt\u00f3 sobre ",
        "6000": "mir\u00f3 y ",
        "6001": "a. El perro ",
        "6002": "a. El elefante ",
        "6003": "a. El m\u00e9dico ",
        "6004": "si todos ",
        "6005": "trabajar juntos.",
        "6006": "turnos",
        "6007": "turno, ",
        "6008": "turnos. ",
        "6009": "turnarse",
        "6010": "abri\u00f3 la ",
        "6011": "o. \u00a1Pum",
        "6012": "\u00f3. \"\u00a1No podemos solos",
        "6013": "llamado Leo. ",
        "6014": "llamado Luis",
        "6015": "llamado Pipo. Pipo ",
        "6016": "jugar!\", dijo",
        "6017": "por su ",
        "6018": "a la tintorer\u00eda ",
        "6019": "La Torre ",
        "6020": "subi\u00f3 a ",
        "6021": "subi\u00f3 a la ",
        "6022": "vio al conej",
        "6023": "vio al conejo ",
        "6024": "vio al pajarito ",
        "6025": "eza y ",
        "6026": ".\n\nAl final, Luis ",
        "6027": ".\n\nAl final, la tortuga ",
        "6028": "Soy ",
        "6029": "grif",
        "6030": "gris ",
        "6031": "gritar",
        "6032": "ado, pero ",
        "6033": "\u00f3 con cuid",
        "6034": "ar el agua",
        "6035": "que todos sean ",
        "6036": "libro",
        "6037": "!\", dijo. El conejo ",
        "6038": "t\u00fa quieres",
        "6039": ".\n\nLa ardilla ",
        "6040": ".\n\nLa gallina ",
        "6041": ".\n\nLa liebre ",
        "6042": "\n\nEn el \u00e1rea de ",
        "6043": ".\"\n\nY as\u00ed, ",
        "6044": "dijo: \"\u00a1S\u00ed!\" ",
        "6045": "cadena ",
        "6046": "pintaron ",
        "6047": "tortuga, ",
        "6048": "solo, pero el ",
        "6049": "solo!\", dijo",
        "6050": "solo, pero no pud",
        "6051": "pens\u00f3: \"Necesito ",
        "6052": "da. El conejo ",
        "6053": "r\u00ednci",
        "6054": "a. \"\u00a1Yo puedo ",
        "6055": "vol\u00f3 cerca ",
        "6056": "vol\u00f3 alto ",
        "6057": ". La tortuga y el conejo quer\u00edan ",
        "6058": "\". Pipo ",
        "6059": "\". Entonces, el conejo ",
        "6060": "me ayud",
        "6061": "me qued",
        "6062": ".\" El rat\u00f3n ",
        "6063": ".\" El pato ",
        "6064": "bolera ",
        "6065": "as y las ",
        "6066": "\u00f3. El sol ",
        "6067": "\u00f3. El gato ",
        "6068": "\u00f3. El elefante ",
        "6069": "Se cans",
        "6070": "necesito",
        "6071": ", la liebre ",
        "6072": "trapo ",
        "6073": "empujar, no ",
        "6074": "caminar ",
        "6075": "camin\u00f3 despaci",
        "6076": "A veces, cooperar significa sacrificar alg",
        "6077": "foto",
        "6078": "fotos",
        "6079": "entend",
        "6080": "entenderse",
        "6081": "algo importante",
        "6082": "era muy pes",
        "6083": "lav\u00f3 su ",
        "6084": "lavander",
        "6085": "o. El conejo quer\u00eda ",
        "6086": "pudo volar ",
        "6087": "ruido ",
        "6088": "estrel",
        "6089": "estructura ",
        "6090": "o. La ardilla ",
        "6091": "o. La liebre ",
        "6092": "!\"\n\nLa tortuga ",
        "6093": "hiciste ",
        "6094": "aprendieron que competir ",
        "6095": "balde",
        "6096": "bal\u00f3n",
        "6097": "o\n\nEn un club ",
        "6098": ".\n\nEntonces, el p\u00e1jaro ",
        "6099": ".\n\nEntonces, pens",
        "6100": "disfrutar ",
        "6101": "helado. ",
        "6102": "helado y ",
        "6103": "ario ",
        "6104": "uno puede ",
        "6105": "La Ca",
        "6106": "La Car",
        "6107": "lloraba",
        "6108": "hasta que el ",
        "6109": "encontrar ",
        "6110": "encontr\u00f3 un poco de ",
        "6111": ". El perro y el gato ",
        "6112": "dijo: \"Yo soy ",
        "6113": "compartir. \"",
        "6114": "trabajar juntos y ",
        "6115": "trabajar juntos es mejor que pelear",
        "6116": "La Tortuga y el Conej",
        "6117": "hablar",
        "6118": "vender",
        "6119": "todo qued\u00f3 ",
        "6120": "todo para \u00e9l",
        "6121": "todo es m\u00e1s f\u00e1cil",
        "6122": "conejo y un p\u00e1jaro. El conejo ",
        "6123": "\u2014dijo el p\u00e1jaro.\n\n",
        "6124": "\u2014dijo el conejo.\n\n",
        "6125": "los problemas se arreg",
        "6126": "nutritiv",
        "6127": "llen\u00f3 de ",
        "6128": "primero, luego el ",
        "6129": "primero, luego yo ",
        "6130": "taron y ",
        "6131": ". Un d\u00eda, un ni\u00f1o ",
        "6132": "ento, ",
        "6133": ".\n\nLa tortuga intent\u00f3 ",
        "6134": ".\n\nLa tortuga dijo: \"Yo ",
        "6135": "puso un ",
        "6136": ".\n\nMoraleja: Compartir y cambiar ",
        "6137": ".\n\nMoraleja: Compartir es bueno. Todos ",
        "6138": "siempre",
        "6139": "rojo y ",
        "6140": "r\u00e1pido. La tortuga ",
        "6141": "r\u00e1pido. Un d\u00eda, ",
        "6142": "r\u00e1pido. Al final, el ",
        "6143": "ya no era ",
        "6144": "a y todos disfrutan.",
        "6145": ". Los dos estaban felices",
        "6146": ". Los dos amigos ",
        "6147": "pez y el cangrejo ",
        "6148": "Toma la ",
        "6149": "\", dijo.\n\nEl p\u00e1jaro ",
        "6150": "Aprendieron que a veces hay que sacrificar algo para ",
        "6151": "la. \u00a1",
        "6152": "o.\n\nEl ni\u00f1o ",
        "6153": "abejorro ",
        "6154": "alas por ",
        "6155": "alas largas ",
        "6156": "Lo hiciste ",
        "6157": "delan",
        "6158": "vieron el ",
        "6159": "\n\nEn la entrada de la escuel",
        "6160": "jugaron felices ",
        "6161": "Trabajemos juntos!\", dijo el ",
        "6162": "Trabajemos juntos!\", dijo el conej",
        "6163": "zanahoria ",
        "6164": "zanahorias y ",
        "6165": "siempre hay que ",
        "6166": "dulces ",
        "6167": "a y el Sol",
        "6168": "El Pa",
        "6169": "El Pr\u00ednci",
        "6170": "to y no pod\u00eda ",
        "6171": "r\u00e1pido, ",
        "6172": "r\u00e1pido.\n\n\u2014",
        "6173": "r\u00e1pidas. ",
        "6174": "cerca de una ",
        "6175": "Tita. ",
        "6176": "experimen",
        "6177": "macia ",
        "6178": "satisfe",
        "6179": "y los Animales",
        "6180": "cooperar es mejor cuando ",
        "6181": "Yo quiero dormir ",
        "6182": "estaba feliz. El conejo ",
        "6183": "calentar ",
        "6184": "calent\u00f3 el ",
        "6185": "calentarse",
        "6186": ".\n\n\u2014\u00a1Yo quiero ",
        "6187": "decidieron competir",
        "6188": "Pablo y ",
        "6189": "Hablemos ",
        "6190": "Hablar claro ayuda a trabajar juntos.\n\n(249 palabras)",
        "6191": "Lina",
        "6192": "Lola tiene ",
        "6193": "cabeza y ",
        "6194": "seguro",
        "6195": "segu\u00edan las reglas",
        "6196": "se qued\u00f3 triste",
        "6197": "se qued\u00f3 sin ",
        "6198": "se qued\u00f3 afuer",
        "6199": "dijo: \"\u00a1Vamos a trabajar juntos",
        "6200": ". Ambos siguieron las reglas",
        "6201": "Luc\u00eda. ",
        "6202": "responde",
        "6203": "o.\n\u2014 \u00a1S\u00ed",
        "6204": ". Aprendieron que compartir hace que todos ganen.\n\nFin.",
        "6205": ". Aprendieron que compartir hace felices a todos.\n\nFin.",
        "6206": "hacer un cambi",
        "6207": "corri\u00f3 r\u00e1pido ",
        "6208": "corri\u00f3 r\u00e1pido, pero ",
        "6209": "gallina llamada ",
        "6210": "hueso y el perro ",
        "6211": "correr r\u00e1pido. ",
        "6212": "correr para ver qui\u00e9n ",
        "6213": "liebre y un conejo ",
        "6214": "farero ",
        "6215": "faro y el ",
        "6216": "faro para ",
        "6217": "meta",
        "6218": "\u00e1rbol\n\nHab\u00eda una casita ",
        "6219": "Gracias, amig",
        "6220": "ar a otros es bueno. \u00a1Todos ",
        "6221": "entendi\u00f3. \"\u00a1",
        "6222": "herida ",
        "6223": "mesa ",
        "6224": "curso de los ",
        "6225": ".\n\nMoraleja: A veces, ayudar a otros ",
        "6226": "ago",
        "6227": "p\u00e1jaro.\n\nEl p\u00e1jaro ",
        "6228": "es m\u00e1s importante",
        "6229": "comida. El p\u00e1jaro ",
        "6230": "cruzar ",
        "6231": "significa sacrificar alg",
        "6232": "nombre ",
        "6233": ". Cer",
        "6234": ". Cor",
        "6235": ". Clar",
        "6236": ". Cada ",
        "6237": "colin",
        "6238": ".\n\nUn d\u00eda, vieron un ",
        "6239": ".\n\nUn d\u00eda, vieron una ",
        "6240": ".\n\nUn d\u00eda, lleg\u00f3 un ",
        "6241": "a. \u00a1El ",
        "6242": "o, y no pod\u00edan ",
        "6243": "Esta vez, el conejo ",
        "6244": "!\n\nEl p\u00e1jaro ",
        "6245": "isla ",
        "6246": "pan de la panader\u00eda ",
        "6247": "con sus patas",
        "6248": "liso y ",
        "6249": "fr\u00edo",
        "6250": "fr\u00edo, ",
        "6251": "cuando trabajamos en equipo.\n\nFin.",
        "6252": "Solo uno pod\u00eda ",
        "6253": "o.\n\n\u2014\u00a1No podemos solos",
        "6254": "o.\n\n\u2014\u00a1Lo logramos",
        "6255": "respondi\u00f3",
        "6256": "Amigos\n\nEn una ",
        "6257": "Tenemos que ",
        "6258": "bosque ",
        "6259": "se cay\u00f3 y ",
        "6260": "se cay\u00f3 al suel",
        "6261": "fresco",
        "6262": "fresca",
        "6263": "cambiar tus ",
        "6264": "necesitan ",
        "6265": "algo para que todos est\u00e9n ",
        "6266": "monta",
        "6267": "rincones ",
        "6268": "en una carre",
        "6269": "viento fuerte ",
        "6270": "lo que quer\u00edan",
        "6271": "lo que t\u00fa quieres",
        "6272": "en el suelo. El ",
        "6273": "galliner",
        "6274": "Mira",
        "6275": ", viv\u00eda un conejo ",
        "6276": "patinar juntos",
        "6277": "est\u00e1 bien",
        "6278": ".\n\nMoraleja: Ayudar a otros es valios",
        "6279": "Juntos, el p\u00e1jaro ",
        "6280": "luz y ",
        "6281": "luz brill\u00f3 ",
        "6282": "todos ganan",
        "6283": "otra vez!\n\n",
        "6284": "\u00bfQu\u00e9 hac",
        "6285": "Necesitaban ",
        "6286": "Puedes usar mi ",
        "6287": "sonri\u00f3. \"\u00a1Buen trabaj",
        "6288": "En el ",
        "6289": "morder ",
        "6290": "malo ",
        "6291": "nadie",
        "6292": "p\u00e1jaro.\n\nLa tortuga ",
        "6293": "o. Un d\u00eda, decidieron ",
        "6294": "comparte ",
        "6295": "comparto, ",
        "6296": "salt\u00f3, pero no pudo ",
        "6297": ", pero no sab\u00eda c\u00f3mo",
        "6298": "Ardilla ",
        "6299": "no llor\u00f3. ",
        "6300": "La Gu",
        "6301": "pollito",
        "6302": "Tienda de ",
        "6303": "garaje",
        "6304": "tal\n\nEn un hospi",
        "6305": "velas ",
        "6306": "conejitos ",
        "6307": "conejitos: Lolo y ",
        "6308": ", pero no pudo. El ",
        "6309": "comida. ",
        "6310": "comida. El ",
        "6311": "llev\u00f3 al conejo en su espal",
        "6312": ".\n\nAl final, los dos estaban felices",
        "6313": ".\n\nAl final, los dos estaban contentos",
        "6314": "o.\n\nMoraleja: Compartir ayuda a todos a ser felices.",
        "6315": "es divertido, pero siempre hay que ",
        "6316": "do.\n\nFin.",
        "6317": "sentarse",
        "6318": "vo)",
        "6319": ". Quer\u00edan ver qui\u00e9n ",
        "6320": "!\"\n\nEllos ",
        "6321": "puede ser divertido ",
        "6322": "se\u00f1or ",
        "6323": "es mejor si hablan clar",
        "6324": "pajaritos, ",
        "6325": ", la tortuga y el conejo ",
        "6326": "sombrer",
        "6327": ".\n\nMoraleja: Ayudar a otros es bueno. No ",
        "6328": ".\n\nMoraleja: Ayudar a otros es bueno. Todos ",
        "6329": "hablan claro, pueden ",
        "6330": "\" (",
        "6331": "\". El cangrejo ",
        "6332": "Paco",
        "6333": "Patin",
        "6334": "Pato, ",
        "6335": "form",
        "6336": "arenero ",
        "6337": "y yo tengo ",
        "6338": "tocaba ",
        "6339": "toc\u00f3 la ",
        "6340": "y el Sol\n\nEn una ",
        "6341": "en equipo ",
        "6342": "!\".\n\nJuntos, ",
        "6343": "!\".\n\nEllos ",
        "6344": "!\". El elefante ",
        "6345": ".\n\nEl rat\u00f3n roncador ",
        "6346": "carretera ",
        "6347": "pens\u00f3 y acept\u00f3",
        "6348": ". Un p\u00e1jaro quer\u00eda ",
        "6349": ". Un p\u00e1jaro peque\u00f1o ",
        "6350": "sonri\u00f3. \"T\u00fa tambi\u00e9n ",
        "6351": "escondite ",
        "6352": "Decidi\u00f3 ",
        "6353": "Las dos ",
        "6354": "Oh, ",
        "6355": "menos",
        "6356": "\u00c1rea de ",
        "6357": "coche roj",
        "6358": "la mesa",
        "6359": "dijo: \"No hay ",
        "6360": "con cuidado, ",
        "6361": "pelo del ",
        "6362": "es mejor cuando hablamos claro.",
        "6363": "nada. Aprendi\u00f3 que ",
        "6364": "grande, hab\u00eda un perro y un gato. El perro ",
        "6365": "fogata",
        "6366": "Ahora, el ",
        "6367": "nueva",
        "6368": "nuevo ",
        "6369": "siguieron jugando ",
        "6370": "columpio en el parque",
        "6371": "zanahorias.\n\nUn d\u00eda, el conejo ",
        "6372": "no llor\u00f3. \"\u00a1Bien hech",
        "6373": "Sin embarg",
        "6374": "lenta",
        "6375": "qu\u00e9 no ",
        "6376": "ayudar a otros es ",
        "6377": "cuerda ",
        "6378": "estaba muy alto",
        "6379": "en el bosque. ",
        "6380": "volvi\u00f3 y ",
        "6381": "volvi\u00f3 a ",
        "6382": "y el Perro en la ",
        "6383": "cerr\u00f3 el ",
        "6384": "castillo",
        "6385": "castillo de ",
        "6386": "abrigo y el ",
        "6387": "Necesito que me ",
        "6388": "Buen juego",
        "6389": "globo color",
        "6390": "Clara ",
        "6391": "Debemos ",
        "6392": "aire ",
        "6393": "a. El p\u00e1jaro vol\u00f3 y ",
        "6394": "nuez ",
        "6395": "o!\", dijo. El ",
        "6396": ", un conejo y un ",
        "6397": "cooperar",
        "6398": ".\n\nLina y ",
        "6399": "La Fo",
        "6400": "chifl",
        "6401": "chiflar",
        "6402": "solo.\n\nPrimero, el ",
        "6403": ".\n\nAhora ",
        "6404": ".\n\nAhora, el ",
        "6405": "lleg\u00f3 primero",
        "6406": "pastel, pero no pod\u00eda ",
        "6407": "faro alto, viv\u00eda un ",
        "6408": "Decidieron hacer un cambi",
        "6409": "due\u00f1o del ",
        "6410": "ba\u00f1o ",
        "6411": "espejo ",
        "6412": "consultori",
        "6413": "no se enoj\u00f3. \"\u00a1",
        "6414": "que era ego\u00edsta, ",
        "6415": "y el Cangrej",
        "6416": "tenedor",
        "6417": "o. No pod\u00eda ",
        "6418": "pizza ",
        "6419": "nido, pero no ten\u00eda ",
        "6420": "ve\u00eda bien",
        "6421": "con amigos.",
        "6422": "quieres hacer",
        "6423": "fueron al ",
        "6424": "fueron amigos",
        "6425": "estaba contenta",
        "6426": "muy bien, pero no pod\u00eda ",
        "6427": "juntos son m\u00e1s fuertes ",
        "6428": "\n\nEn una capilla ",
        "6429": "\n\nEn una cafeter\u00eda ",
        "6430": "pensaron: \"\u00a1",
        "6431": "triste. \"\u00bfQuieres ",
        "6432": "de la escuela, hab\u00eda un ",
        "6433": "manzanas",
        "6434": "empuj\u00f3 fuerte",
        "6435": "Mu\u00f1e",
        "6436": "Perd\u00f3n",
        "6437": "Volc\u00e1",
        "6438": "banco",
        "6439": "o.\"\n\nMoraleja: ",
        "6440": "rieron y jugaron",
        "6441": "suave y ",
        "6442": "nicer\u00eda ",
        "6443": ".\n\nMoraleja: Cuando hay un ",
        "6444": "pel\u00edcula ",
        "6445": "comi\u00f3 y se sinti\u00f3 mejor",
        "6446": "nad\u00f3 hasta el ",
        "6447": "!\" El conejo dijo: \"\u00a1S\u00ed, yo ",
        "6448": "vio el problema y ",
        "6449": "hueso al ",
        "6450": "arreglaron el ",
        "6451": "tranquilo ",
        "6452": "tranquila",
        "6453": "chapotear ",
        "6454": ".\n\nMoraleja: Trabajar con amigos ",
        "6455": "pegamento ",
        "6456": "u\u00f1as ",
        "6457": ". Dijo",
        "6458": "y no hay ",
        "6459": "\u00e1gil",
        "6460": "oscuro, ",
        "6461": "y el Conejito",
        "6462": "se abri\u00f3",
        "6463": "prend",
        "6464": "\u2014pregunt\u00f3 la ",
        "6465": "quer\u00eda hacer un nido, pero no ten\u00eda ",
        "6466": "guitarra ",
        "6467": "cantada\n\nEn una ",
        "6468": "lago del parque",
        "6469": "?\"\n\nLolo ",
        "6470": "Estaban felices!\n\nMoraleja: ",
        "6471": "a.\n\nLa ara\u00f1a ",
        "6472": "Podemos compartir. T\u00fa ",
        "6473": "sigui\u00f3 camin",
        "6474": "cant\u00f3 una canci\u00f3n",
        "6475": "empezaron a pelear",
        "6476": "empezaron a discutir",
        "6477": "plumas ",
        "6478": "plumas y ",
        "6479": "Bien hecho! ",
        "6480": "Chispa",
        "6481": "atorio ",
        "6482": "atascado ",
        "6483": "vaca ",
        "6484": "error",
        "6485": "El Bo",
        "6486": ", porque ahora ",
        "6487": "soldadito",
        "6488": "murmur",
        "6489": "salir del ",
        "6490": ".\"\n\nEsta vez",
        "6491": ".\n\nMoraleja: Los problemas dif\u00edciles se solucionan mejor cuando trabajamos juntos",
        "6492": "m\u00e1gico ",
        "6493": "vio que la tortuga ",
        "6494": "No hab\u00eda suficiente para los dos",
        "6495": "triste y le ",
        "6496": "pasamanos ",
        "6497": "pasamanos",
        "6498": "ayudarte!\", dijo",
        "6499": ". Aprendieron que los problemas dif\u00edciles se solucionan mejor con amigos.\n\nFin.",
        "6500": "corrieron muy r\u00e1pido. ",
        "6501": "toman turnos, todos disfrutan ",
        "6502": "\u00f3 con su pico",
        "6503": "\n\nHab\u00eda una vez una tortuga y un conejo en un ",
        "6504": "a veces hay que sacrificar algo para ayudar a los dem\u00e1s",
        "6505": "tendr\u00e9 para m\u00ed",
        "6506": "La Abeja y el ",
        "6507": "El Conejo y el Pato en el Clu",
        "6508": "Al d\u00eda siguiente, el ",
        "6509": "blando ",
        "6510": "fonda ",
        "6511": "restaurante",
        "6512": "restaurante ",
        "6513": "arrepen",
        "6514": "arretera",
        "6515": ". Tambi\u00e9n hab\u00eda un ",
        "6516": "interru",
        "6517": "La Lag",
        "6518": "estanque ",
        "6519": "eligieron ",
        "6520": "eligi\u00f3 un ",
        "6521": "pod\u00eda volar, pero no sab\u00eda ",
        "6522": "lim\u00f3n",
        "6523": "peine ",
        "6524": "!\", dijeron.\n\n",
        "6525": "compartimos, nadie ",
        "6526": "le pidier",
        "6527": "sea perfecto",
        "6528": "\n\nEn un parque para perr",
        "6529": "Los dos se empujar",
        "6530": "ar a la vez",
        "6531": "comunitari",
        "6532": "comunicaci\u00f3n ",
        "6533": ".\n\n\u2014Vamos a correr ",
        "6534": "Lila y Azul ",
        "6535": "aprendi\u00f3 que hablar claro ayuda a ",
        "6536": "aprendi\u00f3 que hablar claro ayuda a trabajar juntos",
        "6537": "batir ",
        "6538": "dijo: \"\u00a1S\u00ed! Yo te doy ",
        "6539": "estaban felices.\n\nMoraleja: Compartir hace que todos ganen.",
        "6540": "llamada Lila. Un d\u00eda, ",
        "6541": "servici",
        "6542": "monedas",
        "6543": "mordi\u00f3 el ",
        "6544": "disfrutaron sin pelear. Aprendieron que compartir y turnarse ",
        "6545": "tuvo una idea. \"\u00a1Trabajemos juntos! T\u00fa ",
        "6546": ".\n\nMoraleja: Trabajar con otros es m\u00e1s f\u00e1cil ",
        "6547": "estaci\u00f3n de servici",
        "6548": "record\u00f3 que ",
        "6549": "Inten",
        "6550": "Tula ",
        "6551": "Tula",
        "6552": "berca ",
        "6553": "tambor",
        "6554": "tambor ",
        "6555": "ya no pod\u00eda ",
        "6556": "arriba",
        "6557": "arriba. ",
        "6558": ". Todos en la ",
        "6559": "entes habilidad",
        "6560": "\u2014dijo la tortuga.\n\u2014",
        "6561": "\n\nEra el cumplea\u00f1",
        "6562": "quir\u00f3fano ",
        "6563": "en el Cam",
        "6564": "respir",
        "6565": "respir\u00f3 ",
        "6566": "Juntos lo lograron",
        "6567": "Estaci\u00f3n de ",
        "6568": "Estacionamiento",
        "6569": "intent\u00f3 empujar el ",
        "6570": "El Conejo y el Perro en la ",
        "6571": "pens\u00f3: \"Puedo ayudar\". ",
        "6572": "estaban felices. Aprendieron que compartir y cambiar ",
        "6573": ".\n\n\u2014\u00a1No puedo solo! \u2014dijo el ",
        "6574": "pregunt\u00f3: \"\u00bfQu\u00e9 pasa, ",
        "6575": "sali\u00f3 del ",
        "6576": "Su amiga ",
        "6577": "habilidades ",
        "6578": "televisi\u00f3n ",
        "6579": "televisi\u00f3n",
        "6580": "M\u00e1gico",
        "6581": "c\u00edrculo ",
        "6582": "dolor",
        "6583": "im\u00e1n ",
        "6584": "lado del ",
        "6585": "ven mejor ",
        "6586": "armario ",
        "6587": ", hab\u00eda tres ",
        "6588": "\n\nCerca de un ",
        "6589": "entiendo",
        "6590": "divirti",
        "6591": ": no empujar, no ",
        "6592": ". El rey ",
        "6593": "La Isla ",
        "6594": "en lo alto",
        "6595": "se derriti",
        "6596": "surgi",
        "6597": "superi",
        "6598": "tempran",
        "6599": "lo empuj\u00f3 con sus patitas",
        "6600": "computad",
        "6601": "detuv",
        "6602": "tulip\u00e1n",
        "6603": "No funciona",
        "6604": "calificar ",
        "6605": "bonito y quer\u00eda ",
        "6606": "agua estaba lejos",
        "6607": "Entonces, pensaron juntos",
        "6608": "grande y un p\u00e1jaro peque\u00f1o. El ",
        "6609": "le\u00f1a",
        "6610": "auditorio ",
        "6611": "cuando se trabaja ",
        "6612": "cuando ayudamos.",
        "6613": "le dio sus alas ",
        "6614": "gimnasi",
        "6615": "pens\u00f3: \"Debo ",
        "6616": ", pero no sab\u00eda qu\u00e9 hacer",
        "6617": "aprendieron que competir es divertido, pero lo m\u00e1s importante es ser buenos amigos",
        "6618": "llamada Lina. Un d\u00eda, ",
        "6619": "algod\u00f3n",
        "6620": "exportar ",
        "6621": ".\n\nMoraleja: A veces, compartir es mejor que tener todo",
        "6622": "tuvo una idea: \"\u00a1Trabajemos juntos",
        "6623": ". Pero el p\u00e1jaro no pod\u00eda ",
        "6624": "respondi\u00f3: \"\u00a1S\u00ed! Pero ",
        "6625": "La Granja Encantada\n\nEn una ",
        "6626": "o. Pero al final, todos ganan.",
        "6627": "cav\u00f3 un hoyo ",
        "6628": "Viv\u00edan ",
        "6629": ".\n\nMoraleja: Tomar turnos evita peleas y todos disfrutan.",
        "6630": ".\n\nAs\u00ed, ambos ",
        "6631": "\"\u00bfQuieres cambiar?\", pregunt\u00f3 el ",
        "6632": "L\u00e1piz ",
        "6633": "Sab\u00eda que ",
        "6634": "Te ayud",
        "6635": "flau",
        "6636": "nunca ",
        "6637": "ardill",
        "6638": ". Dos amigos ",
        "6639": "\n\n*No",
        "6640": "toalla para ",
        "6641": "antes de ",
        "6642": "no se entend\u00edan",
        "6643": ", pero tampoco pud",
        "6644": "es divertid",
        "6645": "se fue",
[...]
