{
    "max_merges": 8000,
    "vocab_str": {
        "0": "<0x00>",
        "1": "<0x01>",
        "2": "<0x02>",
        "3": "<0x03>",
        "4": "<0x04>",
        "5": "<0x05>",
        "6": "<0x06>",
        "7": "<0x07>",
        "8": "<0x08>",
        "9": "<0x09>",
        "10": "<0x0A>",
        "11": "<0x0B>",
        "12": "<0x0C>",
        "13": "<0x0D>",
        "14": "<0x0E>",
        "15": "<0x0F>",
        "16": "<0x10>",
        "17": "<0x11>",
        "18": "<0x12>",
        "19": "<0x13>",
        "20": "<0x14>",
        "21": "<0x15>",
        "22": "<0x16>",
        "23": "<0x17>",
        "24": "<0x18>",
        "25": "<0x19>",
        "26": "<0x1A>",
        "27": "<0x1B>",
        "28": "<0x1C>",
        "29": "<0x1D>",
        "30": "<0x1E>",
        "31": "<0x1F>",
        "32": "\u00b7",
        "33": "!",
        "34": "\"",
        "35": "#",
        "36": "$",
        "37": "%",
        "38": "&",
        "39": "'",
        "40": "(",
        "41": ")",
        "42": "*",
        "43": "+",
        "44": ",",
        "45": "-",
        "46": ".",
        "47": "/",
        "48": "0",
        "49": "1",
        "50": "2",
        "51": "3",
        "52": "4",
        "53": "5",
        "54": "6",
        "55": "7",
        "56": "8",
        "57": "9",
        "58": ":",
        "59": ";",
        "60": "<",
        "61": "=",
        "62": ">",
        "63": "?",
        "64": "@",
        "65": "A",
        "66": "B",
        "67": "C",
        "68": "D",
        "69": "E",
        "70": "F",
        "71": "G",
        "72": "H",
        "73": "I",
        "74": "J",
        "75": "K",
        "76": "L",
        "77": "M",
        "78": "N",
        "79": "O",
        "80": "P",
        "81": "Q",
        "82": "R",
        "83": "S",
        "84": "T",
        "85": "U",
        "86": "V",
        "87": "W",
        "88": "X",
        "89": "Y",
        "90": "Z",
        "91": "[",
        "92": "\\",
        "93": "]",
        "94": "^",
        "95": "_",
        "96": "`",
        "97": "a",
        "98": "b",
        "99": "c",
        "100": "d",
        "101": "e",
        "102": "f",
        "103": "g",
        "104": "h",
        "105": "i",
        "106": "j",
        "107": "k",
        "108": "l",
        "109": "m",
        "110": "n",
        "111": "o",
        "112": "p",
        "113": "q",
        "114": "r",
        "115": "s",
        "116": "t",
        "117": "u",
        "118": "v",
        "119": "w",
        "120": "x",
        "121": "y",
        "122": "z",
        "123": "{",
        "124": "|",
        "125": "}",
        "126": "~",
        "127": "<0x7F>",
        "128": "<0x80>",
        "129": "<0x81>",
        "130": "<0x82>",
        "131": "<0x83>",
        "132": "<0x84>",
        "133": "<0x85>",
        "134": "<0x86>",
        "135": "<0x87>",
        "136": "<0x88>",
        "137": "<0x89>",
        "138": "<0x8A>",
        "139": "<0x8B>",
        "140": "<0x8C>",
        "141": "<0x8D>",
        "142": "<0x8E>",
        "143": "<0x8F>",
        "144": "<0x90>",
        "145": "<0x91>",
        "146": "<0x92>",
        "147": "<0x93>",
        "148": "<0x94>",
        "149": "<0x95>",
        "150": "<0x96>",
        "151": "<0x97>",
        "152": "<0x98>",
        "153": "<0x99>",
        "154": "<0x9A>",
        "155": "<0x9B>",
        "156": "<0x9C>",
        "157": "<0x9D>",
        "158": "<0x9E>",
        "159": "<0x9F>",
        "160": "<0xA0>",
        "161": "<0xA1>",
        "162": "<0xA2>",
        "163": "<0xA3>",
        "164": "<0xA4>",
        "165": "<0xA5>",
        "166": "<0xA6>",
        "167": "<0xA7>",
        "168": "<0xA8>",
        "169": "<0xA9>",
        "170": "<0xAA>",
        "171": "<0xAB>",
        "172": "<0xAC>",
        "173": "<0xAD>",
        "174": "<0xAE>",
        "175": "<0xAF>",
        "176": "<0xB0>",
        "177": "<0xB1>",
        "178": "<0xB2>",
        "179": "<0xB3>",
        "180": "<0xB4>",
        "181": "<0xB5>",
        "182": "<0xB6>",
        "183": "<0xB7>",
        "184": "<0xB8>",
        "185": "<0xB9>",
        "186": "<0xBA>",
        "187": "<0xBB>",
        "188": "<0xBC>",
        "189": "<0xBD>",
        "190": "<0xBE>",
        "191": "<0xBF>",
        "192": "<0xC0>",
        "193": "<0xC1>",
        "194": "<0xC2>",
        "195": "<0xC3>",
        "196": "<0xC4>",
        "197": "<0xC5>",
        "198": "<0xC6>",
        "199": "<0xC7>",
        "200": "<0xC8>",
        "201": "<0xC9>",
        "202": "<0xCA>",
        "203": "<0xCB>",
        "204": "<0xCC>",
        "205": "<0xCD>",
        "206": "<0xCE>",
        "207": "<0xCF>",
        "208": "<0xD0>",
        "209": "<0xD1>",
        "210": "<0xD2>",
        "211": "<0xD3>",
        "212": "<0xD4>",
        "213": "<0xD5>",
        "214": "<0xD6>",
        "215": "<0xD7>",
        "216": "<0xD8>",
        "217": "<0xD9>",
        "218": "<0xDA>",
        "219": "<0xDB>",
        "220": "<0xDC>",
        "221": "<0xDD>",
        "222": "<0xDE>",
        "223": "<0xDF>",
        "224": "<0xE0>",
        "225": "<0xE1>",
        "226": "<0xE2>",
        "227": "<0xE3>",
        "228": "<0xE4>",
        "229": "<0xE5>",
        "230": "<0xE6>",
        "231": "<0xE7>",
        "232": "<0xE8>",
        "233": "<0xE9>",
        "234": "<0xEA>",
        "235": "<0xEB>",
        "236": "<0xEC>",
        "237": "<0xED>",
        "238": "<0xEE>",
        "239": "<0xEF>",
        "240": "<0xF0>",
        "241": "<0xF1>",
        "242": "<0xF2>",
        "243": "<0xF3>",
        "244": "<0xF4>",
        "245": "<0xF5>",
        "246": "<0xF6>",
        "247": "<0xF7>",
        "248": "<0xF8>",
        "249": "<0xF9>",
        "250": "<0xFA>",
        "251": "<0xFB>",
        "252": "<0xFC>",
        "253": "<0xFD>",
        "254": "<0xFE>",
        "255": "<0xFF>",
        "256": "<UNK>",
        "257": "<EOS>",
        "258": "<PAD>",
        "259": "o ",
        "260": "a ",
        "261": "l ",
        "262": ". ",
        "263": "e ",
        "264": "er",
        "265": "\u00f3",
        "266": "\n\n",
        "267": "n ",
        "268": ", ",
        "269": "s ",
        "270": ".\n\n",
        "271": "ar",
        "272": "\u00ed",
        "273": "El ",
        "274": "en",
        "275": "el ",
        "276": "or",
        "277": "\u00f3 ",
        "278": "\u00f1",
        "279": "es",
        "280": "di",
        "281": "\u00e1",
        "282": "ni",
        "283": "\ufffd",
        "284": "\u2014",
        "285": "y ",
        "286": "\u00a1",
        "287": "qu",
        "288": "al",
        "289": "ni\u00f1",
        "290": "ab",
        "291": "am",
        "292": "co",
        "293": "ri",
        "294": "an",
        "295": "as",
        "296": "la ",
        "297": "o. ",
        "298": "ero ",
        "299": "un ",
        "300": "\u00eda ",
        "301": ": ",
        "302": "ni\u00f1o ",
        "303": "no ",
        "304": "os ",
        "305": "ad",
        "306": "to",
        "307": "se ",
        "308": "dij",
        "309": "lo ",
        "310": "in",
        "311": "ro",
        "312": "\u00f3. ",
        "313": "ue",
        "314": "es ",
        "315": "am\u00e1",
        "316": "ll",
        "317": "un",
        "318": "de ",
        "319": "uc",
        "320": "as ",
        "321": "a. ",
        "322": "tr",
        "323": "! ",
        "324": "te",
        "325": "vi",
        "326": ", p",
        "327": "ti",
        "328": "on",
        "329": "o.\n\n",
        "330": "La ",
        "331": "en ",
        "332": "El ni\u00f1o ",
        "333": "\"\u00a1",
        "334": "u ",
        "335": "pe",
        "336": "os",
        "337": "mam\u00e1",
        "338": "!\"",
        "339": "ui",
        "340": "re",
        "341": "que ",
        "342": "ar ",
        "343": "li",
        "344": "est",
        "345": "mi",
        "346": "de",
        "347": ", pero ",
        "348": "\u00e9",
        "349": "a, ",
        "350": "ci",
        "351": "una ",
        "352": "ol",
        "353": "dijo ",
        "354": "pi",
        "355": "Pero ",
        "356": "ug",
        "357": "No ",
        "358": "lo",
        "359": "ay",
        "360": "st",
        "361": "aba ",
        "362": ".\n\n\u2014",
        "363": "gr",
        "364": "par",
        "365": "su ",
        "366": "si",
        "367": "per",
        "368": "Luc",
        "369": "al ",
        "370": "ud",
        "371": "to ",
        "372": "era ",
        "373": "!\", ",
        "374": "gri",
        "375": "jug",
        "376": "Le",
        "377": "te ",
        "378": "mam\u00e1 ",
        "379": "uch",
        "380": "ap",
        "381": "ac",
        "382": "\n\nE",
        "383": "grit",
        "384": "gran",
        "385": "que",
        "386": "o, ",
        "387": "con",
        "388": "le",
        "389": "gu",
        "390": "\u2014dijo ",
        "391": "ra",
        "392": "om",
        "393": "\n\nEn ",
        "394": "cor",
        "395": "or ",
        "396": "do ",
        "397": "con ",
        "398": "bi",
        "399": "ve",
        "400": "ra ",
        "401": "ten",
        "402": "er\u00eda ",
        "403": "jar",
        "404": "ab\u00eda ",
        "405": "\u00f3 y ",
        "406": "ro ",
        "407": "pro",
        "408": "ch",
        "409": "er ",
        "410": "bo",
        "411": "llor",
        "412": "Un ",
        "413": ", el ",
        "414": "a.\n\n",
        "415": "bu",
        "416": "le ",
        "417": "Lucas ",
        "418": "esc",
        "419": "los ",
        "420": "ta ",
        "421": "dijo",
        "422": "!\n\n",
        "423": "vio ",
        "424": "m\u00e1",
        "425": "mu",
        "426": "so",
        "427": "re ",
        "428": "\u00e9 ",
        "429": "go ",
        "430": "se",
        "431": "d\u00ed",
        "432": "Leo ",
        "433": "en el ",
        "434": "fu",
        "435": "\u00bf",
        "436": "qui",
        "437": "Mam\u00e1",
        "438": "mal",
        "439": "\u00f3.\n\n",
        "440": "lic",
        "441": "mp",
        "442": "ado",
        "443": ". El ",
        "444": "fe",
        "445": "estaba ",
        "446": "Al ",
        "447": "\u00e1 ",
        "448": "nto",
        "449": "De ",
        "450": ": \"",
        "451": "son",
        "452": "ado ",
        "453": "omb",
        "454": "ayud",
        "455": "Mor",
        "456": "al: ",
        "457": "pronto",
        "458": "cu",
        "459": "Moral: ",
        "460": "an ",
        "461": "reg",
        "462": "\u00f3 el ",
        "463": "dic",
        "464": "perro ",
        "465": ". \u00a1",
        "466": "do",
        "467": "\u00f3n ",
        "468": "ir",
        "469": "Su ",
        "470": "sal",
        "471": "endi",
        "472": "d\u00eda ",
        "473": "De pronto",
        "474": "quer\u00eda ",
        "475": "Ay",
        "476": "ej",
        "477": "un ni\u00f1o ",
        "478": "que\u00f1",
        "479": "pas",
        "480": "on ",
        "481": ".\"",
        "482": "tri",
        "483": "\u00e1jar",
        "484": "peque\u00f1",
        "485": "ente",
        "486": "g: ",
        "487": "Fin",
        "488": "aj",
        "489": "gui",
        "490": "p\u00e1jar",
        "491": "po",
        "492": ".\n\n\u2014\u00a1",
        "493": "com",
        "494": "\u2014\u00a1",
        "495": "muy ",
        "496": "pu",
        "497": "hab\u00eda ",
        "498": "corri",
        "499": "escuch",
        "500": "ores",
        "501": ".\n",
        "502": "Qu",
        "503": "cas",
        "504": "otr",
        "505": "la",
        "506": "su",
        "507": "dos ",
        "508": "vol",
        "509": "pa",
        "510": "para ",
        "511": "To",
        "512": "\u00f3 a ",
        "513": "mo",
        "514": "lot",
        "515": "z ",
        "516": "o. El ",
        "517": "car",
        "518": "homb",
        "519": "grande ",
        "520": "agu",
        "521": "! \u2014",
        "522": "An",
        "523": "unt",
        "524": "! \u2014dijo ",
        "525": "ste",
        "526": "sonri",
        "527": "en la ",
        "528": "fin",
        "529": "d\u00eda, ",
        "530": "Era ",
        "531": "Pero el ",
        "532": "ca ",
        "533": "lle",
        "534": "Es ",
        "535": "\", ",
        "536": "ist",
        "537": "sigui",
        "538": ". \"\u00a1",
        "539": "Mam\u00e1 ",
        "540": "triste",
        "541": "ver",
        "542": "boni",
        "543": "uel",
        "544": "fuer",
        "545": ".\"\n\n",
        "546": "a no ",
        "547": "hombre ",
        "548": "Su mam\u00e1 ",
        "549": "ant",
        "550": "r\u00ed",
        "551": "mpi",
        "552": "grande",
        "553": " t",
        "554": "ay ",
        "555": "co ",
        "556": "ten\u00eda ",
        "557": "gi",
        "558": "mir",
        "559": "Qui",
        "560": "Un d\u00eda, ",
        "561": "del ",
        "562": "Los ",
        "563": "do. ",
        "564": "regunt",
        "565": "! \u00a1",
        "566": "p\u00e1jaro ",
        "567": "\u00f3n",
        "568": "wist",
        "569": "las ",
        "570": "final",
        "571": "oresh",
        "572": "adow",
        "573": "oreshadow",
        "574": "oreshadowin",
        "575": "dijo: \"",
        "576": "lot t",
        "577": "lot twist",
        "578": "Lui",
        "579": "ras",
        "580": "pal",
        "581": "ami",
        "582": "pue",
        "583": ": \"\u00a1",
        "584": "est\u00e1 ",
        "585": "feli",
        "586": "cos",
        "587": "y el ",
        "588": "ent",
        "589": "- ",
        "590": "hac",
        "591": "Foreshadowin",
        "592": "so ",
        "593": "buen",
        "594": "much",
        "595": ":\n",
        "596": "Plot twist",
        "597": "des",
        "598": "ni\u00f1os ",
        "599": "rendi",
        "600": "flic",
        "601": "hi",
        "602": "\u00f3 al ",
        "603": "Plot twist: ",
        "604": "\u00f3. \"",
        "605": "\u00f3. \"\u00a1",
        "606": "Foreshadowing: ",
        "607": "entr",
        "608": "!\", grit",
        "609": "ni\u00f1o.\n\n",
        "610": "!\", dij",
        "611": "Lucas",
        "612": "a ve",
        "613": "\u00f3 la ",
        "614": "De pronto, ",
        "615": "ca",
        "616": "raz",
        "617": "cer",
        "618": "Qu\u00e9 ",
        "619": "hor",
        "620": "La mam\u00e1 ",
        "621": "\".\n\n",
        "622": "no",
        "623": "Con",
        "624": ". El ni\u00f1o ",
        "625": "ga",
        "626": "m\u00e1s ",
        "627": "go",
        "628": "Al final",
        "629": "uid",
        "630": ", pero no ",
        "631": "bri",
        "632": "el",
        "633": "a y ",
        "634": "tu",
        "635": "ma",
        "636": "Ayud",
        "637": "Conflic",
        "638": "abras",
        "639": "algo ",
        "640": "! \u2014grit",
        "641": "mam\u00e1.\n\n",
        "642": "o. \"\u00a1",
        "643": "ta",
        "644": "Mir",
        "645": "dice ",
        "646": "peque\u00f1o ",
        "647": "feliz",
        "648": "\u00fa",
        "649": "\u00f3. El ",
        "650": "?\"",
        "651": "suel",
        "652": "no escuch",
        "653": ", pero el ",
        "654": "tor",
        "655": "asu",
        "656": "oj",
        "657": "llam",
        "658": "Pab",
        "659": "Mira, ",
        "660": "ens",
        "661": "er\u00ed",
        "662": "d\u00eda sigui",
        "663": "sol",
        "664": "d\u00eda siguiente",
        "665": "ces",
        "666": "tar",
        "667": "\u00f3 que ",
        "668": "cosas ",
        "669": "\n\nEn un ",
        "670": "S\u00ed",
        "671": "\n\nEn una ",
        "672": "\u00e1pi",
        "673": "jugue",
        "674": ".\n\nMoral: ",
        "675": "cay",
        "676": "adi",
        "677": "a vez",
        "678": "tir",
        "679": "mie",
        "680": "emp",
        "681": "de la ",
        "682": ". \"",
        "683": "da ",
        "684": "palabras",
        "685": "Ana ",
        "686": " palabras",
        "687": "9 palabras",
        "688": "9 palabras)",
        "689": "Quiero ",
        "690": ". Pero ",
        "691": "ser ",
        "692": "Todos ",
        "693": "i ",
        "694": "aprendi",
        "695": "jugar",
        "696": ".\n\nFin",
        "697": "\u00f3 un ",
        "698": "pregunt",
        "699": "rompi",
        "700": "uev",
        "701": "asust",
        "702": ". La ",
        "703": "pap",
        "704": " \u2014",
        "705": "res",
        "706": "mi ",
        "707": "a\u00f1",
        "708": "Al d\u00eda siguiente",
        "709": "abraz",
        "710": "a. \"\u00a1",
        "711": "Luis ",
        "712": "cuid",
        "713": "em",
        "714": "hay ",
        "715": "au",
        "716": "brill",
        "717": "ya no ",
        "718": "man",
        "719": "dice",
        "720": "vio un ",
        "721": "llev",
        "722": "por ",
        "723": "r\u00e1pi",
        "724": "deb",
        "725": "mar",
        "726": "o y ",
        "727": "fl",
        "728": "a. El ",
        "729": "contr",
        "730": "m\u00e1s",
        "731": "sc",
        "732": "ad ",
        "733": "pl",
        "734": "o se ",
        "735": "!\", dijo ",
        "736": ".\n- ",
        "737": "mon",
        "738": "d\u00f3 ",
        "739": "a los ",
        "740": "roj",
        "741": "fuerte",
        "742": "olo ",
        "743": "inti",
        "744": "estr",
        "745": "De pronto, el ",
        "746": "comi",
        "747": "llamado ",
        "748": "49 palabras)",
        "749": "Yo ",
        "750": "No, ",
        "751": "jugar ",
        "752": "fue ",
        "753": "ul",
        "754": "? \u2014",
        "755": "ueg",
        "756": "o.\n\n\u2014",
        "757": "Mam\u00e1, ",
        "758": "eron ",
        "759": "! \u2014dijo el ",
        "760": ".\n\n(",
        "761": "grande y ",
        "762": "249 palabras)",
        "763": ".\n\nEl ",
        "764": "me ",
        "765": "se\u00f1",
        "766": "Se ",
        "767": "lig",
        "768": "tien",
        "769": "lob",
        "770": "ante",
        "771": "to. ",
        "772": "!\" ",
        "773": "encontr",
        "774": "lar",
        "775": "conej",
        "776": "tro",
        "777": "El ni\u00f1o se ",
        "778": "adie ",
        "779": "!\", dijo. ",
        "780": "pare",
        "781": "pez",
        "782": "Plot twist: El ",
        "783": "hab\u00eda un ",
        "784": "amos ",
        "785": "cal",
        "786": "rar",
        "787": "El ni\u00f1o llor",
        "788": "qu\u00e9 ",
        "789": "\n\nEn el ",
        "790": "Mira, mam\u00e1",
        "791": "ente ",
        "792": ":\n\u2014",
        "793": "Ayuda",
        "794": "Los ni\u00f1os ",
        "795": "!\"\n\n",
        "796": "\u00ed ",
        "797": "ligro",
        "798": "eron",
        "799": "Hab\u00eda ",
        "800": "ve ",
        "801": "Bad ",
        "802": "Lo ",
        "803": "cam",
        "804": "peligro",
        "805": "ng: ",
        "806": "doc",
        "807": "tos",
        "808": "lej",
        "809": "um",
        "810": "ito ",
        "811": "agua ",
        "812": "\u00f3. \u00a1",
        "813": "bar",
        "814": "gato ",
        "815": "Pablo ",
        "816": "Bad endi",
        "817": "\u00e1r",
        "818": "Bad ending: ",
        "819": "aci",
        "820": "las",
        "821": "dio ",
        "822": "\", dij",
        "823": "Ahor",
        "824": "volvi",
        "825": "col",
        "826": "le dijo: \"",
        "827": "otra vez",
        "828": "nad",
        "829": "solo ",
        "830": "mej",
        "831": "str",
        "832": "su mam\u00e1 ",
        "833": "ayudar",
        "834": "az",
        "835": "enoj",
        "836": "quier",
        "837": "v\u00eda ",
        "838": "en el suel",
        "839": "no escuch\u00f3. ",
        "840": "imp",
        "841": "a la ",
        "842": "ort",
        "843": "a de ",
        "844": "bien",
        "845": "a. \u00a1",
        "846": "o. \u00a1",
        "847": "Y ",
        "848": "ento",
        "849": "\u00f3, pero ",
        "850": "Al final, el ",
        "851": "baj",
        "852": "a se ",
        "853": "felic",
        "854": "? \u2014pregunt",
        "855": "o.\n\n\u2014\u00a1",
        "856": "todos ",
        "857": "bol",
        "858": "ento ",
        "859": "lleg",
        "860": "que no ",
        "861": "Di",
        "862": ".\n\n(249 palabras)",
        "863": "partir",
        "864": "me",
        "865": "es buen",
        "866": "cre",
        "867": "aban ",
        "868": "us",
        "869": "\u2014. \u00a1",
        "870": "des ",
        "871": "lla ",
        "872": "as, ",
        "873": "aprendi\u00f3 que ",
        "874": "o. \"",
        "875": "ell",
        "876": "un ni\u00f1o llamado ",
        "877": "tor ",
        "878": "a. La ",
        "879": "escon",
        "880": "all",
        "881": "pri",
        "882": "a era ",
        "883": "Est",
        "884": "Si ",
        "885": "sinti",
        "886": "No",
        "887": "os. ",
        "888": "Quer\u00eda ",
        "889": "Tobi",
        "890": "Foreshadowing: El ",
        "891": "llo ",
        "892": "o.",
        "893": "ando ",
        "894": "to: ",
        "895": "fue",
        "896": "amig",
        "897": "Un ni\u00f1o ",
        "898": "oso ",
        "899": "r\u00ede",
        "900": "?\", p",
        "901": "\u00f3 su ",
        "902": "Conflict",
        "903": "Hay ",
        "904": "\u2014dijo el ",
        "905": "raci",
        "906": "aqu",
        "907": "Graci",
        "908": "a.\n\n\u2014",
        "909": "! El ",
        "910": "tam",
        "911": "pod\u00eda ",
        "912": "buj",
        "913": "can",
        "914": "mos ",
        "915": "stru",
        "916": "Cor",
        "917": "Conflicto: ",
        "918": "Conflict: ",
        "919": "h ",
        "920": "qued\u00f3 ",
        "921": "sinti\u00f3 ",
        "922": "oscu",
        "923": "\u00c9",
        "924": "be",
        "925": "o.\n\nEl ",
        "926": "\u00c9l ",
        "927": "viv\u00eda ",
        "928": "otros ",
        "929": "ado. ",
        "930": "tarde",
        "931": "fi",
        "932": "fer",
        "933": "monstru",
        "934": "tod",
        "935": "lasti",
        "936": "h no",
        "937": "es. ",
        "938": "aron ",
        "939": "ani",
        "940": "tom",
        "941": "hace ",
        "942": "Al final, ",
        "943": "a. \"",
        "944": "siemp",
        "945": "ag",
        "946": "vo ",
        "947": "y la ",
        "948": "movi",
        "949": "con su ",
        "950": "Lolo ",
        "951": "ce",
        "952": "cab",
        "953": "\n\nEn la ",
        "954": "Era un ",
        "955": "dibuj",
        "956": "le dio ",
        "957": "ter",
        "958": "\u00f3.\n\n\u2014",
        "959": "ina ",
        "960": "as. ",
        "961": "nuev",
        "962": "abri",
        "963": "sti",
        "964": "lo abraz",
        "965": "ari",
        "966": "se ri",
        "967": "ru",
        "968": "\u2014. ",
        "969": "pel",
        "970": "hab",
        "971": "puer",
        "972": "aron",
        "973": "un ni\u00f1o peque\u00f1o ",
        "974": "ores ",
        "975": "ante ",
        "976": "atr",
        "977": "pud",
        "978": "en un ",
        "979": "zo ",
        "980": "Las ",
        "981": "\n\nHab\u00eda ",
        "982": "ter\u00ed",
        "983": "Car",
        "984": ".\n\nEl ni\u00f1o ",
        "985": "lobo ",
        "986": "\u00bfP",
        "987": "bonito",
        "988": "import",
        "989": "dijo: \"\u00a1",
        "990": "due",
        "991": "tel ",
        "992": "Leo. ",
        "993": "?\", pregunt",
        "994": "pap\u00e1 ",
        "995": "jueg",
        "996": "se rompi",
        "997": "conejo ",
        "998": "doctor ",
        "999": "\u00e9n ",
        "1000": "ba",
        "1001": "bonit",
        "1002": "\", dijo ",
        "1003": "yo ",
        "1004": "a a ",
        "1005": "apare",
        "1006": "\u2014dice ",
        "1007": "jugaba ",
        "1008": "ne",
        "1009": "ni\u00f1a ",
        "1010": ".\n\nFin.",
        "1011": "gust",
        "1012": "ada ",
        "1013": "Luis",
        "1014": "Al d\u00eda siguiente, ",
        "1015": "se asust",
        "1016": "quiero ",
        "1017": "maestr",
        "1018": "sus ",
        "1019": "lan",
        "1020": "hel",
        "1021": "\u00e1lo",
        "1022": "ar a ",
        "1023": "\u00bfQu\u00e9 ",
        "1024": "grande, ",
        "1025": "puso ",
        "1026": "pez ",
        "1027": "quiso ",
        "1028": "Pero el ni\u00f1o ",
        "1029": "Li",
        "1030": "A ",
        "1031": "oy ",
        "1032": "son ",
        "1033": "lad",
        "1034": "dul",
        "1035": "uci",
        "1036": "ces, ",
        "1037": "o de ",
        "1038": "Mi",
        "1039": "Ahora ",
        "1040": "\u00e9l",
        "1041": "\u00f3: \"\u00a1",
        "1042": "unca ",
        "1043": "lastim",
        "1044": "viento ",
        "1045": "salt",
        "1046": "\u00f3 con ",
        "1047": "ni\u00f1o",
        "1048": "bal",
        "1049": "Al d\u00eda siguiente, el ",
        "1050": "puedo ",
        "1051": "\" ",
        "1052": "Per",
        "1053": "toqu",
        "1054": "perdi",
        "1055": "Mam\u00e1, \u00bf",
        "1056": "es, ",
        "1057": "no era ",
        "1058": "malo ",
        "1059": "ten\u00eda un ",
        "1060": "lo que ",
        "1061": "ex",
        "1062": "partir ",
        "1063": "der",
        "1064": "m\u00e1gi",
        "1065": "lib",
        "1066": "\u00e1s ",
        "1067": "ble",
        "1068": "\u00f3.\n\n\u2014\u00a1",
        "1069": "sol ",
        "1070": "lejos",
        "1071": "Fin.",
        "1072": "\u00eda",
        "1073": "pu\u00e9",
        "1074": "cin",
        "1075": "pudo ",
        "1076": "escondi",
        "1077": "dijo:\n\u2014",
        "1078": "orque ",
        "1079": "L\u00eda ",
        "1080": "av",
        "1081": "ar el ",
        "1082": "\u00f3. La ",
        "1083": "Te ",
        "1084": "\u00e1n ",
        "1085": "\u00f3 el ni\u00f1o.\n\n",
        "1086": "busc",
        "1087": "Pum",
        "1088": "aqu\u00ed",
        "1089": "gan",
        "1090": "acer",
        "1091": "sue",
        "1092": "cant",
        "1093": "\u00f3 much",
        "1094": ".\" ",
        "1095": "do.\n\n",
        "1096": "pon",
        "1097": "hij",
        "1098": "hizo ",
        "1099": "\n\nHab\u00eda una ",
        "1100": "sin ",
        "1101": "nadie ",
        "1102": "ip",
        "1103": "lu",
        "1104": "pastel ",
        "1105": "sonr\u00ede",
        "1106": "enten",
        "1107": "\". ",
        "1108": "caj",
        "1109": "amos a ",
        "1110": "sonri\u00f3. ",
        "1111": "ale",
        "1112": "otro ",
        "1113": "o. El ni\u00f1o ",
        "1114": "ori",
        "1115": "r ",
        "1116": "?\n\n",
        "1117": "mos",
        "1118": "\u00f3 una ",
        "1119": "acter\u00ed",
        "1120": "sticas",
        "1121": "Caracter\u00ed",
        "1122": "Caracter\u00edsticas",
        "1123": "se enoj",
        "1124": "toc",
        "1125": "*(",
        "1126": "espe",
        "1127": "che",
        "1128": "mira ",
        "1129": "subi",
        "1130": "dej",
        "1131": "Mira, mam\u00e1! \u00a1",
        "1132": "juguete ",
        "1133": "rui",
        "1134": "\u00e1logo",
        "1135": "esper",
        "1136": ":\n\n",
        "1137": "hay que ",
        "1138": "lug",
        "1139": "hacer ",
        "1140": "quiere ",
        "1141": "Di\u00e1logo",
        "1142": "tambi",
        "1143": "vez ",
        "1144": "vac",
        "1145": "io ",
        "1146": "Oh no",
        "1147": "Com",
        "1148": "a.\n\n\u2014\u00a1",
        "1149": "ahor",
        "1150": "Un d\u00eda, el ",
        "1151": "cerca ",
        "1152": "untos",
        "1153": "Corri",
        "1154": "apareci",
        "1155": ".\n\n*(",
        "1156": "vio una ",
        "1157": "pajar",
        "1158": "uego ",
        "1159": "avi",
        "1160": "\n\nMam\u00e1 ",
        "1161": "puede ",
        "1162": "!\n\nEl ",
        "1163": "mer",
        "1164": "no lo ",
        "1165": "pelo",
        "1166": "!\", grit\u00f3. ",
        "1167": "!\", dijo el ",
        "1168": "Tobi ",
        "1169": "nci",
        "1170": "ces ",
        "1171": "no se ",
        "1172": "que el ",
        "1173": "Ma",
        "1174": "ali",
        "1175": "sab\u00eda ",
        "1176": "siempre ",
        "1177": "enfer",
        "1178": "o, pero ",
        "1179": "i\u00f1",
        "1180": "a. El ni\u00f1o ",
        "1181": "felices",
        "1182": "S\u00ed, ",
        "1183": "no quer\u00eda ",
        "1184": "limpi",
        "1185": "may",
        "1186": "ora ",
        "1187": "en su ",
        "1188": "sali",
        "1189": "empez",
        "1190": "y se ",
        "1191": "chi",
        "1192": "\u2014dijo la ",
        "1193": "bur",
        "1194": ":\n\u2014\u00a1",
        "1195": "jugar con ",
        "1196": "o.\n\nMoral: ",
        "1197": "r\u00e1pido. ",
        "1198": "Nadie ",
        "1199": "tu ",
        "1200": "bol ",
        "1201": "prendi",
        "1202": "juguet",
        "1203": "sonri\u00f3. \"",
        "1204": "diver",
        "1205": "pin",
        "1206": "os.\n\n",
        "1207": "pan",
        "1208": "comer ",
        "1209": "Tom",
        "1210": "\u00bfQui",
        "1211": "pre",
        "1212": "suci",
        "1213": "ya era ",
        "1214": "Ti",
        "1215": "tel",
        "1216": "triste. ",
        "1217": "\u00f3: \"",
        "1218": "\u00bfPor ",
        "1219": "sab",
        "1220": "animal",
        "1221": "a el ",
        "1222": "Hay que ",
        "1223": "pelota ",
        "1224": "\u00e1rbol ",
        "1225": "\u00f3 y se ",
        "1226": "! \u2014grit\u00f3 ",
        "1227": ")*",
        "1228": "Vamos a ",
        "1229": "abaj",
        "1230": "lo llev",
        "1231": "tiene ",
        "1232": "da",
        "1233": "ven",
        "1234": "tin",
        "1235": "a un ",
        "1236": "corri\u00f3 ",
        "1237": "mejor",
        "1238": "haci",
        "1239": "che ",
        "1240": "ver ",
        "1241": "ar a los ",
        "1242": "due\u00f1",
        "1243": "\n\nHab\u00eda una vez ",
        "1244": "ya era tarde",
        "1245": "corr",
        "1246": "Hol",
        "1247": "todo ",
        "1248": "guar",
        "1249": "salir",
        "1250": "A ve",
        "1251": "os, ",
        "1252": "un ni\u00f1o llamado Leo. ",
        "1253": "Er",
        "1254": "m\u00ed",
        "1255": "oso",
        "1256": "\u00f3.\n\nEl ",
        "1257": "Lol",
        "1258": "peligros",
        "1259": "Fi",
        "1260": "pens",
        "1261": "No te ",
        "1262": "o. La ",
        "1263": "atrap",
        "1264": "Ten",
        "1265": "bajo ",
        "1266": "malo",
        "1267": "comer",
        "1268": "cari\u00f1",
        "1269": "somb",
        "1270": "viej",
        "1271": "los ni\u00f1os ",
        "1272": "\u00e1rbol",
        "1273": "mes",
        "1274": "\u00eda.\n\n",
        "1275": "Max",
        "1276": "grit\u00f3: \"\u00a1",
        "1277": "jard\u00ed",
        "1278": "ser",
        "1279": "comp",
        "1280": "No deb",
        "1281": ", pens",
        "1282": "se sinti\u00f3 ",
        "1283": "cami",
        "1284": "pu\u00e9s",
        "1285": "lev",
        "1286": "Esc",
        "1287": "t\u00f3n ",
        "1288": "era muy ",
        "1289": "monstruo ",
        "1290": "ed",
        "1291": "pr",
        "1292": "\u00f3, pero el ",
        "1293": "cay\u00f3 al ",
        "1294": "perro",
        "1295": "como ",
        "1296": "ste ",
        "1297": "fr\u00ed",
        "1298": "eres ",
        "1299": "! La ",
        "1300": "ayas",
        "1301": "\n\nEra ",
        "1302": "proble",
        "1303": "brillante",
        "1304": "mejor ",
        "1305": "\u00bfPor qu\u00e9 ",
        "1306": "Solo ",
        "1307": "demos ",
        "1308": "a\n\nEn una ",
        "1309": "ban",
        "1310": "cuidad",
        "1311": "segu",
        "1312": "diverti",
        "1313": "lav",
        "1314": "entendi",
        "1315": "dad",
        "1316": "eso",
        "1317": "pajarito ",
        "1318": "No es ",
        "1319": "se fue ",
        "1320": "Eres ",
        "1321": "ham",
        "1322": "rep",
        "1323": "emos ",
        "1324": "algo rar",
        "1325": ".. \u00a1",
        "1326": "\u00f3 de ",
        "1327": "aba. ",
        "1328": ".\n\nPlot twist: El ",
        "1329": "dis",
        "1330": "las cosas ",
        "1331": "Escuch",
        "1332": "hab\u00eda una ",
        "1333": "tuvo ",
        "1334": "\n\n*",
        "1335": "llor\u00f3. ",
        "1336": "princi",
        "1337": "hu",
        "1338": "Gracias",
        "1339": "Es",
        "1340": "vent",
        "1341": "si ",
        "1342": "du",
        "1343": ".\"\n\nEl ni\u00f1o ",
        "1344": "ce ",
        "1345": "pelot",
        "1346": "vo",
        "1347": "cho",
        "1348": "cerr",
        "1349": "Fin ",
        "1350": "a, pero ",
        "1351": "empez\u00f3 a ",
        "1352": ". Lucas ",
        "1353": "o. Pero ",
        "1354": "ladr",
        "1355": "juntos",
        "1356": "puerta ",
        "1357": "din",
        "1358": "vir",
        "1359": "es de ",
        "1360": "parque",
        "1361": "acerc",
        "1362": "su mam\u00e1",
        "1363": "mor",
        "1364": "principi",
        "1365": "debe ",
        "1366": "cic",
        "1367": "enferm",
        "1368": "\u00f3 fuerte",
        "1369": "ana ",
        "1370": "fav",
        "1371": ". Un d\u00eda, ",
        "1372": "Lo si",
        "1373": "Aprendi",
        "1374": "\u00eda. ",
        "1375": "Su mam\u00e1 le dijo: \"",
        "1376": "juguete",
        "1377": "maestra ",
        "1378": "miedo. ",
        "1379": "tropez",
        "1380": "no pudo ",
        "1381": "toques ",
        "1382": "flores ",
        "1383": "lugar ",
        "1384": "arreg",
        "1385": "apa",
        "1386": "importante",
        "1387": "repente",
        "1388": " \u00a1",
        "1389": "\u00e1gi",
        "1390": "Mira",
        "1391": "Pal",
        "1392": "!\n\n\u2014\u00a1",
        "1393": "payas",
        "1394": "El perro ",
        "1395": "ez",
        "1396": "sonri\u00f3 y ",
        "1397": "fuerte ",
        "1398": "puedes ",
        "1399": "\n- ",
        "1400": "gal",
        "1401": "!\n\n\u2014",
        "1402": "pasar",
        "1403": "eta ",
        "1404": "ho",
        "1405": "inten",
        "1406": "pap\u00e1",
        "1407": "\u00f3. El ni\u00f1o ",
        "1408": "\u00fa ",
        "1409": "ta. ",
        "1410": "en una ",
        "1411": "elo ",
        "1412": "auto ",
        "1413": "No llor",
        "1414": "\u00e9l ",
        "1415": "ar la ",
        "1416": "ren",
        "1417": "peligroso",
        "1418": "nos ",
        "1419": "lo ayud",
        "1420": "oy a ",
        "1421": "no es ",
        "1422": "Lo siento",
        "1423": "ja ",
        "1424": "dec",
        "1425": "fo",
        "1426": "\n\nMam\u00e1 y ",
        "1427": "den",
        "1428": "t\u00f3 ",
        "1429": "Compartir ",
        "1430": "le dio un ",
        "1431": "co. ",
        "1432": "as.\n\n",
        "1433": "dice: \"",
        "1434": "bos",
        "1435": "el ni\u00f1o ",
        "1436": "as\u00ed",
        "1437": "aren",
        "1438": "se movi",
        "1439": "lo mir",
        "1440": "vio y ",
        "1441": "barco ",
        "1442": "virti",
        "1443": "No, es ",
        "1444": "Pue",
        "1445": "nunca ",
        "1446": "\u00f1e",
        "1447": "a.",
        "1448": "camin",
        "1449": "bai",
        "1450": "sent",
        "1451": "o.\n\nEl ni\u00f1o ",
        "1452": ", no ",
        "1453": "tren ",
        "1454": "? \u2014pregunt\u00f3 ",
        "1455": "her",
        "1456": "era un ",
        "1457": "\u00f3n de ",
        "1458": "se\u00f1ora ",
        "1459": "Lila ",
        "1460": "cion",
        "1461": "rom",
        "1462": "De repente",
        "1463": "Des",
        "1464": "miedo",
        "1465": "! \u2014dijo el ni\u00f1o.\n\n",
        "1466": "Plot twist: La ",
        "1467": "porque ",
        "1468": "trabaj",
        "1469": "fru",
        "1470": "no pod\u00eda ",
        "1471": "obe",
        "1472": "triste.\n\n",
        "1473": "Bad ending: El ",
        "1474": "sombr",
        "1475": "Lucas.\n\n",
        "1476": "tes",
        "1477": "bre ",
        "1478": "luego ",
        "1479": "Le ",
        "1480": "men",
        "1481": "ruido ",
        "1482": "noche",
        "1483": "ventan",
        "1484": "Jug",
        "1485": "gue",
        "1486": ".\n\nMoral: No ",
        "1487": "uego, ",
        "1488": "!\".\n\n",
        "1489": "poll",
        "1490": "pastel",
        "1491": "feliz. ",
        "1492": "helado ",
        "1493": "\u00f3.",
        "1494": "aban",
        "1495": "mono ",
        "1496": "Aprendi\u00f3 que ",
        "1497": "zapa",
        "1498": "se fue",
        "1499": "ir ",
        "1500": "pati",
        "1501": "De pronto, un ",
        "1502": "ar a otros ",
        "1503": "tambi\u00e9n ",
        "1504": "re\u00ed",
        "1505": "De",
        "1506": "mu\u00f1e",
        "1507": "entro ",
        "1508": "Leo.\n\n",
        "1509": "far",
        "1510": "na ",
        "1511": "ar. ",
        "1512": "Pip",
        "1513": "\u00f3nde ",
        "1514": "\u00e1n",
        "1515": "ano ",
        "1516": "casti",
        "1517": "patin",
        "1518": "aprendi\u00f3 que no ",
        "1519": "doctor",
        "1520": ", hab\u00eda un ",
        "1521": "moj",
        "1522": "dijo:\n\n",
        "1523": "Tien",
        "1524": "char",
        "1525": "corrien",
        "1526": "grande. ",
        "1527": "Al final, el ni\u00f1o ",
        "1528": "!\". ",
        "1529": "! \u2014dice ",
        "1530": ":\n- ",
        "1531": "Es un ",
        "1532": "problem",
        "1533": "and",
        "1534": "Si",
        "1535": "quer\u00ed",
        "1536": "Todo ",
        "1537": "hombre",
        "1538": "espej",
        "1539": "\u00edn ",
        "1540": "el ni\u00f1o.\n\n",
        "1541": "llen",
        "1542": "Fin.\n\n(249 palabras)",
        "1543": "feliz.\n\n",
        "1544": "con un ",
        "1545": "able",
        "1546": "alo",
        "1547": "lo escuch",
        "1548": "todos",
        "1549": "Di\u00e1logo: ",
        "1550": "M\u00e1gi",
        "1551": "\u00f3 a la ",
        "1552": "feliz ",
        "1553": "se\u00f1or ",
        "1554": "y lo ",
        "1555": "gustaba ",
        "1556": "da\u00f1",
        "1557": "a. Pero ",
        "1558": "cir",
        "1559": "s\u00ed ",
        "1560": "a vez, ",
        "1561": "pan ",
        "1562": "sac",
        "1563": "eso ",
        "1564": "Lucas. ",
        "1565": "Max ",
        "1566": "En ",
        "1567": "!\", dijo.\n\n",
        "1568": "azul",
        "1569": "A veces, ",
        "1570": "empu",
        "1571": "ni\u00f1o. ",
        "1572": "vol\u00f3 ",
        "1573": "mucho ",
        "1574": "habl",
        "1575": "suelo ",
        "1576": "levant",
        "1577": "to.\n\n",
        "1578": "por la ",
        "1579": "gar",
        "1580": "vuel",
        "1581": "sopl",
        "1582": "dor",
        "1583": "\u00f3 otra vez",
        "1584": "romp",
        "1585": "bot",
        "1586": "a.\n\nEl ",
        "1587": "Voy a ",
        "1588": "Leo",
        "1589": "ador",
        "1590": "ten\u00eda una ",
        "1591": "al final",
        "1592": "mam\u00e1.\n\nEl ni\u00f1o ",
        "1593": "Hola, ",
        "1594": "cuando ",
        "1595": "as y ",
        "1596": "je",
        "1597": ".\n\n*(Pal",
        "1598": "Una ",
        "1599": "pol",
        "1600": "jugaban ",
        "1601": "due\u00f1o ",
        "1602": "ave",
        "1603": "\u00f3. Pero ",
        "1604": "enton",
        "1605": "\u00bfQuieres ",
        "1606": "dijo.\n\n",
        "1607": "blan",
        "1608": "za ",
        "1609": "es mejor ",
        "1610": "dra",
        "1611": "Moral: No ",
        "1612": "polic",
        "1613": "\u00bfQu\u00e9 pas",
        "1614": "ocu",
        "1615": "rat\u00f3n ",
        "1616": "jugaba con su ",
        "1617": "Nunca ",
        "1618": "asinti",
        "1619": "tocar",
        "1620": "con el ",
        "1621": "\u00f3n. ",
        "1622": "algo malo ",
        "1623": "Y as\u00ed",
        "1624": "bonito. ",
        "1625": ", \u00a1",
        "1626": "don",
        "1627": "ado, ",
        "1628": "\u00e9n",
        "1629": "jard\u00edn ",
        "1630": "se qued\u00f3 ",
        "1631": "auto",
        "1632": "m\u00e1gico",
        "1633": "No quiero ",
        "1634": "oscur",
        "1635": "regun",
        "1636": "lo sigui",
        "1637": "vali",
        "1638": "Su mam\u00e1 lo abraz",
        "1639": "\", dijo. ",
        "1640": "se cay",
        "1641": "miedo ",
        "1642": "se puso ",
        "1643": "chu",
        "1644": "!\", grit\u00f3.\n\n",
        "1645": "! \u2014grit\u00f3 el ",
        "1646": "beb",
        "1647": "guard",
        "1648": "!\", pens",
        "1649": "e y ",
        "1650": "lo vio y ",
        "1651": "agar",
        "1652": "e. ",
        "1653": "esto",
        "1654": "perr",
        "1655": "?\" ",
        "1656": "respon",
        "1657": "drag",
        "1658": "dem\u00e1s",
        "1659": "lo, ",
        "1660": "ero",
        "1661": "abue",
        "1662": "sonri\u00f3. \"\u00a1",
        "1663": "entro",
        "1664": "! \u2014grit\u00f3 el ni\u00f1o.\n\n",
        "1665": "ros",
        "1666": "su mam\u00e1.\n\n",
        "1667": "secre",
        "1668": "Mam\u00e1, \u00bfpuedo ",
        "1669": "pla",
        "1670": ". El perro ",
        "1671": "flores",
        "1672": "empuj",
        "1673": "Fu",
        "1674": "min",
        "1675": "viv\u00eda un ",
        "1676": "tos ",
        "1677": "hab\u00eda un ni\u00f1o llamado Leo. ",
        "1678": "final ",
        "1679": "verdad",
        "1680": "pir",
        "1681": "fueron ",
        "1682": "Ayudar a otros ",
        "1683": "Pabl",
        "1684": "Un hombre ",
        "1685": "quer\u00eda jugar",
        "1686": "estar ",
        "1687": "!\n\nLa mam\u00e1 ",
        "1688": "S\u00ed, pero ",
        "1689": "Gracias, ",
        "1690": "Al d\u00eda siguiente, el ni\u00f1o ",
        "1691": "divertido",
        "1692": "otro",
        "1693": "Pum! ",
        "1694": "cielo ",
        "1695": "volc",
        "1696": "antes de ",
        "1697": "Cay",
        "1698": "zan",
        "1699": "mied",
        "1700": "ocup",
        "1701": "fun",
        "1702": "br",
        "1703": "cho ",
        "1704": "alegr",
        "1705": "Su",
        "1706": "bre",
        "1707": "tener ",
        "1708": ", el ni\u00f1o ",
        "1709": "Foreshadowing: La ",
        "1710": "le\u00f3n ",
        "1711": "en el suelo. \"\u00a1",
        "1712": "No debes ",
        "1713": "all\u00ed",
        "1714": "ar a los may",
        "1715": "plic",
        "1716": "encontr\u00f3 un ",
        "1717": "corre",
        "1718": "cesi",
        "1719": "tas",
        "1720": "a a los ",
        "1721": "rito ",
        "1722": "De pronto, la ",
        "1723": "den ",
        "1724": "e un ",
        "1725": ",\" ",
        "1726": "o. El perro ",
        "1727": "libro ",
        "1728": "m\u00edo",
        "1729": "roto",
        "1730": "compartir",
        "1731": "tuy",
        "1732": "ni\u00f1o\u2014. \u00a1",
        "1733": "Cuid",
        "1734": "resbal",
        "1735": "El ni\u00f1o no ",
        "1736": "a, hab\u00eda un ",
        "1737": "tur",
        "1738": "en el suelo. ",
        "1739": "Lin",
        "1740": "b\u00fa",
        "1741": "animales ",
        "1742": "tar ",
        "1743": "ran",
        "1744": "corri\u00f3 y ",
        "1745": "casa ",
        "1746": "parque ",
        "1747": "coche ",
        "1748": "cono",
        "1749": "Despu\u00e9s",
        "1750": "rieron",
        "1751": "de un ",
        "1752": "corri\u00f3, pero ",
        "1753": "\n\nHab\u00eda una vez un ",
        "1754": "vio el ",
        "1755": "marip",
        "1756": "es mejor que ",
        "1757": "maripos",
        "1758": "a su ",
        "1759": ", un ",
        "1760": "asta ",
        "1761": "es importante",
        "1762": "compartir ",
        "1763": "?\"\n\n",
        "1764": "desc",
        "1765": "m\u00e1qu",
        "1766": "sigui\u00f3 ",
        "1767": "ese ",
        "1768": "vio algo rar",
        "1769": "Me ",
        "1770": "estab",
        "1771": "siempre",
        "1772": "disf",
        "1773": "oh no",
        "1774": "paci",
        "1775": "plan",
        "1776": "agua. ",
        "1777": "untos ",
        "1778": "Su mam\u00e1 le ",
        "1779": "amor",
        "1780": "\u00bfD",
        "1781": "pod\u00ed",
        "1782": "dulce",
        "1783": "pregun",
        "1784": "esti",
        "1785": "poco ",
        "1786": "Un ni\u00f1o peque\u00f1o ",
        "1787": "ras ",
        "1788": "sor",
        "1789": "bonita",
        "1790": "No lo ",
        "1791": "y el ni\u00f1o ",
        "1792": "Ju",
        "1793": "\u00f3, ",
        "1794": "\u00f3, pero no ",
        "1795": "lago ",
        "1796": "Lucas, ",
        "1797": "dibujo ",
        "1798": "payaso ",
        "1799": ".*",
        "1800": ".\n\u2014",
        "1801": "amigo ",
        "1802": "!\", grit\u00f3 ",
        "1803": "obede",
        "1804": "triste ",
        "1805": "corri\u00f3 a ",
        "1806": "Mi ",
        "1807": "ola ",
        "1808": "! Pero ",
        "1809": "pic",
        "1810": "poco",
        "1811": ".\n\nFin.\n\n(249 palabras)",
        "1812": "ele",
        "1813": "gas ",
        "1814": "pa ",
        "1815": "\u00f3. \u2014",
        "1816": ", pero el ni\u00f1o ",
        "1817": ":*",
        "1818": "Aqu",
        "1819": "estaban ",
        "1820": "quie",
        "1821": "comid",
        "1822": "Ella ",
        "1823": "azu",
        "1824": "Pap",
        "1825": "ando. ",
        "1826": "No me ",
        "1827": "(249 palabras)",
        "1828": "oro ",
        "1829": "ame ",
        "1830": "llor\u00f3.\n\n",
        "1831": "abras: ",
        "1832": "di\u00f3 ",
        "1833": "ar cosas ",
        "1834": "a, un ni\u00f1o peque\u00f1o ",
        "1835": "oscuro",
        "1836": "cont",
        "1837": "\".\n\nEl ni\u00f1o ",
        "1838": "cali",
        "1839": "Dialo",
        "1840": "Dialogue",
        "1841": "estaba muy ",
        "1842": "xi",
        "1843": "resa",
        "1844": "especi",
        "1845": "dr",
        "1846": "a en el ",
        "1847": "enci",
        "1848": "Aqu\u00ed ",
        "1849": "0)*",
        "1850": "nc",
        "1851": "No toques ",
        "1852": "pasa ",
        "1853": "conflic",
        "1854": "gol",
        "1855": "hoj",
        "1856": "umpi",
        "1857": "a.\n\nEl ni\u00f1o ",
        "1858": "columpi",
        "1859": "bo ",
        "1860": "t\u00ed",
        "1861": "se acerc",
        "1862": "cay\u00f3 al suel",
        "1863": "gall",
        "1864": ". Era ",
        "1865": "dijo:\n\u2014\u00a1",
        "1866": ".\n\n(1",
        "1867": "viento sopl",
        "1868": "t\u00fa",
        "1869": ". Todos ",
        "1870": "\u00f3 en un ",
        "1871": "advirti",
        "1872": ":*\n- ",
        "1873": "dol",
        "1874": "mar ",
        "1875": "cuad",
        "1876": "\u00bfD\u00f3nde ",
        "1877": "nu",
        "1878": "allo ",
        "1879": "muchos ",
        "1880": "tas ",
        "1881": "mostr",
        "1882": "Vio ",
        "1883": "gre",
        "1884": "pant",
        "1885": "or fav",
        "1886": "abras: 1",
        "1887": "Ese ",
        "1888": "cad",
        "1889": "apren",
        "1890": "!\n\nEl ni\u00f1o ",
        "1891": "preocup",
        "1892": "En",
        "1893": "lo encontr",
        "1894": "tran",
        "1895": "drag\u00f3n ",
        "1896": "\u00edan ",
        "1897": "agua",
        "1898": "Cu",
        "1899": "apar",
        "1900": "ya ",
        "1901": ". Pero el ",
        "1902": "aje ",
        "1903": "cerc",
        "1904": "san",
        "1905": "sombrero ",
        "1906": "Po",
        "1907": "\u2014dijo mam\u00e1.\n\n",
        "1908": "podemos ",
        "1909": ", la ",
        "1910": "es para ",
        "1911": "! El ni\u00f1o ",
        "1912": "por el ",
        "1913": "\", dijo el ",
        "1914": "peg",
        "1915": "est\u00e1",
        "1916": "r\u00e1pido ",
        "1917": "galle",
        "1918": "vesti",
        "1919": "sill",
        "1920": "Compartir hace ",
        "1921": "hasta ",
        "1922": "pele",
        "1923": "pier",
        "1924": "cerca del ",
        "1925": "no estaba ",
        "1926": "compar",
        "1927": "corri\u00f3, pero el ",
        "1928": "r\u00e1pido",
        "1929": "luego, ",
        "1930": "\u00f3 y cay",
        "1931": "cul",
        "1932": "felices ",
        "1933": "Tengo ",
        "1934": ".\n\nLucas ",
        "1935": "amigos",
        "1936": "Ana.\n\n",
        "1937": "bueno ",
        "1938": "Pu",
        "1939": "huev",
        "1940": "tengo ",
        "1941": "avi\u00f3n ",
        "1942": "Fin mal",
        "1943": "dado ",
        "1944": "gru",
        "1945": ".\n\n*(Palabras: 1",
        "1946": "El p\u00e1jaro ",
        "1947": "de pronto",
        "1948": "\n\nMam\u00e1 y yo ",
        "1949": "mo ",
        "1950": "vieron ",
        "1951": "Su pap\u00e1 ",
        "1952": "?\n\n\u2014",
        "1953": ".\n\nForeshadowing: El ",
        "1954": "ar un ",
        "1955": "peque\u00f1o, ",
        "1956": "El ni\u00f1o se asust",
        "1957": "Al",
        "1958": "El hombre ",
        "1959": "sub",
        "1960": "luz ",
        "1961": "ave ",
        "1962": "Pero la ",
        "1963": "los d\u00ed",
        "1964": "Los otros ",
        "1965": "estrell",
        "1966": "ai",
        "1967": "dar",
        "1968": "quer",
        "1969": "lin",
        "1970": ". Leo ",
        "1971": ".\n\nLa ",
        "1972": ".\n\nDe pronto, el ",
        "1973": "gati",
        "1974": "aprendi\u00f3 que no debe ",
        "1975": "cocin",
        "1976": "estaci",
        "1977": "r\u00e1pid",
        "1978": "Si no ",
        "1979": "hacia ",
        "1980": "volc\u00e1n ",
        "1981": "y su mam\u00e1 ",
        "1982": "al principi",
        "1983": "mir\u00f3 ",
        "1984": "El ni\u00f1o llor\u00f3. ",
        "1985": "tan ",
        "1986": "uni",
        "1987": "anti",
        "1988": "!\", dice",
        "1989": "cuer",
        "1990": "!\" grit",
        "1991": "tambi\u00e9n",
        "1992": "99 palabras)",
        "1993": "De pronto, vio un ",
        "1994": "Pi",
        "1995": "c\u00f3",
        "1996": "Qu\u00e9 bonito",
        "1997": "o... \u00a1",
        "1998": "\u2014dijo el ni\u00f1o.\n\n",
        "1999": "Pero el ni\u00f1o no escuch\u00f3. ",
        "2000": "), ",
        "2001": "gente ",
        "2002": "jue",
        "2003": "ray",
        "2004": "pueden ",
        "2005": "!\", grit\u00f3 el ",
        "2006": "castillo ",
        "2007": "amos",
        "2008": "pasa nad",
        "2009": "he",
        "2010": ". No ",
        "2011": ", un ni\u00f1o peque\u00f1o ",
        "2012": "basu",
        "2013": "escuel",
        "2014": "ayudar ",
        "2015": "mover",
        "2016": "Lucas.\n\n\u2014",
        "2017": "dijo:\n\n\u2014",
        "2018": "sali\u00f3 ",
        "2019": "So",
        "2020": "robot",
        "2021": "asi",
        "2022": "ci\u00f3n",
        "2023": "guien ",
        "2024": "Dentro ",
        "2025": "necesi",
        "2026": "ada",
        "2027": "Caracter\u00edsticas:*\n- ",
        "2028": ".\n\nForeshadowing: ",
        "2029": "ado.\n\n",
        "2030": "termin",
        "2031": "mero ",
        "2032": "pied",
        "2033": "intent\u00f3 ",
        "2034": "o.\"\n\n",
        "2035": "\u00f3 en el ",
        "2036": "aje",
        "2037": ".\nConflicto: ",
        "2038": ", pue",
        "2039": "!\", dice ",
        "2040": "amigos ",
        "2041": "sonri\u00f3. \u2014",
        "2042": "tranqui",
        "2043": "ba\u00f1",
        "2044": "abej",
        "2045": "vac\u00ed",
        "2046": "to, ",
        "2047": "flor ",
        "2048": "l\u00e1pi",
        "2049": "S\u00ed, pero no ",
        "2050": "elef",
        "2051": "contest",
        "2052": "ig",
        "2053": "pesc",
        "2054": "volar",
        "2055": "azul ",
        "2056": "por",
        "2057": "tist",
        "2058": "\u00f3 a su ",
        "2059": "despu\u00e9s",
        "2060": "? \u2014pregun",
        "2061": "caballo ",
        "2062": "Pipo ",
        "2063": "Pla",
        "2064": "vio a ",
        "2065": "\n\n*Caracter\u00edsticas:*\n- ",
        "2066": "... \u00a1",
        "2067": "Lina ",
        "2068": "pelo ",
        "2069": "te ayud",
        "2070": "bus",
        "2071": "salv",
        "2072": "explic",
        "2073": "mira",
        "2074": "gre ",
        "2075": "perro grande ",
        "2076": "ella ",
        "2077": "ve un ",
        "2078": "\", dijo.\n\n",
        "2079": "Caracter\u00edsticas:\n- ",
        "2080": "As\u00ed ",
        "2081": "o. No ",
        "2082": "polic\u00eda ",
        "2083": "T\u00fa ",
        "2084": "abras ",
        "2085": ". \u00a1Era ",
        "2086": "ojos ",
        "2087": "a. Lucas ",
        "2088": "tram",
        "2089": "piz",
        "2090": "para siempre",
        "2091": "llamada ",
        "2092": ".\n\n(199 palabras)",
        "2093": "! \u2014dijo la ",
        "2094": "eran ",
        "2095": "tengas ",
        "2096": "estaba ro",
        "2097": "papel",
        "2098": "toro ",
        "2099": "\" (",
        "2100": "autob\u00fa",
        "2101": "fr",
        "2102": "ram",
        "2103": "un d\u00eda ",
        "2104": "con una ",
        "2105": "entr\u00f3 ",
        "2106": "pollito ",
        "2107": "aco",
        "2108": "encant",
        "2109": "comida ",
        "2110": "? \u2014pregunt\u00f3 el ni\u00f1o.\n\n",
        "2111": "f\u00ed",
        "2112": "es y ",
        "2113": ". El hombre ",
        "2114": "mordi",
        "2115": "lo. ",
        "2116": "po ",
        "2117": "El C",
        "2118": "al final ",
        "2119": "apag",
        "2120": "miraba ",
        "2121": "tus ",
        "2122": "fiest",
        "2123": "dentist",
        "2124": "tan",
        "2125": ".\n\nPero ",
        "2126": "hacer",
        "2127": "nadie lo escuch",
        "2128": "Eso ",
        "2129": "able ",
        "2130": ", pero la ",
        "2131": "importante ",
        "2132": "compr",
        "2133": "hambre",
        "2134": "hag",
        "2135": "tem",
        "2136": "Pap\u00e1 ",
        "2137": "especial",
        "2138": "or favor",
        "2139": ".\n\nLeo ",
        "2140": "\u00f3 m\u00e1s",
        "2141": "suave",
        "2142": "grande. \"\u00a1",
        "2143": "volvi\u00f3 a ",
        "2144": "agarr",
        "2145": "a!\n\n",
        "2146": "a\n\nEn la ",
        "2147": "\u2014 ",
        "2148": "Conflict: El ni\u00f1o ",
        "2149": "Pero... \u00a1",
        "2150": "S\u00ed, es ",
        "2151": "a.\n\nMoral: ",
        "2152": "! \u00a1Es ",
        "2153": "aun",
        "2154": "Plaf",
        "2155": ".\n\nConflicto: ",
        "2156": "regal",
        "2157": "trist",
        "2158": "corri\u00f3. ",
        "2159": "por qu\u00e9 ",
        "2160": "y su ",
        "2161": "a. Era ",
        "2162": "cambi",
        "2163": "\u2014dijo la mam\u00e1.\n\n",
        "2164": "\u00bfQui\u00e9n ",
        "2165": "No te preocup",
        "2166": "Gu",
        "2167": "Porque ",
        "2168": "sobre ",
        "2169": "desapareci",
        "2170": "! \u2014grit\u00f3.\n\n",
        "2171": "ya no era ",
        "2172": "tienda ",
        "2173": "cabez",
        "2174": "respondi",
        "2175": "o!\n\n",
        "2176": "oso. ",
        "2177": "semi",
        "2178": "verde",
        "2179": "lo llev\u00f3 ",
        "2180": "arse",
        "2181": "esa ",
        "2182": "mam\u00e1. ",
        "2183": "ve\u00eda ",
        "2184": "sus",
        "2185": "Tienes ",
        "2186": "vier",
        "2187": "till",
        "2188": "brillante ",
        "2189": "plant",
        "2190": "lobo se ",
        "2191": "m\u00e9",
        "2192": "\u00edri",
        "2193": "llor\u00f3. \"",
        "2194": "ente. ",
        "2195": "casa. ",
        "2196": "colores",
        "2197": "su mam\u00e1 le dijo: \"",
        "2198": "arreglar",
        "2199": "romper",
        "2200": "golpe",
        "2201": "nie",
        "2202": "a y la ",
        "2203": "\u2014dice mam\u00e1.\n\n",
        "2204": "ahora ",
        "2205": "Hola",
        "2206": "t\u00fan",
        "2207": "dri",
        "2208": "fal",
        "2209": "les",
        "2210": "No pasa nad",
        "2211": "El P",
        "2212": "a, un ni\u00f1o ",
        "2213": "fuego ",
        "2214": "jugaron ",
        "2215": "Corri\u00f3 ",
        "2216": "cicle",
        "2217": "arco",
        "2218": "triste. \"",
        "2219": "antes",
        "2220": "debes ",
        "2221": "at",
        "2222": "Caracter\u00edsticas: ",
        "2223": "Lo siento, ",
        "2224": "Uy",
        "2225": ", un ni\u00f1o ",
        "2226": "Ahora, ",
        "2227": "Est\u00e1 ",
        "2228": "ar a los mayores ",
        "2229": "o! ",
        "2230": "ayuda a ",
        "2231": "\u00fasi",
        "2232": "ito",
        "2233": "mol",
        "2234": "udi",
        "2235": "orro ",
        "2236": "to y ",
        "2237": "o, el ",
        "2238": "Esta vez, ",
        "2239": "charco ",
        "2240": "entonces, ",
        "2241": "o. Es ",
        "2242": "gue ",
        "2243": ".\n\n\u2014\u00a1Ay",
        "2244": "hac\u00eda ",
        "2245": "pu\u00e9s ",
        "2246": "Nunca m\u00e1s ",
        "2247": "o. Era ",
        "2248": "tigre ",
        "2249": "osito ",
        "2250": "manzan",
        "2251": "bail",
        "2252": "corriendo. ",
        "2253": "Fin malo.",
        "2254": "ah",
        "2255": "der ",
        "2256": "ier",
        "2257": "o: ",
        "2258": "sa ",
        "2259": "al d\u00eda siguiente",
        "2260": "conten",
        "2261": "ado y ",
        "2262": "sal\u00f3n de ",
        "2263": "lejos. ",
        "2264": "juegue",
        "2265": "arco\u00edri",
        "2266": "escal",
        "2267": "al final, ",
        "2268": "Despu\u00e9s, ",
        "2269": "dije",
        "2270": "hab\u00eda un ni\u00f1o llamado ",
        "2271": "aguj",
        "2272": "felices. ",
        "2273": "ella.\n\n",
        "2274": "hoy",
        "2275": "bien ",
        "2276": "Ana y ",
        "2277": "a veces ",
        "2278": "hizo cas",
        "2279": "bosque",
        "2280": "m\u00fasi",
        "2281": "nic",
        "2282": "lo que no ",
        "2283": "La C",
        "2284": ".\nForeshadowing: El ",
        "2285": "\", dice",
        "2286": "por la ventan",
        "2287": "Dentro",
        "2288": "corre ",
        "2289": "con sus ",
        "2290": "paque",
        "2291": ". El ni\u00f1o llor",
        "2292": "De pronto, el ni\u00f1o ",
        "2293": "ta y ",
        "2294": "fui",
        "2295": ". Mam\u00e1 ",
        "2296": "aba",
        "2297": "Leo quer\u00eda ",
        "2298": "\".\n\nEl ",
        "2299": "Ten\u00eda ",
        "2300": "jard\u00edn",
        "2301": "funcion",
        "2302": "grit\u00f3",
        "2303": "amigo",
        "2304": "es bueno. ",
        "2305": "\u00c9l quer\u00eda ",
        "2306": "perdido",
        "2307": "\u00f3 mucho. ",
        "2308": "herman",
        "2309": "rompe",
        "2310": "f\u00e1",
        "2311": "muev",
        "2312": "oc",
        "2313": "Lucas no ",
        "2314": "pared",
        "2315": "dulce ",
        "2316": "Te lo ",
        "2317": "cami\u00f3n ",
        "2318": "Dame ",
        "2319": "o\n\nEn un ",
        "2320": "cuar",
        "2321": "pul",
        "2322": "hijo ",
        "2323": "Fin triste",
        "2324": "\", pens",
        "2325": "rico",
        "2326": ", per",
        "2327": "Lucas se ",
        "2328": "movi\u00f3 la ",
        "2329": "negr",
        "2330": "Escucha a los ",
        "2331": "gru\u00f1",
        "2332": "dije ",
        "2333": "que la ",
        "2334": "una ni\u00f1a ",
        "2335": "Cuidado",
        "2336": "ah\u00ed",
        "2337": "for",
        "2338": "har",
        "2339": "mue",
        "2340": "port",
        "2341": "va ",
        "2342": "lo vi",
        "2343": "!\", dijo. Pero ",
        "2344": "caja ",
        "2345": "otros",
        "2346": "\n\nCaracter\u00edsticas:\n- ",
        "2347": "p\u00e1jaros ",
        "2348": "o. El p\u00e1jaro ",
        "2349": "juegues ",
        "2350": "Lola ",
        "2351": "ara\u00f1",
        "2352": "\u00f3 m\u00e1s ",
        "2353": "No puedo ",
        "2354": "Luc\u00eda ",
        "2355": "\u2014dijo su mam\u00e1.\n\n",
        "2356": "malo. ",
        "2357": "!\"\n\nEl ",
        "2358": "Puedes ",
        "2359": "beb\u00e9 ",
        "2360": "vestido ",
        "2361": "cl",
        "2362": "igu",
        "2363": ".\n\nPlot twist: ",
        "2364": "bicicle",
        "2365": "p\u00e1jaro",
        "2366": "! \u2014dijo el ni\u00f1o\u2014. \u00a1",
        "2367": "\u00f3:\n\u2014",
        "2368": "mucho. ",
        "2369": "tropez\u00f3 y cay",
        "2370": "? \u2014pregunt\u00f3 el ni\u00f1o.\n\n\u2014",
        "2371": "ote",
        "2372": "otra ",
        "2373": "carr",
        "2374": "pl\u00e1",
        "2375": "comi\u00f3 ",
        "2376": "escondi\u00f3 ",
        "2377": ".\n\nMam\u00e1 ",
        "2378": "ajo ",
        "2379": "Ayudar ",
        "2380": "miedo.\n\n",
        "2381": "hay un ",
        "2382": "arregl",
        "2383": "M\u00e1gico",
        "2384": "cuev",
        "2385": "globo ",
        "2386": "tiemp",
        "2387": "tibur",
        "2388": "sala de ",
        "2389": "Conflict: El ",
        "2390": "dej\u00f3 ",
        "2391": "entendi\u00f3. ",
        "2392": "Cuando ",
        "2393": "elefante ",
        "2394": "ba ",
        "2395": "juego ",
        "2396": "de su ",
        "2397": "La ni\u00f1a ",
        "2398": "Leo no ",
        "2399": "volver",
        "2400": "mir\u00f3 y ",
        "2401": "viv\u00eda un ni\u00f1o llamado Leo. ",
        "2402": "peluch",
        "2403": "sol brill",
        "2404": "subir",
        "2405": "M\u00e1gica",
        "2406": "ber",
        "2407": "ga ",
        "2408": "\u00f3xi",
        "2409": "ciel",
        "2410": "pr\u00f3xi",
        "2411": ").*",
        "2412": "mal ",
        "2413": "o para ",
        "2414": "de la escuel",
        "2415": "flor",
        "2416": "\u00bfPue",
        "2417": "disfraz",
        "2418": "\u2026",
        "2419": "un d\u00eda, ",
        "2420": ", pap",
        "2421": "jus",
        "2422": "\u00f3 los ",
        "2423": "tobo",
        "2424": "rojo y ",
        "2425": "dur",
        "2426": "hagas ",
        "2427": "ense\u00f1",
        "2428": "rob",
        "2429": "aba un ",
        "2430": "a.\"\n\n",
        "2431": "ide",
        "2432": "visi",
        "2433": "solo. ",
        "2434": "No llores, ",
        "2435": "mas",
        "2436": "s\u00e9 ",
        "2437": "vio al ",
        "2438": "Le gustaba ",
        "2439": "algo",
        "2440": "grandes",
        "2441": ". El p\u00e1jaro ",
        "2442": "pel\u00ed",
        "2443": "sue\u00f1",
        "2444": "? \u2014pregunta ",
        "2445": "to. El ",
        "2446": "ur",
        "2447": "ten ",
        "2448": "ar las ",
        "2449": "Pablo, ",
        "2450": "segu\u00eda ",
        "2451": "Juan ",
        "2452": "aunque ",
        "2453": "sen",
        "2454": ".\n\nAl final, ",
        "2455": "ans",
        "2456": "le gustaba ",
        "2457": "ayuda ",
        "2458": "hab\u00eda un ni\u00f1o ",
        "2459": "cosas",
        "2460": "juguetes",
        "2461": "Ros",
        "2462": "rac",
        "2463": "uela ",
        "2464": "es mejor",
        "2465": "resagi",
        "2466": "sap",
        "2467": ". Los ni\u00f1os ",
        "2468": "se en",
        "2469": "piens",
        "2470": "\u00f3.\n\nEl ni\u00f1o ",
        "2471": ".\nPlot twist: El ",
        "2472": "pato ",
        "2473": "Las cosas ",
        "2474": "burgu",
        "2475": "Hac",
        "2476": "err",
        "2477": "No puedes ",
        "2478": "lec",
        "2479": "muer",
        "2480": "Ay, ",
        "2481": "giro ",
        "2482": "Un d\u00eda, vio un ",
        "2483": "\".\n\nMoral: ",
        "2484": "meti",
        "2485": "juega ",
        "2486": "A veces ",
        "2487": "gatito ",
        "2488": "d\u00f3n",
        "2489": "pad",
        "2490": ". Ana ",
        "2491": "ni\u00f1os",
        "2492": "un ruido ",
        "2493": "todo. ",
        "2494": "! Se ",
        "2495": "recor",
        "2496": "Un p\u00e1jaro ",
        "2497": ".\n- Foreshadowing: El ",
        "2498": ".\n- Conflicto: ",
        "2499": "Esa ",
        "2500": "Esper",
        "2501": "faro ",
        "2502": "Juntos ",
        "2503": "a.\n\nFin.",
        "2504": "vio algo ",
        "2505": "Al principi",
        "2506": "despu\u00e9s ",
        "2507": ", pero no pod\u00ed",
        "2508": "tobog",
        "2509": "no ten\u00eda ",
        "2510": "est\u00e1n ",
        "2511": "sil",
        "2512": "cha ",
        "2513": ". \"\u00a1Quiero ",
        "2514": "juguetes ",
        "2515": "premi",
        "2516": "pelota. ",
        "2517": "Cay\u00f3 al ",
        "2518": "autob\u00fas ",
        "2519": "pr\u00f3xim",
        "2520": "Pri",
        "2521": "no sab\u00eda ",
        "2522": "gritaron",
        "2523": "\", dijo. \"",
        "2524": "lugar",
        "2525": "De repente, el ",
        "2526": "Ve",
        "2527": "gir",
        "2528": "is",
        "2529": "pasi",
        "2530": "\u00bfQu\u00e9 pasa",
        "2531": "Ma\u00f1",
        "2532": "Sal",
        "2533": "cel",
        "2534": "lab",
        "2535": "les ",
        "2536": "sigue ",
        "2537": "nton",
        "2538": "mochi",
        "2539": "sole",
        "2540": "play",
        "2541": ".)*",
        "2542": "go, ",
        "2543": "a todos",
        "2544": "se\u00f1or",
        "2545": "\n\nEra un d\u00eda ",
        "2546": "diner",
        "2547": "suspir",
        "2548": "fuimos ",
        "2549": "de los ",
        "2550": "que algo malo ",
        "2551": "\u00f3. El perro ",
        "2552": "extr",
        "2553": "malo: ",
        "2554": "lleno de ",
        "2555": "gallin",
        "2556": "bomb",
        "2557": "rod\u00f3 ",
        "2558": "ar su ",
        "2559": "es bueno",
        "2560": "ya era tarde. El ",
        "2561": "Clar",
        "2562": "Enton",
        "2563": "la. ",
        "2564": "vas",
        "2565": "\u00f3! ",
        "2566": "tricic",
        "2567": "corrieron",
        "2568": "sonr\u00ede. \"",
        "2569": "a cas",
        "2570": "\u00e1ti",
        "2571": "os y ",
        "2572": "Corri\u00f3 y ",
        "2573": "mero, ",
        "2574": "hacia el ",
        "2575": "moverse",
        "2576": "pos",
        "2577": "Leo.\n\n\u2014",
        "2578": "sec",
        "2579": "\". El ni\u00f1o ",
        "2580": "dad ",
        "2581": "lo.\n\n",
        "2582": "ter\u00eda ",
        "2583": "arro",
        "2584": "esco",
        "2585": "quem",
        "2586": "Lucas llor",
        "2587": "Ana no ",
        "2588": "tesor",
        "2589": "Siemp",
        "2590": "t\u00fanel ",
        "2591": ". Es ",
        "2592": "aba.\n\n",
        "2593": "mi amor",
        "2594": "camp",
        "2595": "favori",
        "2596": "?\" pregunt",
        "2597": "justo",
        "2598": "Siempre ",
        "2599": "Re",
        "2600": "s\u00ed",
        "2601": "e al ",
        "2602": ".\nForeshadowing: ",
        "2603": "peque\u00f1o y ",
        "2604": "dice:\n\u2014",
        "2605": "extra\u00f1",
        "2606": "Par",
        "2607": "van ",
        "2608": "loj",
        "2609": ".\n\n\u2014Mam\u00e1, \u00bf",
        "2610": "\u00f3.\n\nMoral: ",
        "2611": "pa\u00f1",
        "2612": "Podemos ",
        "2613": "ju",
        "2614": ": \u2014",
        "2615": "ada. ",
        "2616": "es un ",
        "2617": "mis",
        "2618": "cen",
        "2619": "No tengas ",
        "2620": "lloraron",
        "2621": "en la aren",
        "2622": "est\u00e1 bien",
        "2623": "a vez ",
        "2624": "Corre",
        "2625": "peligroso.\n\n",
        "2626": "toques",
        "2627": "Eres muy ",
        "2628": "(el ",
        "2629": ".\n\nAl final, el ",
        "2630": "dilla ",
        "2631": "ador ",
        "2632": "tra",
        "2633": "ar al ",
        "2634": "a, el ",
        "2635": "Leo, ",
        "2636": "tax",
        "2637": "papel ",
        "2638": "cuidado",
        "2639": "encontr\u00f3 una ",
        "2640": "!\", dijo. Pero el ",
        "2641": "todos.\n\n",
        "2642": ".\n\n*(Caracter\u00edsticas: ",
        "2643": "mayores",
        "2644": "go. ",
        "2645": "vaqu",
        "2646": "lo atrap",
        "2647": "vien",
        "2648": "a, un ",
        "2649": "ci\u00f3n ",
        "2650": "No la ",
        "2651": "qued",
        "2652": "prote",
        "2653": "peque\u00f1a ",
        "2654": "bailar",
        "2655": "valiente",
        "2656": "m\u00e1quin",
        "2657": ".\n\nDe pronto, ",
        "2658": "soldado ",
        "2659": "cans",
        "2660": "sonr\u00ede. ",
        "2661": "correr",
        "2662": "hamburgu",
        "2663": "val",
        "2664": ", por favor",
        "2665": "o.\n\nFin.",
        "2666": "ped",
        "2667": "\u00f3 y el ",
        "2668": "escapar",
        "2669": "fuerte. \u00a1",
        "2670": "En el ",
        "2671": "robot ",
        "2672": "afuer",
        "2673": "omi",
        "2674": "\u00f3. Leo ",
        "2675": "conmi",
        "2676": "rojo ",
        "2677": "arco\u00edris ",
        "2678": "\". Pero ",
        "2679": "\u00f3 las ",
        "2680": "\u00f3 sol",
        "2681": "detu",
        "2682": "ayud\u00f3 a ",
        "2683": "mir\u00f3 el ",
        "2684": "cae",
        "2685": "libr",
        "2686": "dormir",
        "2687": "nub",
        "2688": "ator",
        "2689": ", hab\u00eda una ",
        "2690": ".\n\nUn d\u00eda, ",
        "2691": "no la ",
        "2692": "llo",
        "2693": "ar y ",
        "2694": "roja y ",
        "2695": "luy",
        "2696": "otro ni\u00f1o ",
        "2697": "grit\u00f3: \"\u00a1Ayuda",
        "2698": "No es justo",
        "2699": "real",
        "2700": "mur",
        "2701": "Luis. ",
        "2702": "ruido. ",
        "2703": "m\u00eda",
        "2704": "rue",
        "2705": "orden",
        "2706": "a, hab\u00eda una ",
        "2707": "cil",
        "2708": "bonito ",
        "2709": "Mira ",
        "2710": "m\u00e1gica",
        "2711": "conoci",
        "2712": "Ne",
        "2713": "c\u00e1",
        "2714": ". Un ni\u00f1o ",
        "2715": "dient",
        "2716": "alcan",
        "2717": "esto ",
        "2718": "grandes ",
        "2719": "La mam\u00e1 lo abraz",
        "2720": "!\" dijo ",
        "2721": "bolsill",
        "2722": "Pum! El ",
        "2723": "tibur\u00f3n ",
        "2724": "ment",
        "2725": "ni\u00f1o, ",
        "2726": "rib",
        "2727": "perrito ",
        "2728": "era tarde",
        "2729": "coraz",
        "2730": "cuidado ",
        "2731": "puert",
        "2732": "helad",
        "2733": "a! ",
        "2734": "cru",
        "2735": "no te ",
        "2736": "roto. ",
        "2737": "temp",
        "2738": "al malo: ",
        "2739": "\", dice ",
        "2740": "entrar",
        "2741": "ya no estab",
        "2742": "viento sopl\u00f3 fuerte",
        "2743": "Guau",
        "2744": "fes",
        "2745": "s\u00f3",
        "2746": "e el ",
        "2747": "era el ",
        "2748": "agua y ",
        "2749": "hici",
        "2750": "caer",
        "2751": "\u00f3. El hombre ",
        "2752": "en el suelo.\n\n\u2014\u00a1",
        "2753": "descans",
        "2754": "0)*\n\nCaracter\u00edsticas:\n- ",
        "2755": "alcanz",
        "2756": "Vol",
        "2757": "evi",
        "2758": "oo",
        "2759": "a en la ",
        "2760": "\u00f3. El ni\u00f1o llor",
        "2761": "del",
        "2762": "o. El hombre ",
        "2763": "bueno",
        "2764": "l\u00e1piz ",
        "2765": "semill",
        "2766": "Juntos",
        "2767": "gas",
        "2768": "dir ",
        "2769": "a. Mam\u00e1 ",
        "2770": "puente ",
        "2771": "para ti",
        "2772": ".\"\n\nMoral: ",
        "2773": "cosas que no ",
        "2774": ".\n\nMoral: Hay que ",
        "2775": "se enoj\u00f3. \"\u00a1",
        "2776": "ahora",
        "2777": "Aprendi\u00f3 que no ",
        "2778": "dijo:\n\n\u2014\u00a1",
        "2779": "buscar",
        "2780": " y ",
        "2781": "Mu",
        "2782": "cola",
        "2783": "La maestra ",
        "2784": "deci",
        "2785": "escap",
        "2786": "ario ",
        "2787": "Te dije ",
        "2788": "jeti",
        "2789": ", pap\u00e1",
        "2790": "tru",
        "2791": "pit",
        "2792": "triste.\n\n\u2014",
        "2793": ".\"\n\nLucas ",
        "2794": "El ni\u00f1o se ri",
        "2795": "lleg\u00f3 y ",
        "2796": "Gracias ",
        "2797": "\u00bfPuedo ",
        "2798": "\u00f3. Se ",
        "2799": "pis",
        "2800": "era grande y ",
        "2801": "Luis, ",
        "2802": "Y as\u00ed, ",
        "2803": "detuv",
        "2804": "Inc",
        "2805": "et",
        "2806": "reci",
        "2807": "convirti",
        "2808": "con la ",
        "2809": ".\n\u2014\u00a1",
        "2810": "Yo quiero ",
        "2811": "su mam\u00e1 le ",
        "2812": "bonita. ",
        "2813": "\n\nHab\u00eda una vez un ni\u00f1o ",
        "2814": "problema",
        "2815": "Escuchar a los mayores ",
        "2816": "\u00bfD\u00f3nde est\u00e1 ",
        "2817": "Bu",
        "2818": ". Se ",
        "2819": "\u00f1a ",
        "2820": "dill",
        "2821": "amari",
        "2822": "se mo",
        "2823": "\u00f3. \u2014\u00a1",
        "2824": "es tuy",
        "2825": "tech",
        "2826": "mam\u00e1\u2014. ",
        "2827": "estro",
        "2828": "No hay ",
        "2829": "curi",
        "2830": "muchas ",
        "2831": "entr\u00f3 y ",
        "2832": "tienes ",
        "2833": "barb",
        "2834": "paquete ",
        "2835": "ob",
        "2836": "armar",
        "2837": "\u00f3 por ",
        "2838": ".\n\n\u2014\u00a1Mira, mam\u00e1",
        "2839": "volar ",
        "2840": "desper",
        "2841": "a los dem\u00e1s",
        "2842": "inesper",
        "2843": "de una ",
        "2844": "est\u00e1s ",
        "2845": "nuevo ",
        "2846": "\n\nHab\u00eda un ",
        "2847": "Deb",
        "2848": "Soy ",
        "2849": "Ver",
        "2850": "pes",
        "2851": "diente ",
        "2852": "amable",
        "2853": "se sent",
        "2854": "\"\u00a1Ayuda",
        "2855": "segui",
        "2856": ".\n\n\u2014\u00a1Ayuda",
        "2857": "dice: \"\u00a1",
        "2858": "creci",
        "2859": "bl",
        "2860": "cuch",
        "2861": "zorro ",
        "2862": "di\u00e1lo",
        "2863": "es muy ",
        "2864": ", presagi",
        "2865": "estaba. ",
        "2866": "Leo no escuch\u00f3. ",
        "2867": "ces, el ",
        "2868": "impor",
        "2869": "le dio una ",
        "2870": "No deb\u00ed ",
        "2871": "No llores",
        "2872": "Ma\u00f1ana ",
        "2873": "\". El ",
        "2874": "Luego, ",
        "2875": ". \"\u00a1Qu\u00e9 ",
        "2876": ".\"\n\nEl ",
        "2877": "co y ",
        "2878": "\u00f3. \u00a1Era un ",
        "2879": "Mira, mam\u00e1! \u00a1Un ",
        "2880": "m\u00e1quina ",
        "2881": "tristes",
        "2882": "das ",
        "2883": "tren",
        "2884": "tras ",
        "2885": ".\n\n\u2014Mam\u00e1, \u00bfpuedo ",
        "2886": "mple",
        "2887": "Nooo",
        "2888": "duele",
        "2889": "basur",
        "2890": "pizz",
        "2891": "taxi ",
        "2892": "fe ",
        "2893": "mn",
        "2894": "era una ",
        "2895": "vio a un ",
        "2896": "r\u00edo ",
        "2897": "gig",
        "2898": "Quier",
        "2899": "Hay un ",
        "2900": "monstruo",
        "2901": "mira y ",
        "2902": "compu",
        "2903": "bosque ",
        "2904": "Zas",
        "2905": "cla",
        "2906": "mad",
        "2907": "p\u00f3",
        "2908": "tano ",
        "2909": ".\n\nAl d\u00eda siguiente, ",
        "2910": "tic",
        "2911": "vaca ",
        "2912": "bajo la ",
        "2913": "gallo ",
        "2914": "re\u00edan",
        "2915": "resbaladi",
        "2916": "\u2026 \u00a1",
        "2917": "y... \u00a1",
        "2918": "es eso",
        "2919": "Leo.\n\nEl ",
        "2920": ". \u00a1El ",
        "2921": "o. \"\u00a1Quiero ",
        "2922": "Todos rieron",
        "2923": "volvi\u00f3. ",
        "2924": "helado",
        "2925": "pantal",
        "2926": "\n\nMam\u00e1 y yo fuimos ",
        "2927": "juez ",
        "2928": "Incluy",
        "2929": "bru",
        "2930": "equi",
        "2931": "o\n\nEn el ",
        "2932": "uno ",
        "2933": "\u00e1s",
        "2934": "lo busc",
        "2935": "gris",
        "2936": "peque\u00f1o. ",
        "2937": "Pero el perro ",
        "2938": "\u00fad",
        "2939": "jugar m\u00e1s",
        "2940": "Al final, la ",
        "2941": "\u00f3 fuerte ",
        "2942": "tillo ",
        "2943": "fuerte. ",
        "2944": "Lolo. ",
        "2945": "seguro",
        "2946": "a, pero no ",
        "2947": "bli",
        "2948": "hum",
        "2949": "l\u00e1",
        "2950": "\u00f3 y la ",
        "2951": "prob",
        "2952": "quito ",
        "2953": "grande. El ",
        "2954": "cabra ",
        "2955": "Un d\u00eda, el ni\u00f1o ",
        "2956": "bor",
        "2957": "da. ",
        "2958": "\u00f3 en ",
        "2959": "de noche",
        "2960": "bote ",
        "2961": "sonr\u00ed",
        "2962": "jugar. ",
        "2963": "agua estaba ",
        "2964": "bal\u00f3n ",
        "2965": ":\n\n\u2014",
        "2966": "jugar con \u00e9l",
        "2967": "tuvo miedo. ",
        "2968": "patito ",
        "2969": "conflicto ",
        "2970": "Ven",
        "2971": "centr",
        "2972": ".\n\nBad ending: ",
        "2973": "coche",
        "2974": "en la mes",
        "2975": "cuidar ",
        "2976": "No, cari\u00f1",
        "2977": "Mam\u00e1, \u00a1",
        "2978": "pel\u00edcu",
        "2979": "ego",
        "2980": "glob",
        "2981": "a al ",
        "2982": "de juguete",
        "2983": "grita",
        "2984": "do y ",
        "2985": "!\n\nPero ",
        "2986": "! \u00a1El ",
        "2987": "Pablo",
        "2988": "emos",
        "2989": "o. \u00a1Era ",
        "2990": "? \u2014pregunt\u00f3 el ",
        "2991": "!\", pens\u00f3. ",
        "2992": "No me gust",
        "2993": "mueve ",
        "2994": "Fin triste.",
        "2995": "mueve",
        "2996": "giro inesper",
        "2997": "Pens",
        "2998": "agr",
        "2999": "fant",
        "3000": "ki",
        "3001": "la.\n\n",
        "3002": ".\n\nMoral: Ayudar a otros ",
        "3003": "comida",
        "3004": "raro",
        "3005": "lleg\u00f3 ",
        "3006": "lastimar",
        "3007": "hablar",
        "3008": "grande, hab\u00eda un ",
        "3009": ":\n\n\u2014\u00a1",
        "3010": "Bi",
        "3011": "\u00fc",
        "3012": "alguien ",
        "3013": "se perdi",
        "3014": "es m\u00e1s ",
        "3015": "peces ",
        "3016": "que viv\u00eda ",
        "3017": "ca y ",
        "3018": "llev\u00f3 a ",
        "3019": "Ahora no ",
        "3020": "se rieron",
        "3021": "\u2014dijo la mam\u00e1.\n\nEl ni\u00f1o ",
        "3022": "dinero ",
        "3023": "poco de ",
        "3024": "encantaba ",
        "3025": "ego\u00ed",
        "3026": "nor",
        "3027": "no, ",
        "3028": ".\n\nPlot twist: La ",
        "3029": "rey ",
        "3030": "estar",
        "3031": "ugi",
        "3032": "al de ",
        "3033": "soy ",
        "3034": "ado\n\nEn el ",
        "3035": "sonri\u00f3.\n\n\u2014",
        "3036": "en la pared",
        "3037": "o y la ",
        "3038": ".\n- Plot twist: El ",
        "3039": "Yo te ayud",
        "3040": "Mam\u00e1, mira",
        "3041": "?\", pregunt\u00f3. ",
        "3042": "salt\u00f3 ",
        "3043": "Mira, mam\u00e1! \u00a1Es ",
        "3044": "los ni\u00f1os jugaban ",
        "3045": "caliente",
        "3046": "Crac",
        "3047": "do, ",
        "3048": "g\u00fc",
        "3049": "mel",
        "3050": "qu\u00e9",
        "3051": "ala ",
        "3052": "ame",
        "3053": "se lastim",
        "3054": "rod",
        "3055": "Ana",
        "3056": "pollo ",
        "3057": "vaquero ",
        "3058": "Quiere ",
        "3059": "orator",
        "3060": "\u2014dijo.\n\n",
        "3061": "o.\n\nFin",
        "3062": "debi",
        "3063": "ve una ",
        "3064": "a. \u00a1Era ",
        "3065": "bajar",
        "3066": "burro ",
        "3067": "Tom\u00f3 el ",
        "3068": "sorprendi",
        "3069": "Lu",
        "3070": "a\n\nEn un ",
        "3071": "alto",
        "3072": ", pero \u00e9l ",
        "3073": "apla",
        "3074": "suelo. ",
        "3075": "solo un ",
        "3076": "!\", grit\u00f3. Pero ",
        "3077": "sto",
        "3078": "va a ",
        "3079": "llos ",
        "3080": "con los ",
        "3081": "boc",
        "3082": "\u00f3. \"\u00a1Ayuda",
        "3083": "a se rompi",
        "3084": "medic",
        "3085": "maestro ",
        "3086": "hueso ",
        "3087": "mu\u00f1eco ",
        "3088": "ego\u00edst",
        "3089": "/ ",
        "3090": "Tr",
        "3091": "ma ",
        "3092": "t\u00fa ",
        "3093": ".\n\nConflict: ",
        "3094": "La se\u00f1ora ",
        "3095": "malo, ",
        "3096": "ayuda",
        "3097": "a. El perro ",
        "3098": "o se rompi",
        "3099": "\u00f3. \u00a1Era ",
        "3100": "otra vez. ",
        "3101": "oscuro ",
        "3102": "vo \"",
        "3103": "en su bolsill",
        "3104": "bajo el ",
        "3105": "Los otros ni\u00f1os ",
        "3106": "tobog\u00e1n ",
        "3107": "triciclo ",
        "3108": "luc",
        "3109": "adora ",
        "3110": "carro ",
        "3111": "Los animales ",
        "3112": ".\n\nMoral: Compartir hace ",
        "3113": "o.\n\n\u2014\u00a1Ay",
        "3114": "\u00f3 y se lastim",
        "3115": "tienda de ",
        "3116": "conmigo",
        "3117": "L\u00eda.\n\n",
        "3118": "Ya no ",
        "3119": "difer",
        "3120": "todo",
        "3121": "quer\u00eda comer ",
        "3122": ".\"\n\nPero ",
        "3123": "calle",
        "3124": "pelu",
        "3125": "vol\u00f3 lejos",
        "3126": "jab",
        "3127": "t\u00f3n",
        "3128": "to. \"\u00a1",
        "3129": "\u00eda.\n\n\u2014",
        "3130": "ena ",
        "3131": "\u00e1re",
        "3132": "se rompe",
        "3133": "lechu",
        "3134": "peque\u00f1a, ",
        "3135": "casa de ",
        "3136": ", pero no sab\u00eda ",
        "3137": "hay que ser ",
        "3138": "merc",
        "3139": "corri\u00f3 hacia ",
        "3140": "cuidado, ",
        "3141": "abuelo ",
        "3142": "Se",
        "3143": "\u00f3!\n\n",
        "3144": "el perro ",
        "3145": "ni ",
        "3146": "se abri",
        "3147": "trajo ",
        "3148": "teli",
        "3149": "cier",
        "3150": "ado\n\nEn un ",
        "3151": ". \u00a1Qu\u00e9 ",
        "3152": "calm",
        "3153": "Pero el ni\u00f1o no ",
        "3154": "ir al ",
        "3155": "espejo ",
        "3156": "suelo y ",
        "3157": "Dialogue: ",
        "3158": "movi\u00f3 la col",
        "3159": "sapo ",
        "3160": ").\n- ",
        "3161": "cac",
        "3162": "d\u00f3n ",
        "3163": "juntos ",
        "3164": "map",
        "3165": "pres",
        "3166": "ruid",
        "3167": "dif\u00ed",
        "3168": "\u00eda y ",
        "3169": "queda ",
        "3170": "llor\u00f3. \"\u00a1",
        "3171": "dijo: \"No ",
        "3172": "no escucha. ",
        "3173": "ya no estaba ",
        "3174": "El ni\u00f1o se enoj",
        "3175": "Di\u00e1logo: \"\u00a1",
        "3176": "tiene un ",
        "3177": "correr ",
        "3178": "Su mam\u00e1 lo abraz\u00f3. \"",
        "3179": "fueron felices",
        "3180": "porque no ",
        "3181": "Al principio, ",
        "3182": "oy",
        "3183": ", y ",
        "3184": "\u2014. Pero ",
        "3185": "advier",
        "3186": "reloj",
        "3187": "No pod\u00eda ",
        "3188": "siente ",
        "3189": "pasteli",
        "3190": "! \u2014dijo.\n\n",
        "3191": "todos los d\u00ed",
        "3192": "Este ",
        "3193": "Las flores ",
        "3194": "camino ",
        "3195": "oc\u00e9",
        "3196": "laborator",
        "3197": "\u00e1rea de ",
        "3198": "fres",
        "3199": "ni\u00f1os. ",
        "3200": "amor ",
        "3201": "a. Todos ",
        "3202": "o.\n\nPlot twist: El ",
        "3203": "mal. ",
        "3204": "escuch\u00f3 un ",
        "3205": "primero ",
        "3206": "\u00f3 con el ",
        "3207": "\u00bfPor qu\u00e9 llor",
        "3208": "Puedo ",
        "3209": "durmi",
        "3210": "Hac\u00eda ",
        "3211": "? ",
        "3212": "braz",
        "3213": "d\u00f3nde ",
        "3214": "hada ",
        "3215": "ove",
        "3216": "no son ",
        "3217": "a. Un d\u00eda, ",
        "3218": "Los dos ",
        "3219": "gato",
        "3220": "manch",
        "3221": "No! \u00a1",
        "3222": "\u00f3.\n\n\u2014\u00a1Ay",
        "3223": "o.\n\nMoral: No ",
        "3224": "animales",
        "3225": "\n\n*Incluy",
        "3226": "Fue ",
        "3227": "Entonces, ",
        "3228": "Hoy ",
        "3229": "Ser ",
        "3230": "ia ",
        "3231": "saltar",
        "3232": "Ana, ",
        "3233": "gimn",
        "3234": "dijo: \"No, ",
        "3235": "a. \"\u00a1Qu\u00e9 ",
        "3236": "estrella ",
        "3237": "larg",
        "3238": "calor",
        "3239": "esconder",
        "3240": "abri\u00f3 la ",
        "3241": "duele ",
        "3242": "guard\u00f3 ",
        "3243": "patio ",
        "3244": "In",
        "3245": "ec",
        "3246": "nadi",
        "3247": "vay",
        "3248": "ardilla ",
        "3249": "endo ",
        "3250": "oso se ",
        "3251": "pisc",
        "3252": "\u00f3 y lo ",
        "3253": "carrito ",
        "3254": "! \u2014dijo Leo",
        "3255": "todos los ",
        "3256": "amigos. ",
        "3257": "Perd\u00f3n",
        "3258": "mira el ",
        "3259": "quer\u00edan ",
        "3260": "el ni\u00f1o.\n\n\u2014",
        "3261": "pasillo ",
        "3262": ".\n\n*(Caracter\u00edsticas: m",
        "3263": "Por ",
        "3264": "art",
        "3265": "\u00f3 del ",
        "3266": "uga ",
        "3267": "lobo",
        "3268": "era mal",
        "3269": "vio que el ",
        "3270": "volvi\u00f3 ",
        "3271": "serpi",
        "3272": "cuidados",
        "3273": "En la ",
        "3274": "columpio ",
        "3275": "cruz",
        "3276": "Sab\u00eda ",
        "3277": "cendi",
        "3278": "entien",
        "3279": "di\u00f3",
        "3280": "no hizo cas",
        "3281": "ada, ",
        "3282": "ded",
        "3283": "pist",
        "3284": "lo, pero ",
        "3285": ".\n\n\u2014\"\u00a1",
        "3286": "en el parque",
        "3287": "desconoci",
        "3288": "ser buen",
        "3289": "bonitas",
        "3290": "Luis.\n\n",
        "3291": "luz",
        "3292": "dec\u00eda",
        "3293": "Sigui",
        "3294": "abuela ",
        "3295": "zanahor",
        "3296": "trampol",
        "3297": "lo llev\u00f3 lejos",
        "3298": "pr\u00f3xima vez, ",
        "3299": "Juntos, ",
        "3300": "mplea\u00f1",
        "3301": "tes ",
        "3302": "uvi",
        "3303": "a todos.\n\n",
        "3304": "list",
        "3305": "dem\u00e1s ",
        "3306": "era de ",
        "3307": "profes",
        "3308": "quer\u00eda el ",
        "3309": "muy r\u00e1pido. ",
        "3310": "no escuch\u00f3.\n\n",
        "3311": "usel ",
        "3312": "entend\u00ed",
        "3313": "importante es ",
        "3314": "c\u00e1mar",
        "3315": "All",
        "3316": "nomb",
        "3317": ". \u00c9l ",
        "3318": "\u00edan",
        "3319": "\u00f3 r\u00e1pido. ",
        "3320": "nido ",
        "3321": "sino ",
        "3322": "!\", llor",
        "3323": "corras",
        "3324": "bode",
        "3325": "estaba feliz",
        "3326": ".\n- Foreshadowing: ",
        "3327": "Mira, mam\u00e1, \u00a1",
        "3328": "lo abraz\u00f3. \"",
        "3329": "Pero",
        "3330": "hijo. ",
        "3331": "chocola",
        "3332": "lo mir\u00f3 y ",
        "3333": "de pronto, el ",
        "3334": "bicicleta ",
        "3335": "pedaz",
        "3336": "alto. ",
        "3337": "se escondi",
        "3338": "uela",
        "3339": "es m\u00edo",
        "3340": "rata ",
        "3341": "corni",
        "3342": "!\n\nFin.",
        "3343": "sel",
        "3344": "hombre grande ",
        "3345": "a. \"\u00a1Quiero ",
        "3346": "limpiar",
        "3347": "zapato ",
        "3348": "\u00bfQu\u00e9 pas\u00f3",
        "3349": "asinti\u00f3. ",
        "3350": "estaci\u00f3n de ",
        "3351": "\u00f3 en la ",
        "3352": "co, ",
        "3353": "roto ",
        "3354": "ropa ",
        "3355": "uen ",
        "3356": "mam\u00e1. \"",
        "3357": "!\". Pero ",
        "3358": "logr",
        "3359": "comas ",
        "3360": ".\n\nFin.\n\n*(Palabras: 1",
        "3361": "tom\u00f3 el ",
        "3362": "juguetes. ",
        "3363": ",\" dijo ",
        "3364": "planta ",
        "3365": "hamburgues",
        "3366": "fantas",
        "3367": "s, ",
        "3368": "cohe",
        "3369": "ron",
        "3370": "es peligroso",
        "3371": ".\n\n\u2014\"",
        "3372": "tort",
        "3373": "caball",
        "3374": "panad",
        "3375": "Subi",
        "3376": "r\u00e1pido y ",
        "3377": "agujero ",
        "3378": "Primero, ",
        "3379": "debiste ",
        "3380": "Con ",
        "3381": "Ve ",
        "3382": "eta",
        "3383": "fon",
        "3384": "El G",
        "3385": "\u00a1oh no",
        "3386": "amable ",
        "3387": "ton",
        "3388": "pein",
        "3389": ". \"\u00a1Es ",
        "3390": "r\u00e1pido.\n\n",
        "3391": "Estaba ",
        "3392": "bajo una ",
        "3393": "oscuro. ",
        "3394": "Sus ",
        "3395": "pelear",
        "3396": "Alguien ",
        "3397": "Te lo dije",
        "3398": "\n\nEra un d\u00eda sole",
        "3399": "Pe",
        "3400": "clar",
        "3401": "a es ",
        "3402": "ero, ",
        "3403": "rino",
        "3404": "jugaban",
        "3405": "Al salir",
        "3406": "Ana. ",
        "3407": "ten\u00eda miedo. ",
        "3408": "solo",
        "3409": "nada ",
        "3410": "se rompi\u00f3. ",
        "3411": "ganar",
        "3412": "hab\u00eda un ni\u00f1o llamado Leo. Leo ",
        "3413": "conflicto",
        "3414": ", puedes ",
        "3415": "m\u00e9di",
        "3416": "Escucha a los mayores",
        "3417": "Due",
        "3418": ". Lo ",
        "3419": "os de ",
        "3420": "se enferm",
        "3421": "stanti",
        "3422": "ta de ",
        "3423": "come ",
        "3424": "lag",
        "3425": "\u00f3 a un ",
        "3426": "sonri\u00f3.\n\n",
        "3427": "Su mam\u00e1 sonri\u00f3. \"",
        "3428": "r\u00ednci",
        "3429": "Lucas.\n\nEl ",
        "3430": "? \u2014pregunt\u00f3.\n\n\u2014",
        "3431": "terin",
        "3432": "viento fuerte ",
        "3433": "buscar ",
        "3434": "Pum! La ",
        "3435": "cerca de la ",
        "3436": "pint",
        "3437": "Y as\u00ed, el ",
        "3438": "estacion",
        "3439": "giro inesperado",
        "3440": ".\n\n*(Caracter\u00edsticas: mal final, ",
        "3441": "ati",
        "3442": "ta.\n\n",
        "3443": "encu",
        "3444": "osau",
        "3445": "cia ",
        "3446": "pie ",
        "3447": "veterin",
        "3448": "Ana.\n\n\u2014",
        "3449": "Y el ",
        "3450": "se ri\u00f3. \"\u00a1",
        "3451": "noche, ",
        "3452": "ar a los mayores",
        "3453": "Pero... \u00a1oh no",
        "3454": "romper ",
        "3455": "escaler",
        "3456": "\u00bfPor qu\u00e9 lloras",
        "3457": "osauri",
        "3458": "ko",
        "3459": "y no ",
        "3460": "cogi",
        "3461": "ando.\n\n",
        "3462": "rodill",
        "3463": ". \u00a1Era un ",
        "3464": "! \u2014grit\u00f3 la ",
        "3465": "cuidado. ",
        "3466": "!\" Pero ",
        "3467": "aprendi\u00f3 que ser ",
        "3468": "todas ",
        "3469": "aron a ",
        "3470": "cerca de un ",
        "3471": "lo llev\u00f3 al ",
        "3472": "banco ",
        "3473": "dinosauri",
        "3474": "heri",
        "3475": "lecci\u00f3n",
        "3476": "Adi\u00f3",
        "3477": "Ten ",
        "3478": "das",
        "3479": "o\".\n\n",
        "3480": "o en el ",
        "3481": "\u00f3 algo ",
        "3482": "\u2014contest",
        "3483": "se romp",
        "3484": "as a ",
        "3485": ". El gato ",
        "3486": ".\n\n\u2014\u00a1No",
        "3487": ".\"\n\nLeo ",
        "3488": "No llores. ",
        "3489": "azul y ",
        "3490": "que algo malo pasar",
        "3491": "giro inesperado, presagi",
        "3492": "lado ",
        "3493": "coll",
        "3494": "lo agarr",
        "3495": "roca ",
        "3496": "travi",
        "3497": "!\".\n\nEl ",
        "3498": "graci",
        "3499": "consu",
        "3500": "escuchar a los mayores",
        "3501": "r\u00eden",
        "3502": "mate ",
        "3503": "lub",
        "3504": "ver el ",
        "3505": "todo el ",
        "3506": "\n\nMam\u00e1 y su ",
        "3507": "mu\u00f1eca ",
        "3508": "Fue un ",
        "3509": "ta, ",
        "3510": "zana ",
        "3511": ". La mam\u00e1 ",
        "3512": "lluvi",
        "3513": "olvi",
        "3514": "acu",
        "3515": "le dijo:\n\u2014",
        "3516": "Plot twist: El ni\u00f1o ",
        "3517": "\u00f3 un poco",
        "3518": "hacia la ",
        "3519": "donde ",
        "3520": "unicorni",
        "3521": "ri\u00f3. \"\u00a1",
        "3522": "se apag",
        "3523": "a. Es ",
        "3524": "o.\n\nBad ending: ",
        "3525": "bote",
        "3526": "Fin.\n\n*(Palabras: 1",
        "3527": "Yo tambi\u00e9n ",
        "3528": "fue al ",
        "3529": "eron y ",
        "3530": "ganso ",
        "3531": "perro, ",
        "3532": "tesoro ",
        "3533": "Puf",
        "3534": "gari",
        "3535": "o en la ",
        "3536": ". Quer\u00eda ",
        "3537": ".\n\nLa mam\u00e1 ",
        "3538": "ni\u00f1o. El ni\u00f1o ",
        "3539": "de verdad",
        "3540": "trac",
        "3541": "tij",
        "3542": "person",
        "3543": "grit\u00f3, pero ",
        "3544": "le da ",
        "3545": "sop",
        "3546": "peque\u00f1o. El ",
        "3547": "carre",
        "3548": "Un d\u00eda, un ni\u00f1o ",
        "3549": "ceron",
        "3550": "cosas mal",
        "3551": "aqu\u00ed ",
        "3552": "suelo",
        "3553": "Tiene ",
        "3554": "levantarse",
        "3555": "cuadro ",
        "3556": "mostrando ",
        "3557": "piedra ",
        "3558": "lo que no es tuy",
        "3559": "Dentro, ",
        "3560": "Aprendi\u00f3 que no debe ",
        "3561": "Sali",
        "3562": "gor",
        "3563": "jau",
        "3564": "coco",
        "3565": "su pap\u00e1 ",
        "3566": "conti",
        "3567": "muestr",
        "3568": "torre ",
        "3569": "bien, ",
        "3570": "Esta vez",
        "3571": "?\", pens",
        "3572": "todos. ",
        "3573": "tomar ",
        "3574": "juegan ",
        "3575": "due\u00f1o de la ",
        "3576": "grej",
        "3577": "hab\u00eda un ni\u00f1o llamado Lucas. ",
        "3578": "proteg",
        "3579": "aplaudi",
        "3580": "cer ",
        "3581": "ech",
        "3582": "hon",
        "3583": "no par",
        "3584": "ospit",
        "3585": "aba y ",
        "3586": "grillo ",
        "3587": "confi",
        "3588": "!\n\nMoral: ",
        "3589": "!\n\nSu mam\u00e1 ",
        "3590": "vio la ",
        "3591": "sale ",
        "3592": "pum",
        "3593": "para jugar",
        "3594": "Mam\u00e1 me ",
        "3595": "ten\u00eda hambre",
        "3596": "\u00f3. \"\u00a1Ay",
        "3597": "rojo. ",
        "3598": "cangrej",
        "3599": "!\", dijo el ni\u00f1o.\n\n",
        "3600": "Un hombre grande ",
        "3601": "Plaf! ",
        "3602": "molest",
        "3603": "Sigui\u00f3 ",
        "3604": "rinoceron",
        "3605": "gori",
        "3606": "mens",
        "3607": "ojar",
        "3608": "rr",
        "3609": "alej",
        "3610": "aman",
        "3611": "se r\u00ede",
        "3612": "ar con ",
        "3613": "estu",
        "3614": "cort",
        "3615": "fec",
        "3616": "p\u00e1jaro.\n\n",
        "3617": "triste. El ",
        "3618": "mir\u00f3 al ",
        "3619": "tortill",
        "3620": "ayudarl",
        "3621": "ayudar. ",
        "3622": "\u2014dice el ",
        "3623": "Al d\u00eda siguiente, la ",
        "3624": "hizo un ruido ",
        "3625": "Oh no! ",
        "3626": "jefe ",
        "3627": "mariposa ",
        "3628": "ba\u00f1o ",
        "3629": "m\u00e9dic",
        "3630": "blo",
        "3631": "hospit",
        "3632": "ib",
        "3633": "a una ",
        "3634": ".\n\nAl final, el ni\u00f1o ",
        "3635": "\u00f3 sus ",
        "3636": "estan",
        "3637": "dijo que ",
        "3638": "Lucas no escuch\u00f3. ",
        "3639": "fuente ",
        "3640": "\u2014. \u00a1Es ",
        "3641": "lo que pare",
        "3642": "tocar cosas ",
        "3643": "nunca volvi",
        "3644": "S\u00ed, pero ten ",
        "3645": "vio algo raro: ",
        "3646": "obedecer",
        "3647": "juegues con ",
        "3648": "dedor ",
        "3649": "Ellos ",
        "3650": "Hi",
        "3651": "ate",
        "3652": "ji",
        "3653": "enf",
        "3654": "amar",
        "3655": "se v",
        "3656": "de ser ",
        "3657": "de colores",
        "3658": "vi ",
        "3659": "viol",
        "3660": ", pero al final ",
        "3661": "una ide",
        "3662": "cumplea\u00f1",
        "3663": "suy",
        "3664": "agua.\n\n",
        "3665": "!\", dijo. El ",
        "3666": "De pronto, vio una ",
        "3667": "manzana ",
        "3668": "roja ",
        "3669": "fic",
        "3670": "animal ",
        "3671": "secreto ",
        "3672": "No te preocupes, ",
        "3673": "port\u00f3n ",
        "3674": "Lula ",
        "3675": "ne ",
        "3676": "alg",
        "3677": "cof",
        "3678": "cola ",
        "3679": "para el ",
        "3680": "Quiz",
        "3681": ", pero no pud",
        "3682": "nadar",
        "3683": "Tom\u00f3 un ",
        "3684": "Lolo",
        "3685": "Vio un ",
        "3686": "Te dije que no ",
        "3687": "foreshadowin",
        "3688": "loro ",
        "3689": "ero. ",
        "3690": ".\n\nEl ni\u00f1o llor",
        "3691": "El d\u00eda ",
        "3692": "pedir ",
        "3693": "\u00f3 y corri",
        "3694": "Final malo: ",
        "3695": ".\n\n\u2014\u00a1Mira",
        "3696": "Un d\u00eda, Leo ",
        "3697": "mucho.\n\n",
        "3698": "De pronto, \u00a1",
        "3699": "ya no estaba. ",
        "3700": "anillo ",
        "3701": "habr",
        "3702": "dulces",
        "3703": "viejo ",
        "3704": "\u00bfPor qu\u00e9 no ",
        "3705": "hoyo ",
        "3706": "luego, el ",
        "3707": "di\u00e1logo, ",
        "3708": "comput",
        "3709": "foreshadowing",
        "3710": "cray",
        "3711": "hun",
        "3712": "pe ",
        "3713": "ni\u00f1o. \"",
        "3714": "amos, ",
        "3715": "raz ",
        "3716": "Lucas y ",
        "3717": "\u00f3. \u00a1Pum! ",
        "3718": "hablan",
        "3719": "Nadie lo ",
        "3720": "pens\u00f3: \"",
        "3721": "se sinti\u00f3 triste. ",
        "3722": "entonces, el ",
        "3723": "jard\u00edn de ",
        "3724": "obedeci",
        "3725": "hojas ",
        "3726": "aire ",
        "3727": "Sof",
        "3728": "abras cla",
        "3729": "amarill",
        "3730": "bliote",
        "3731": "Pero\u2026 \u00a1",
        "3732": "a\".\n\n",
        "3733": "ca. ",
        "3734": "gin",
        "3735": "tap",
        "3736": "se detuv",
        "3737": ", porque ",
        "3738": "pepi",
        "3739": "este ",
        "3740": "pico",
        "3741": "to de ",
        "3742": "boca ",
        "3743": "pat",
        "3744": "agua.\n\n\u2014\u00a1",
        "3745": "mucho",
        "3746": "desde ",
        "3747": "raz\u00f3n",
        "3748": "color",
        "3749": "es bueno, pero ",
        "3750": "feri",
        "3751": "gusta ",
        "3752": "mene",
        "3753": "circo ",
        "3754": "disfraz ",
        "3755": "triste y ",
        "3756": "dr\u00e1s ",
        "3757": "carrusel ",
        "3758": "M\u00e1gico\n\nEn un ",
        "3759": "nube ",
        "3760": "* ",
        "3761": "iz",
        "3762": "arse ",
        "3763": "ambi",
        "3764": "sir",
        "3765": "vel",
        "3766": "boda ",
        "3767": "bot\u00f3n ",
        "3768": "seas ",
        "3769": "ado\n\nEn una ",
        "3770": "perro grande",
        "3771": "muy bonit",
        "3772": "monta",
        "3773": "Lila",
        "3774": "\u00f3.\n\n\u2014\u00a1Ayuda",
        "3775": "nadie lo ",
        "3776": "bajo un ",
        "3777": "! \u2014grit\u00f3 el ni\u00f1o.\n\nEl ",
        "3778": "Pablo.\n\n",
        "3779": "en el suelo. \"\u00a1Qu\u00e9 ",
        "3780": "explic\u00f3: \"",
        "3781": "pel\u00edcula ",
        "3782": "aso",
        "3783": "rat\u00f3n",
        "3784": "del ni\u00f1o ",
        "3785": "las flores",
        "3786": "ento. ",
        "3787": "ma\u00f1",
        "3788": "respir",
        "3789": "brillaba ",
        "3790": "plum",
        "3791": "colores ",
        "3792": "aron. ",
        "3793": "se asust\u00f3. ",
        "3794": "Todo estaba ",
        "3795": "M\u00e1gica\n\nEn una ",
        "3796": "record",
        "3797": "advierte ",
        "3798": "trampol\u00edn ",
        "3799": "m\u00e9dico",
        "3800": "a\n\nEn el ",
        "3801": "eda ",
        "3802": "pr\u00ednci",
        "3803": "ar, ",
        "3804": "no puede ",
        "3805": ", pi",
        "3806": "mam\u00e1.\n\n\u2014",
        "3807": "gran ",
        "3808": "!\n\nLa ",
        "3809": "\u00f3.\n\nFin.",
        "3810": "lagar",
        "3811": "! \u2014dijo Leo.\n\n",
        "3812": ". \"\u00a1Ay",
        "3813": "desapare",
        "3814": "torci",
        "3815": "solo.\n\n",
        "3816": "barco",
        "3817": "primer",
        "3818": "bonito, ",
        "3819": "?\", pregunt\u00f3 ",
        "3820": "decer ",
        "3821": "le dio un abraz",
        "3822": "Dentro hab\u00eda un ",
        "3823": "normal",
        "3824": "Jueg",
        "3825": "dos",
        "3826": "eri",
        "3827": ".\n\nBad ending: El ",
        "3828": "ade",
        "3829": ", pero luego ",
        "3830": "era buen",
        "3831": "sem",
        "3832": "\u00f3.\n\nDe pronto, el ",
        "3833": "ado de ",
        "3834": "super",
        "3835": ". \"\u00a1Ayuda",
        "3836": "ten\u00eda miedo ",
        "3837": "y el perro ",
        "3838": "hormi",
        "3839": "er\u00eda, ",
        "3840": "tropi",
        "3841": "!\", dijo. \"",
        "3842": "!\"\n\nEl ni\u00f1o ",
        "3843": "alegre",
        "3844": "subi\u00f3 al ",
        "3845": "sombra ",
        "3846": ".\"\n\nEl ni\u00f1o no escuch\u00f3. ",
        "3847": "choc",
        "3848": "ladr\u00f3 fuerte",
        "3849": "enfermera ",
        "3850": "corri\u00f3, pero tropez",
        "3851": "comparti",
        "3852": ", perro",
        "3853": "ara\u00f1a ",
        "3854": "pastelito ",
        "3855": "serpiente ",
        "3856": "CR",
        "3857": "a: \"",
        "3858": "\u00f3:\n\u2014\u00a1",
        "3859": "ando",
        "3860": "o. Lucas ",
        "3861": "es mi ",
        "3862": "bibliote",
        "3863": "Foreshadowing",
        "3864": "abrigo ",
        "3865": "subir ",
        "3866": "problemas",
        "3867": "secreto",
        "3868": "juz",
        "3869": "despert",
        "3870": ") y ",
        "3871": "cada ",
        "3872": "dentro",
        "3873": ". Su ",
        "3874": ". Hab\u00eda ",
        "3875": "arte",
        "3876": "ar\u00e9 ",
        "3877": "El T",
        "3878": "y un ",
        "3879": "ni\u00f1o. El ",
        "3880": "es el ",
        "3881": "as son ",
        "3882": "a. No ",
        "3883": "so\u00f1",
        "3884": ". El doctor ",
        "3885": "escuch\u00f3. ",
        "3886": ".\nConflict: ",
        "3887": "! \u2014 ",
        "3888": "tristez",
        "3889": "desier",
        "3890": "abraz\u00f3 a ",
        "3891": ".\" Pero ",
        "3892": "chimene",
        "3893": "cari\u00f1o. ",
        "3894": "jugaba con su pelota. ",
        "3895": "l\u00e1m",
        "3896": "m\u00e9dico ",
        "3897": "mun",
        "3898": ". Su mam\u00e1 ",
        "3899": "aste",
        "3900": "parti",
        "3901": "!\", dec",
        "3902": "probar",
        "3903": "prometi",
        "3904": "estaba suci",
        "3905": "quer\u00eda un ",
        "3906": "Un d\u00eda, vio una ",
        "3907": "!\", grit\u00f3. El ",
        "3908": "cesito ",
        "3909": "respe",
        "3910": "moned",
        "3911": "solo quer\u00eda jugar",
        "3912": "tamb",
        "3913": "cano",
        "3914": "perdi\u00f3 su ",
        "3915": "\u00f3 y se fue",
        "3916": "servi",
        "3917": "llen\u00f3 de ",
        "3918": "Fin.\n\n(249 palabras)\n\n*Caracter\u00edsticas:*\n- ",
        "3919": "huevo ",
        "3920": "peque\u00f1o, Pablo, ",
        "3921": "grit\u00f3:\n\u2014\u00a1",
        "3922": "reloj ",
        "3923": "cohete ",
        "3924": "CRA",
        "3925": "club",
        "3926": "gar ",
        "3927": "nave ",
        "3928": "rito",
        "3929": "a. Leo ",
        "3930": "ran ",
        "3931": "\u00bfY ",
        "3932": "pas\u00f3 ",
        "3933": "!\", dijeron",
        "3934": "tir ",
        "3935": "aban y ",
        "3936": "\u2014dice la ",
        "3937": "no era un ",
        "3938": "! \u2014grit\u00f3 Leo.\n\n",
        "3939": "lo ayud\u00f3 a ",
        "3940": "foga",
        "3941": "en el suelo. Era ",
        "3942": "pod\u00edan ",
        "3943": "los ni\u00f1os jugaban felices. ",
        "3944": "nadie",
        "3945": "abras clave",
        "3946": "..",
        "3947": "Abri",
        "3948": "vamos ",
        "3949": ". Si ",
        "3950": "El pastel ",
        "3951": "abre ",
        "3952": "ref",
        "3953": "\u00e9r",
        "3954": ".\n\n\u2014 \u00a1",
        "3955": "ace",
        "3956": "quit",
        "3957": "despaci",
        "3958": "feliz. Pero ",
        "3959": "?\", pregunt\u00f3.\n\n",
        "3960": "salt\u00f3 y ",
        "3961": "cintur",
        "3962": "jugar con el ",
        "3963": "Lo siento, mam\u00e1",
        "3964": "grita: \"\u00a1",
        "3965": "piscin",
        "3966": "\"No ",
        "3967": "centro ",
        "3968": "enchu",
        "3969": "amen",
        "3970": "ano",
        "3971": "leo",
        "3972": "estaba triste",
        "3973": "estaba vac\u00ed",
        "3974": "palom",
        "3975": "!\", grit\u00f3.\n\nEl ",
        "3976": ".\n\nFin.\n\n(199 palabras)",
        "3977": "llev\u00f3 ",
        "3978": "es bueno ",
        "3979": "monstruo se ",
        "3980": "r la ",
        "3981": "mosca ",
        "3982": "tocar ",
        "3983": "pelota",
        "3984": "\u00bfQuieres jugar",
        "3985": "perro. El perro ",
        "3986": "Entr",
        "3987": "Puso ",
        "3988": "convirti\u00f3 en un ",
        "3989": "Duele",
        "3990": "estacionami",
        "3991": "la, ",
        "3992": "presa",
        "3993": ".\n\n\"\u00a1",
        "3994": "dijeron",
        "3995": "o.\n\nForeshadowing: El ",
        "3996": "pilo",
        "3997": "llor\u00f3. El ",
        "3998": "muse",
        "3999": ". \u00a1Es ",
        "4000": "volver ",
        "4001": "caer ",
        "4002": "ensuci",
        "4003": "o.\n\n\u2014\u00a1Ayuda",
        "4004": "\u00f3 con un ",
        "4005": "hijo",
        "4006": "Su mam\u00e1 le dijo: \"No ",
        "4007": "miedo.\n\n\u2014",
        "4008": "cerca. ",
        "4009": "r\u00e1pido. El ",
        "4010": "acost",
        "4011": "\u00fadame",
        "4012": "Crack",
        "4013": "\n\nMam\u00e1 y su hijo ",
        "4014": "Quiz\u00e1s ",
        "4015": "tambor ",
        "4016": "leopar",
        "4017": "c\u00eda ",
        "4018": "lor",
        "4019": "ri\u00f3. \"",
        "4020": "o. Pero el ",
        "4021": "se ca",
        "4022": "se cerr",
        "4023": "casa",
        "4024": "antes ",
        "4025": "r\u00ed ",
        "4026": "palabras ",
        "4027": "hacer un ",
        "4028": "sabe ",
        "4029": "corri\u00f3 tras ",
        "4030": "oso\n\nEn un ",
        "4031": "Su mam\u00e1 lo abraz\u00f3 y ",
        "4032": ".\n\nFin.\n\n(249 palabras)\n\n*Caracter\u00edsticas:*\n- ",
        "4033": "acol ",
        "4034": "comprar ",
        "4035": "medicin",
        "4036": "sembr",
        "4037": "Ad",
        "4038": "clav",
        "4039": "fras",
        "4040": "luna ",
        "4041": ".\n\nLos ni\u00f1os ",
        "4042": "arrib",
        "4043": "\u00eda, ",
        "4044": "esqu",
        "4045": "rop",
        "4046": "es mal",
        "4047": "tre",
        "4048": "viaje ",
        "4049": "La T",
        "4050": "rec",
        "4051": ".\n\n\u2014Mira, ",
        "4052": "aco ",
        "4053": "\u00f3.\n\nMoral: No ",
        "4054": "Fin.\n\n(199 palabras)",
        "4055": "cara ",
        "4056": "lot twist ",
        "4057": "\u00f3 la cabez",
        "4058": "Bad ending: La ",
        "4059": "\", dijo. Pero ",
        "4060": "Mam\u00e1, \u00bfqu\u00e9 ",
        "4061": "nunca m\u00e1s ",
        "4062": "frut",
        "4063": "\u00f3, pero no lo encontr",
        "4064": "picnic",
        "4065": "abajar",
        "4066": "masco",
        "4067": "No tengas miedo",
        "4068": "vayas ",
        "4069": "bloqu",
        "4070": "voy a ",
        "4071": "vuela ",
        "4072": ".\n\nAl d\u00eda siguiente, el ",
        "4073": ".\n\nUn d\u00eda, el ",
        "4074": "coch",
        "4075": "tier",
        "4076": "Pero entonces, ",
        "4077": "chan",
        "4078": "para \u00e9l",
        "4079": ". \"\u00a1Mira, mam\u00e1! \u00a1",
        "4080": "noche ",
        "4081": ", pero no ten\u00eda ",
        "4082": "o y lo ",
        "4083": "a. El p\u00e1jaro ",
        "4084": ".\n\nEl perro ",
        "4085": "!\" dij",
        "4086": "quieres ",
        "4087": "hacer da\u00f1",
        "4088": "tel\u00e9",
        "4089": "hues",
        "4090": "conoces",
        "4091": "sube y ",
        "4092": "dentista ",
        "4093": "igual",
        "4094": "Vete",
        "4095": "Son ",
        "4096": "rud",
        "4097": "ura ",
        "4098": "o del ",
        "4099": ". Un ",
        "4100": ", Lucas ",
        "4101": "tr\u00e1s ",
        "4102": "oso, ",
        "4103": "en el jard\u00edn",
        "4104": "casi",
        "4105": "suave ",
        "4106": "Es para ",
        "4107": "Los p\u00e1jaros ",
        "4108": "er\u00eda\n\nEn una ",
        "4109": "brillantes",
        "4110": "se\u00f1al",
        "4111": "solo quer\u00eda ",
        "4112": "un ni\u00f1o llamado Leo ",
        "4113": "Tobi. ",
        "4114": "Al final, todos ",
        "4115": "\n\nEn la sala de ",
        "4116": "avi\u00f3n",
        "4117": "como el ",
        "4118": "gallina ",
        "4119": "coraz\u00f3n ",
        "4120": "gorila ",
        "4121": "ven ",
        "4122": "\u00f3gi",
        "4123": "enro",
        "4124": "dig",
        "4125": "o. Leo ",
        "4126": "\u00f3. Todos ",
        "4127": "aba a ",
        "4128": "apre",
        "4129": "a.\n\nLa ",
        "4130": ": \"No ",
        "4131": "caracol ",
        "4132": "verde ",
        "4133": "dijo: \"No, es ",
        "4134": "aprendieron ",
        "4135": "No, no ",
        "4136": ".\n\nEl p\u00e1jaro ",
        "4137": "conejo se ",
        "4138": "Bad ending: El ni\u00f1o ",
        "4139": "\u00eda.",
        "4140": "pone ",
        "4141": "puede ser ",
        "4142": "cerrad",
        "4143": "! \u2014dijo el ni\u00f1o.\n\n\u2014",
        "4144": "vuelve",
        "4145": "cueva ",
        "4146": "jam",
        "4147": "som",
        "4148": ", \u00bf",
        "4149": "\u00f3. Lucas ",
        "4150": "mist",
        "4151": "bulan",
        "4152": "estaba triste. ",
        "4153": "casi ",
        "4154": "\u00f3. \"\u00a1No ",
        "4155": "entr\u00f3 al ",
        "4156": "rompi\u00f3 el ",
        "4157": "colch",
        "4158": "en el suelo.\n\n\u2014",
        "4159": "ni\u00f1o\u2014. ",
        "4160": "balc",
        "4161": ".\" El ni\u00f1o ",
        "4162": "?\n\nEl ",
        "4163": "vendedor ",
        "4164": "Jugue",
        "4165": "Juan",
        "4166": "sonr\u00ede y ",
        "4167": "rinoceronte ",
        "4168": "flot",
        "4169": "jo",
        "4170": "lun",
        "4171": "arl",
        "4172": "ara ",
        "4173": "enta ",
        "4174": "\u00f3 porque ",
        "4175": "alber",
        "4176": "ni\u00f1os, ",
        "4177": "no quiso ",
        "4178": "ayudar a ",
        "4179": "caram",
        "4180": "cartel ",
        "4181": "fuerz",
        "4182": "las estrell",
        "4183": "puedo",
        "4184": "est\u00e1 roto",
        "4185": "\u00f3 al ni\u00f1o ",
        "4186": "\u00f3. \"\u00a1Quiero ",
        "4187": "!\", dijo.\n\nEl ",
        "4188": "S\u00ed! \u00a1",
        "4189": ".\n- Ver",
        "4190": "tiend",
        "4191": "!\" / ",
        "4192": "largo ",
        "4193": "\n\nEn el sal\u00f3n de ",
        "4194": "cancha ",
        "4195": "mermel",
        "4196": "due\u00f1a ",
        "4197": "corras ",
        "4198": "\n\nEra de noche",
        "4199": "quieto. ",
        "4200": "abeja ",
        "4201": "y su pap\u00e1 ",
        "4202": "de la escuela, ",
        "4203": "grandes y ",
        "4204": "seguir ",
        "4205": "cactus ",
        "4206": "hospital",
        "4207": "abras clave: ",
        "4208": "L\u00eda. ",
        "4209": "lti",
        "4210": "sos",
        "4211": "encendi",
        "4212": "rinc",
        "4213": "un p\u00e1jaro ",
        "4214": "lo hab\u00eda ",
        "4215": "lo comi",
        "4216": "\u00f3. Pero el ",
        "4217": "tiv",
        "4218": "osi",
        "4219": "dijo\u2014. ",
        "4220": "para no ",
        "4221": "palomi",
        "4222": "\u00f3 la rodill",
        "4223": "mano ",
        "4224": "lejos ",
        "4225": "Al d\u00eda siguiente, Leo ",
        "4226": "\u00f3 mucho.\n\n",
        "4227": "Tenemos ",
        "4228": "patineta ",
        "4229": "igles",
        "4230": "Yo te ayudo",
        "4231": "Trabaj",
        "4232": "aplaudieron",
        "4233": "emo",
        "4234": "gen",
        "4235": "nar",
        "4236": ". Las ",
        "4237": "ende ",
        "4238": "\u00e1gui",
        "4239": ": \u2014\u00a1",
        "4240": ", pero su ",
        "4241": "cig\u00fc",
        "4242": "!\n\nMam\u00e1 ",
        "4243": "ayuda.\n\n",
        "4244": "puest",
        "4245": "entes",
        "4246": "buenas ",
        "4247": "entre ",
        "4248": "ya no pod\u00eda ",
        "4249": "ente y ",
        "4250": "ellos ",
        "4251": "\u00f3 su mam\u00e1.\n\n",
        "4252": "fici",
        "4253": "no era malo, ",
        "4254": "sonr\u00ede. \"\u00a1",
        "4255": "ya era tarde. La ",
        "4256": "si no ",
        "4257": "vo: ",
        "4258": "nos hace ",
        "4259": "Deci",
        "4260": "vuelve ",
        "4261": "aprende ",
        "4262": "fr\u00e1gi",
        "4263": "fiesta ",
        "4264": "bomber",
        "4265": "cocodri",
        "4266": "contigo",
        "4267": "cig\u00fce",
        "4268": ").",
        "4269": "Ah",
        "4270": "Oh",
        "4271": "cui",
        "4272": "\u00f3 con su ",
        "4273": "coj",
        "4274": "anc",
        "4275": "!\". El ",
        "4276": ", pero su mam\u00e1 ",
        "4277": "aba su ",
        "4278": "era m\u00e1s ",
        "4279": "o, hab\u00eda un ",
        "4280": "Mam\u00e1, el ",
        "4281": "pop\u00f3",
        "4282": "otra vez ",
        "4283": "agua. \"\u00a1",
        "4284": "hilo ",
        "4285": "La mam\u00e1 advirti",
        "4286": "\".\n\nLucas ",
        "4287": "llamaba ",
        "4288": "se asustaron",
        "4289": "son tuy",
        "4290": "? \u2014pregunt\u00f3 Lucas.\n\n\u2014",
        "4291": "peluche ",
        "4292": "s\u00f3tano ",
        "4293": "dif\u00edcil",
        "4294": "sube y baj",
        "4295": "pop\u00f3tam",
        "4296": "a\u2014. ",
        "4297": "vin",
        "4298": ". U",
        "4299": "amp",
        "4300": "o. Se ",
        "4301": "ar en ",
        "4302": "sigue",
        "4303": "gris ",
        "4304": "tir\u00f3 al ",
        "4305": "hay una ",
        "4306": "debemos ",
        "4307": "comieron ",
        "4308": "quiero",
        "4309": "farma",
        "4310": "cocinero ",
        "4311": "al d\u00eda siguiente, el ",
        "4312": "una ni\u00f1a llamada ",
        "4313": "Ar",
        "4314": "Mm",
        "4315": "fla",
        "4316": ".\n\nFin malo.",
        "4317": "El gato ",
        "4318": "abuel",
        "4319": "techo ",
        "4320": "tilla ",
        "4321": "cis",
        "4322": "raf",
        "4323": "ombi",
        "4324": "corr\u00ed",
        "4325": "bille",
        "4326": "\u00e9 un ",
        "4327": "d\u00ed ",
        "4328": "Es m\u00edo",
        "4329": "las flores ",
        "4330": "! \u2014grita ",
        "4331": "S\u00ed ",
        "4332": "El ni\u00f1o se sinti\u00f3 ",
        "4333": "Est\u00e1s ",
        "4334": "tomar cosas ",
        "4335": "juegos, ",
        "4336": "se rompi\u00f3.\n\n",
        "4337": "grande, un ni\u00f1o ",
        "4338": "sin per",
        "4339": "no lo sab",
        "4340": "salir ",
        "4341": "algo raro ",
        "4342": ". Un d\u00eda, vio un ",
        "4343": "Mira, pap\u00e1",
        "4344": "bo \"",
        "4345": "c\u00f3m",
        "4346": "Muy ",
        "4347": "Ven, ",
        "4348": "Mmm",
        "4349": "Vi",
        "4350": "a para ",
        "4351": ". Los ",
        "4352": "espin",
        "4353": "\u2014grit",
        "4354": "ado. El ",
        "4355": "to.\n\n\u2014",
        "4356": "invisi",
        "4357": "a. Su mam\u00e1 ",
        "4358": "a. Se ",
        "4359": "o.\n\nConflicto: ",
        "4360": "La pr\u00f3xima vez, ",
        "4361": "ar bien",
        "4362": "ci\u00e9",
        "4363": "al suel",
        "4364": "granero ",
        "4365": "a.\n\nDe pronto, el ",
        "4366": "dijo: \u2014",
        "4367": "cur",
        "4368": "corrieron ",
        "4369": "carta ",
        "4370": "en la man",
        "4371": "\u00f3 que el ",
        "4372": ".\n\nMoral: A veces, ",
        "4373": "martillo ",
        "4374": "encontr\u00f3 ",
        "4375": "nuevo. ",
        "4376": "puerta. ",
        "4377": "ni\u00f1a llamada ",
        "4378": "salt\u00f3 de ",
        "4379": "se enoj\u00f3. ",
        "4380": "foca ",
        "4381": "se\u00f1ora Ros",
        "4382": "charco",
        "4383": "cuader",
        "4384": "Tengo miedo",
        "4385": "c\u00f3mo ",
        "4386": "humo ",
        "4387": "centro de ",
        "4388": "Pro",
        "4389": "fer ",
        "4390": "no. ",
        "4391": "la abraz",
        "4392": "lo empuj",
        "4393": "es malo",
        "4394": "a. Un ni\u00f1o ",
        "4395": "La B",
        "4396": "!\"\u2014 ",
        "4397": "bier",
        "4398": "ten\u00edan ",
        "4399": "chimp",
        "4400": "Leo se ",
        "4401": "cubri",
        "4402": "podri",
        "4403": ".\n\n\u2014\u00a1No ",
        "4404": "bonitos",
        "4405": "a. El hombre ",
        "4406": "aprendi\u00f3 que compartir ",
        "4407": "hay que tener ",
        "4408": "no lo dej",
        "4409": "pintu",
        "4410": "como un ",
        "4411": "chofer ",
        "4412": "? \u2014pregunt\u00f3 Leo.\n\n\u2014",
        "4413": "polli",
        "4414": "Lolo. Lolo ",
        "4415": "kiw",
        "4416": "corri\u00f3 hacia \u00e9l",
        "4417": "Secre",
        "4418": "\n\n*Incluye",
        "4419": "chimpanc",
        "4420": "fomb",
        "4421": "ull",
        "4422": "zo",
        "4423": ".\n\nLuis ",
        "4424": "El doctor ",
        "4425": "end",
        "4426": "\u00f3 muy ",
        "4427": "colib",
        "4428": "un perro ",
        "4429": "lo tom",
        "4430": "inter",
        "4431": "trabajar",
        "4432": "coron",
        "4433": "con \u00e9l",
        "4434": "los dos ",
        "4435": "ado en el ",
        "4436": "irse",
        "4437": "Mam\u00e1 dice: \"",
        "4438": "maull",
        "4439": "pregunt\u00f3: \"",
        "4440": "Mam\u00e1, quiero ",
        "4441": "to. \u00a1",
        "4442": "! \u2014grit\u00f3 Lucas.\n\n",
        "4443": "De repente, ",
        "4444": "noche, el ",
        "4445": "pegaj",
        "4446": "celul",
        "4447": "equivo",
        "4448": "laboratorio ",
        "4449": "nombre ",
        "4450": "collar ",
        "4451": "garita ",
        "4452": "tractor ",
        "4453": "pepino ",
        "4454": "velero ",
        "4455": "bombi",
        "4456": "mac",
        "4457": "alfomb",
        "4458": "la pelota ",
        "4459": "adjeti",
        "4460": "se volvi\u00f3 ",
        "4461": "! \"\u00a1",
        "4462": "! Ahora ",
        "4463": "en las ",
        "4464": "estaba en el ",
        "4465": "Ay! \u00a1",
        "4466": "poco. ",
        "4467": "muy bonito. ",
        "4468": ".\nForeshadowing: La ",
        "4469": "! \u2014dijo Lucas",
        "4470": "cosas. ",
        "4471": "hipop\u00f3tam",
        "4472": ".\n\nMoral: Ayudar ",
        "4473": "Yo lo ",
        "4474": "se\u00f1al de ",
        "4475": "El ni\u00f1o se fue ",
        "4476": "dijo: \"\u00a1Quiero ",
        "4477": "\", dijo la ",
        "4478": "esperar",
        "4479": "intent",
        "4480": "Le encantaba ",
        "4481": "mojad",
        "4482": "\u00bfD\u00f3nde est\u00e1",
        "4483": "termin\u00f3 ",
        "4484": "hermano ",
        "4485": "murci\u00e9",
        "4486": "rueda ",
        "4487": "decidi\u00f3 ",
        "4488": "zanahori",
        "4489": "Adi\u00f3s, ",
        "4490": "lo que parece ",
        "4491": "enfad",
        "4492": "ma\u00f1an",
        "4493": "leopardo ",
        "4494": "Chi",
        "4495": "Fe",
        "4496": "Mar",
        "4497": "fren",
        "4498": ". \u2014",
        "4499": ". Era un ",
        "4500": ".\n\nAna ",
        "4501": "\u00f3 para siempre",
        "4502": "\u00f3. Su mam\u00e1 ",
        "4503": "lom",
        "4504": "paragu",
        "4505": "grif",
        "4506": "bicho ",
        "4507": "veo ",
        "4508": "quill",
        "4509": "malas ",
        "4510": "\u00f3.\n\nLa ",
        "4511": "susu",
        "4512": "Qu\u00e9 divertido",
        "4513": ". La ni\u00f1a ",
        "4514": "jugaba con un ",
        "4515": "sonri\u00f3. \u2014\u00a1",
        "4516": "Nadie lo ayud",
        "4517": "tuvo una ide",
        "4518": "sonri\u00f3 y dijo: \"",
        "4519": "plaz",
        "4520": "Ana y Luis ",
        "4521": "oscuro y ",
        "4522": "Bus",
        "4523": "t\u00eda ",
        "4524": ". Un ni\u00f1o peque\u00f1o ",
        "4525": "arlo",
        "4526": "\u00edn",
        "4527": "enti",
        "4528": "riti",
        "4529": "se mueve",
        "4530": "es peligros",
        "4531": "a. Quer\u00eda ",
        "4532": "ar mi ",
        "4533": "lech",
        "4534": "muri",
        "4535": "corri\u00f3. \"\u00a1",
        "4536": "ser ego\u00edst",
        "4537": "abraz\u00f3 al ",
        "4538": "lleva a ",
        "4539": "!\", dijo la ",
        "4540": "Se rompi",
        "4541": "!\", dijo. La ",
        "4542": "volvi\u00f3 al ",
        "4543": "Al final, Leo ",
        "4544": "bata ",
        "4545": "lanz",
        "4546": "Perdi",
        "4547": "no era buen",
        "4548": "libro",
        "4549": "tocar el ",
        "4550": "venado ",
        "4551": "Lolo.\n\n",
        "4552": "voz ",
        "4553": "!\n\n\u2014\u00a1Ayuda",
        "4554": "! \u2014dice el ni\u00f1o.\n\n",
        "4555": "problemas.\n\n",
        "4556": ",\" dij",
        "4557": "No toques eso",
        "4558": "No te preocupes",
        "4559": "sobre el ",
        "4560": "peluche",
        "4561": "\n\nMam\u00e1 y yo fuimos al ",
        "4562": "oveja ",
        "4563": "consul",
        "4564": "*: ",
        "4565": "Llev",
        "4566": "elo",
        "4567": "hist",
        "4568": "taba ",
        "4569": "era",
        "4570": "\u00f3. No ",
        "4571": "La P",
        "4572": "El ni\u00f1o y la ",
        "4573": "sieron ",
        "4574": "constr",
        "4575": "\u00f3.\n\nAl final, el ",
        "4576": "feo",
        "4577": "! \u00a1Quiero ",
        "4578": "Foreshadowing: El ni\u00f1o ",
        "4579": "as, no ",
        "4580": "tom\u00f3 la ",
        "4581": "caba\u00f1",
        "4582": "abrir",
        "4583": "?\", pregunt\u00f3 el ",
        "4584": "helado. ",
        "4585": "cari\u00f1o ",
        "4586": "lavand",
        "4587": "no pudo escapar",
        "4588": "zapatos ",
        "4589": ".\n\n*(Palabras clave: ",
        "4590": "se puso triste. ",
        "4591": "aire",
        "4592": "igl",
        "4593": "m\u00fasica ",
        "4594": "f\u00e1cil",
        "4595": "pl\u00e1tan",
        "4596": "un d\u00eda, el ",
        "4597": "record\u00f3 ",
        "4598": "se mov",
        "4599": "cuchi",
        "4600": "luces ",
        "4601": "asol ",
        "4602": "piloto ",
        "4603": "emocion",
        "4604": "lombri",
        "4605": "Tri",
        "4606": "ca, ",
        "4607": "d\u00e9",
        "4608": "f\u00edn ",
        "4609": "ner",
        "4610": "tero ",
        "4611": ". Y ",
        "4612": "ambulan",
        "4613": "aste ",
        "4614": "no entendi",
        "4615": "a. \u2014",
        "4616": "ar los ",
        "4617": "No debiste ",
        "4618": "muj",
        "4619": "mala",
        "4620": "agua. El ",
        "4621": "De pronto, una ",
        "4622": "fue a ",
        "4623": "grande y brillante",
        "4624": "nad\u00f3 ",
        "4625": "con su mam\u00e1",
        "4626": "dibujo de ",
        "4627": "habla ",
        "4628": "grande, un ni\u00f1o peque\u00f1o ",
        "4629": "se sinti\u00f3 mal",
        "4630": "lo mir\u00f3 con ",
        "4631": "re\u00edr",
        "4632": "antes de que ",
        "4633": "b\u00fah",
        "4634": "culp",
        "4635": "los d\u00edas, ",
        "4636": "estaba roto. ",
        "4637": "hab\u00eda un ni\u00f1o llamado Luis. ",
        "4638": "era tarde. El ",
        "4639": "Adjeti",
        "4640": "Tenemos que ",
        "4641": "Buen ",
        "4642": "afi",
        "4643": "fir",
        "4644": "junt",
        "4645": "nces",
        "4646": "vamos a ",
        "4647": "o y el ",
        "4648": ". Luis ",
        "4649": "\u00eda. \"\u00a1",
        "4650": "El tren ",
        "4651": "El secreto ",
        "4652": "cog",
        "4653": "un hombre ",
        "4654": "no funcion",
        "4655": "tomate ",
        "4656": "infl",
        "4657": "unas ",
        "4658": "a. Pero el ",
        "4659": ", po",
        "4660": "ar una ",
        "4661": "lino ",
        "4662": "detr\u00e1s ",
        "4663": "en el ciel",
        "4664": "Es mi ",
        "4665": "mir\u00f3 la ",
        "4666": "papay",
        "4667": ".\n\nEl hombre ",
        "4668": "\u2014. \u00a1El ",
        "4669": "cepi",
        "4670": "\u00bfQu\u00e9 es eso",
        "4671": "Pero, ",
        "4672": "toques, ",
        "4673": "cerca de una ",
        "4674": "a el ni\u00f1o.\n\n",
        "4675": "miedo. El ",
        "4676": "pacienci",
        "4677": "Tienes que ",
        "4678": "nieve ",
        "4679": "por la ventana. ",
        "4680": "padre ",
        "4681": "suspir\u00f3. \"",
        "4682": "Necesi",
        "4683": "armari",
        "4684": "gigante",
        "4685": "pantalla ",
        "4686": "Ten cuidado, ",
        "4687": "hundi",
        "4688": "tropiez",
        "4689": "club ",
        "4690": "Lul",
        "4691": ". Solo ",
        "4692": "El oso ",
        "4693": "asio ",
        "4694": "se der",
        "4695": "a. \u00c9l ",
        "4696": "o.\n\nLeo ",
        "4697": "que algo ",
        "4698": "simp",
        "4699": "era su ",
        "4700": "leche ",
        "4701": "an y ",
        "4702": "quer\u00eda comer",
        "4703": "corri\u00f3 al ",
        "4704": "agua. \u00a1",
        "4705": "est\u00e1 ro",
        "4706": "o.\n\n\u2014\"\u00a1",
        "4707": "\u00f3. \u00a1El ",
        "4708": "o. \u00a1Era un ",
        "4709": "aron y ",
        "4710": "bonitas ",
        "4711": "miedo, pero ",
        "4712": "due\u00f1o del ",
        "4713": "armario ",
        "4714": "importa",
        "4715": "Hac\u00eda mucho ",
        "4716": "histori",
        "4717": "clas",
        "4718": "fueg",
        "4719": "lum",
        "4720": "n\u00fa",
        "4721": "El viaje ",
        "4722": "ri\u00f3 y ",
        "4723": "la encontr",
        "4724": "toy ",
        "4725": "tosi",
        "4726": "que te ",
        "4727": "esta ",
        "4728": "\u00f3 y busc",
        "4729": "salud",
        "4730": "supo ",
        "4731": "sustanti",
        "4732": "puedes",
        "4733": "est\u00e1 triste",
        "4734": "est\u00e1 suci",
        "4735": "mucha ",
        "4736": "entras ",
        "4737": ", pero no pod\u00eda ",
        "4738": "\u00f3. El p\u00e1jaro ",
        "4739": ". Pero la ",
        "4740": "deben ",
        "4741": "tron",
        "4742": "tomes ",
        "4743": "ruido",
        "4744": "!\", grit\u00f3. Pero el ",
        "4745": "Tom\u00f3 la ",
        "4746": "Hay que ser ",
        "4747": "\n\nHab\u00eda una vez una ",
        "4748": "Estoy ",
        "4749": "hab\u00eda un ni\u00f1o llamado Leo. Leo quer\u00eda ",
        "4750": "dolor",
        "4751": "\u00f3 los oj",
        "4752": "mochila ",
        "4753": "bombero ",
        "4754": "Para ",
        "4755": "importa ",
        "4756": "escuch\u00f3 un ruido. ",
        "4757": "Ni\u00f1",
        "4758": "ater",
        "4759": "jal",
        "4760": "\u00edo",
        "4761": "eso, ",
        "4762": "aba, ",
        "4763": "es bonito",
        "4764": "a. Su ",
        "4765": "recre",
        "4766": "pie",
        "4767": "Luca ",
        "4768": "granja ",
        "4769": "ra y ",
        "4770": "chin",
        "4771": "a.\n\nLucas ",
        "4772": "los otros ",
        "4773": "quis",
        "4774": "pasaman",
        "4775": "la, pero ",
        "4776": "hielo ",
        "4777": "respi",
        "4778": "fue a la ",
        "4779": "conejo",
        "4780": "conejito ",
        "4781": "qu\u00e9 pas",
        "4782": "campan",
        "4783": "o.\n\nEl p\u00e1jaro ",
        "4784": "ficin",
        "4785": "nuevo",
        "4786": "en un \u00e1rbol",
        "4787": "Al d\u00eda siguiente, Lucas ",
        "4788": "cine",
        "4789": "nadie lo ayud",
        "4790": "sab\u00eda que el ",
        "4791": "serv",
        "4792": "edor",
        "4793": "prac",
        "4794": "foco ",
        "4795": "corriend",
        "4796": "! \u2014dice el ",
        "4797": "espejos ",
        "4798": "vio algo raro. ",
        "4799": "sand\u00eda ",
        "4800": "\n\nMam\u00e1 y yo vamos ",
        "4801": "fresc",
        "4802": "tesoro",
        "4803": "grit\u00f3, pero nadie lo escuch",
        "4804": "jiraf",
        "4805": "apret",
        "4806": "colch\u00f3n ",
        "4807": "ball",
        "4808": "dero ",
        "4809": "duc",
        "4810": ". Yo ",
        "4811": ".\n\nPero el ",
        "4812": "espon",
        "4813": "se mueve ",
        "4814": "La F",
        "4815": "dejar",
        "4816": "aba el ",
        "4817": "parte ",
        "4818": "silla ",
        "4819": "bola ",
        "4820": "palaci",
        "4821": "cere",
        "4822": "feliz.\n\nFin.",
        "4823": "no escuch\u00f3 a ",
        "4824": "Bad ending: El ni\u00f1o se ",
        "4825": "amigos.\n\n",
        "4826": "\u2014dijo el hombre",
        "4827": "puerta",
        "4828": "se asust\u00f3 y ",
        "4829": "grande, viv\u00eda un ",
        "4830": "se enoj\u00f3 y ",
        "4831": "jugar con ell",
        "4832": "\n\nEra una ",
        "4833": "duraz",
        "4834": "castill",
        "4835": "plato ",
        "4836": "se acerc\u00f3 y ",
        "4837": "Cay\u00f3 al suel",
        "4838": "truco",
        "4839": "chocolate",
        "4840": "Fue un d\u00eda ",
        "4841": "\n\u2014",
        "4842": "Luna ",
        "4843": "globo se ",
        "4844": "s\u00e9",
        "4845": ".\n\nDi\u00e1logo: ",
        "4846": "dieron ",
        "4847": "\u2014dij",
        "4848": "rible",
        "4849": "o. \u00c9l ",
        "4850": "ada\n\nEn una ",
        "4851": "insec",
        "4852": "es en ",
        "4853": "o.\n\nPero ",
        "4854": "rey",
        "4855": "acanti",
        "4856": "quedar",
        "4857": "letr",
        "4858": "llor\u00f3.\n\n\u2014",
        "4859": "a.\n\nPero ",
        "4860": "sopa ",
        "4861": "atrapar",
        "4862": "se asust\u00f3. \"\u00a1",
        "4863": "acerqu",
        "4864": "Tico ",
        "4865": "corri\u00f3 hacia el ",
        "4866": "pens\u00f3 un ",
        "4867": "cerr\u00f3 la ",
        "4868": "! \u2014dijo el ni\u00f1o.\n\nEl ",
        "4869": "cielo estaba ",
        "4870": "sorpresa",
        "4871": "galletas",
        "4872": "al principio ",
        "4873": "cuerd",
        "4874": "Pide ",
        "4875": "El Pe",
        "4876": "bruja ",
        "4877": "l\u00e1mpara ",
        "4878": "chango ",
        "4879": "algo raro pas",
        "4880": "chimpanc\u00e9 ",
        "4881": "colibr\u00ed ",
        "4882": "Comi",
        "4883": "nave",
        "4884": "a y el ",
        "4885": "\u00edr",
        "4886": "El M",
        "4887": "ris",
        "4888": "ribi",
        "4889": "o. Todos ",
        "4890": ", pe",
        "4891": "o.\n\nDe pronto, el ",
        "4892": "mis ",
        "4893": "su amigo ",
        "4894": "vio que ",
        "4895": "quer\u00eda ayudar",
        "4896": "corri\u00f3, pero no ",
        "4897": "amili",
        "4898": "\".\n\nPero ",
        "4899": "\".\n\nLeo ",
        "4900": "aur",
        "4901": "dice:\n\u2014\u00a1",
        "4902": "callej",
        "4903": "Los ni\u00f1os no ",
        "4904": "hace feliz ",
        "4905": "jugaba con sus ",
        "4906": "empezaron a ",
        "4907": "\u00bfPor qu\u00e9",
        "4908": "De pronto, un perro grande ",
        "4909": "Pablo.\n\n\u2014",
        "4910": "cuerda ",
        "4911": "Necesito ",
        "4912": "lechuza ",
        "4913": "profesor ",
        "4914": "caballero ",
        "4915": "encuentr",
        "4916": "pr\u00edncipe ",
        "4917": "cintur\u00f3n ",
        "4918": "largo y ",
        "4919": "L\u00eda.\n\n\u2014",
        "4920": "Vamos, ",
        "4921": "famili",
        "4922": "rest",
        "4923": "tall",
        "4924": ". Un d\u00eda, el ",
        "4925": ".\n\nAl d\u00eda siguiente, el ni\u00f1o ",
        "4926": "diam",
        "4927": "al, ",
        "4928": "o. Quer\u00eda ",
        "4929": "se moj",
        "4930": "tim",
        "4931": "grande. El ni\u00f1o ",
        "4932": "est\u00e1 ah\u00ed",
        "4933": "cerca",
        "4934": "magi",
        "4935": "cosas peligros",
        "4936": ".\n\nMoral: Compartir ",
        "4937": "aprendi\u00f3 una ",
        "4938": "Los ni\u00f1os lloraron",
        "4939": "nada",
        "4940": "Y todos ",
        "4941": "tom\u00f3 un ",
        "4942": "balne",
        "4943": "Mam\u00e1, \u00bfpor qu\u00e9 ",
        "4944": "\". Leo ",
        "4945": "mosquito ",
        "4946": "no se movi",
        "4947": "animali",
        "4948": "hambre ",
        "4949": "Escuchar ",
        "4950": "su mam\u00e1. ",
        "4951": "blanco",
        "4952": "felices a todos",
        "4953": "juego",
        "4954": "semilla ",
        "4955": "sol brillaba ",
        "4956": "trae ",
        "4957": "gigante ",
        "4958": "misteri",
        "4959": "salt\u00f3 de alegr",
        "4960": "lumin",
        "4961": "jun",
        "4962": "kart",
        "4963": "lar ",
        "4964": "ta. \"\u00a1",
        "4965": ". Su mam\u00e1 le dijo: \"",
        "4966": "\u00f3mi",
        "4967": "diente",
        "4968": "o.\n\nLucas ",
        "4969": "jugaba. ",
        "4970": "o, un ni\u00f1o peque\u00f1o ",
        "4971": "le\u00f3n",
        "4972": "le dijo: \"\u00a1",
        "4973": "ado en la ",
        "4974": "verbo \"",
        "4975": "hacen ",
        "4976": ".\n- Conflict: ",
        "4977": "No, hij",
        "4978": "qu\u00e9 hacer",
        "4979": "le dijo: \"No ",
        "4980": "se rompi\u00f3. \u00a1",
        "4981": "Ahora s\u00ed ",
        "4982": "\". Lucas ",
        "4983": "Oh no! El ",
        "4984": "venen",
        "4985": "algo malo pas",
        "4986": "! \u2014grit\u00f3 el ni\u00f1o.\n\nLa mam\u00e1 ",
        "4987": "aprender",
        "4988": "Algo ",
        "4989": "l\u00e1piz",
        "4990": "corre y ",
        "4991": "pulpo ",
        "4992": "girasol ",
        "4993": "isla ",
        "4994": "templo ",
        "4995": "delf\u00edn ",
        "4996": "bruj",
        "4997": "gimnasio ",
        "4998": "cofre ",
        "4999": "desaparece",
        "5000": "frasco ",
        "5001": "susurr",
        "5002": "Triste",
        "5003": "L\u00eda",
        "5004": "Por favor",
        "5005": "dentr",
        "5006": "iba ",
        "5007": "nari",
        "5008": "op",
        "5009": "p\u00fa",
        "5010": "tas, ",
        "5011": ". Pablo ",
        "5012": "cole",
        "5013": "ado. \"\u00a1",
        "5014": "es tarde",
        "5015": "vino ",
        "5016": "redon",
        "5017": "dedor",
        "5018": "jugo ",
        "5019": "a.\n\nMam\u00e1 ",
        "5020": "los animales ",
        "5021": ". El agua ",
        "5022": ". \u00a1Pum! ",
        "5023": "comas",
        "5024": "cometa ",
        "5025": "corri\u00f3. El ",
        "5026": "casa, ",
        "5027": "sonri\u00f3. El ",
        "5028": "comi\u00f3 el ",
        "5029": "parec\u00eda ",
        "5030": "pez grande ",
        "5031": "lejos, ",
        "5032": "panz",
        "5033": "ar a los dem\u00e1s ",
        "5034": "felices a todos.\n\n",
        "5035": "\u2014dijo el ni\u00f1o.\n\n\u2014",
        "5036": "dientes ",
        "5037": "barbero ",
        "5038": "bajo la mes",
        "5039": "bodega ",
        "5040": "cray\u00f3n ",
        "5041": "esquin",
        "5042": "cisne ",
        "5043": "colegi",
        "5044": "Tin",
        "5045": "hue",
        "5046": "hoy ",
        "5047": "El \u00e1rbol ",
        "5048": "\u00f3 contr",
        "5049": "unos ",
        "5050": "o.\n\nConflict: ",
        "5051": "La G",
        "5052": "a, no ",
        "5053": "cito ",
        "5054": "olla ",
        "5055": "loco",
        "5056": "udo ",
        "5057": "granj",
        "5058": "\u2014dijo Lucas.\n\n",
        "5059": "\u2014dijo ella.\n\n",
        "5060": "fuera ",
        "5061": "\u00bfEst\u00e1s ",
        "5062": "Su amigo ",
        "5063": "peque\u00f1a y ",
        "5064": "muy al",
        "5065": "volando. ",
        "5066": ". \"\u00a1No ",
        "5067": "est\u00e1 aqu\u00ed",
        "5068": "! \u2014grit\u00f3.\n\nEl ",
        "5069": ". La maestra ",
        "5070": "manos",
        "5071": "vio un p\u00e1jaro ",
        "5072": "calent",
        "5073": "El ni\u00f1o llor\u00f3. El ",
        "5074": "Los ni\u00f1os jugaban ",
        "5075": "a se movi",
        "5076": "princes",
        "5077": "con su mam\u00e1. ",
        "5078": "arida ",
        "5079": "cine ",
        "5080": "Mate",
        "5081": "sab\u00eda que ",
        "5082": "no quer\u00eda compartir",
        "5083": "De repente, la ",
        "5084": "circo",
        "5085": "volc\u00e1n",
        "5086": "0)*\n\nE",
        "5087": "viento sopl\u00f3 fuerte ",
        "5088": "querer",
        "5089": "grit\u00f3:\n\n\u2014\u00a1",
        "5090": "\", pens\u00f3.\n\n",
        "5091": "A veces las cosas ",
        "5092": "\u00e1tico ",
        "5093": "esconderse",
        "5094": "! \u2014dijo Leo\u2014. \u00a1",
        "5095": "veterinari",
        "5096": "habr\u00e1 ",
        "5097": "naran",
        "5098": "flau",
        "5099": "murci\u00e9lago ",
        "5100": "restaur",
        "5101": "Gi",
        "5102": "Pas",
        "5103": "Tu ",
        "5104": "gente",
        "5105": "uti",
        "5106": "o a ",
        "5107": ". \u2014\u00a1",
        "5108": "are",
        "5109": "El B",
        "5110": "El conejo ",
        "5111": "El auto ",
        "5112": "abaz",
        "5113": "as, el ",
        "5114": "trap",
        "5115": "perfec",
        "5116": "leche",
        "5117": "quita ",
        "5118": ". El sol ",
        "5119": "puesto ",
        "5120": "para la ",
        "5121": "para comer",
        "5122": "motor ",
        "5123": "La mam\u00e1 de ",
        "5124": "Ayuda, ",
        "5125": "er\u00eda, un ni\u00f1o peque\u00f1o ",
        "5126": "aprendi\u00f3 a ",
        "5127": "cuidar",
        "5128": "o.\n\n\u2014Mam\u00e1, \u00bfpuedo ",
        "5129": "encontraron ",
        "5130": "canch",
        "5131": "grande, hab\u00eda una ",
        "5132": "hizo un ",
        "5133": "pajarito",
        "5134": "o.\n\nMoral: Ayudar a otros ",
        "5135": "\u00bfPor qu\u00e9 est\u00e1s ",
        "5136": "segur",
        "5137": "andali",
        "5138": "final del ",
        "5139": "cuadr",
        "5140": "lindo",
        "5141": "pescad",
        "5142": "vio a un ni\u00f1o ",
        "5143": "tembl",
        "5144": "disfrazado",
        "5145": "se enojar",
        "5146": "silenci",
        "5147": "Sab\u00eda que ",
        "5148": "cangrejo ",
        "5149": "hormiga ",
        "5150": "\u00e1guila ",
        "5151": "nos hace felices",
        "5152": "Otr",
        "5153": "gl",
        "5154": "plot twist ",
        "5155": ", aunque ",
        "5156": "enga",
        "5157": "ni\u00f1a se ",
        "5158": "se quem",
        "5159": "insi",
        "5160": "llave ",
        "5161": "! Lucas ",
        "5162": "tedr",
        "5163": "mil",
        "5164": "miel ",
        "5165": "aba una ",
        "5166": "boca",
        "5167": "Un perro grande ",
        "5168": "sonido ",
        "5169": "estaba en la ",
        "5170": "ayuda. ",
        "5171": ". \u00a1Ay",
        "5172": "casa.\n\n",
        "5173": "! \u2014dij",
        "5174": "ni\u00f1o.\n\n\u2014",
        "5175": "cae ",
        "5176": "catedr",
        "5177": "tori",
        "5178": "ya no pudo ",
        "5179": "grande y roj",
        "5180": "\n\nEn el parque",
        "5181": "peligroso ",
        "5182": "es bueno, ",
        "5183": "viv\u00eda una ",
        "5184": "tere ",
        "5185": "en un lugar ",
        "5186": "bonita, ",
        "5187": "Pum! \u00a1",
        "5188": "a.\n\n\u2014\u00a1Ay",
        "5189": "tiene una ",
        "5190": "fr\u00edo",
        "5191": "feliz.\n\nPero ",
        "5192": "lo sigui\u00f3. ",
        "5193": "estoy ",
        "5194": "nieve",
        "5195": "pl\u00e1sti",
        "5196": "jaula ",
        "5197": "\n\n*Incluye: ",
        "5198": "d\u00e9bi",
        "5199": "Cam",
        "5200": "Ven ",
        "5201": "Vamos ",
        "5202": "gom",
        "5203": "nue",
        "5204": "a m\u00e1s",
        "5205": "alla ",
        "5206": "cobi",
        "5207": "rin",
        "5208": "as\u00ed ",
        "5209": "la puerta ",
        "5210": "no quiere ",
        "5211": "se puede ",
        "5212": "se sorprendi",
        "5213": "lo mordi",
        "5214": "El ni\u00f1o quer\u00eda ",
        "5215": "peta ",
        "5216": "llor\u00f3, pero ",
        "5217": "fuente",
        "5218": "escuchar a los mayores ",
        "5219": "Pero el p\u00e1jaro ",
        "5220": ". \"\u00a1Qu\u00e9 bonito",
        "5221": "bonita ",
        "5222": "mir\u00f3 su ",
        "5223": "entr\u00f3. ",
        "5224": "ello ",
        "5225": "cay\u00f3 ",
        "5226": "tros",
        "5227": "El ni\u00f1o llor\u00f3. \"",
        "5228": "solo y ",
        "5229": "un ni\u00f1o llamado Lucas ",
        "5230": "oscureci",
        "5231": "lanch",
        "5232": "\u00bfQu\u00e9 hac",
        "5233": "A Leo ",
        "5234": "ladri",
        "5235": "da\n\nEn una ",
        "5236": "band",
        "5237": "empez\u00f3 a moverse",
        "5238": "sonri\u00f3 y dijo:\n\u2014",
        "5239": "De repente, un ",
        "5240": "agarrar",
        "5241": "Cuidado, ",
        "5242": "fals",
        "5243": "No pasa nada",
        "5244": "La Cas",
        "5245": "Debes ",
        "5246": "peluqu",
        "5247": "coj\u00edn ",
        "5248": "kiwi ",
        "5249": "a, pero el ",
        "5250": "c\u00edr",
        "5251": "im\u00e1",
        "5252": "noso",
        "5253": "sandali",
        "5254": ".\n\n\"",
        "5255": "el pastel ",
        "5256": "\u2014dijo\u2014. ",
        "5257": "o. Era un ",
        "5258": "ad\u00ed",
        "5259": "! Todos ",
        "5260": "viento",
        "5261": "oso y ",
        "5262": "ar en el ",
        "5263": "estadi",
        "5264": "o, no ",
        "5265": "\u2014dijo Ana.\n\n",
        "5266": "malv",
        "5267": "ayudar a otros ",
        "5268": "mov\u00eda ",
        "5269": "o. El agua ",
        "5270": " tambi",
        "5271": "y el p\u00e1jaro ",
        "5272": "De pronto, un ni\u00f1o ",
        "5273": "!\", dijo. Su mam\u00e1 ",
        "5274": "calabaz",
        "5275": "\u00f3. \u00a1Plaf! ",
        "5276": "crecer",
        "5277": "prim",
        "5278": "\n\nEn la estaci\u00f3n de ",
        "5279": "se ri\u00f3 y ",
        "5280": "nev",
        "5281": "Pero el ni\u00f1o no escuch",
        "5282": "caj\u00f3n ",
        "5283": "toc\u00f3 el ",
        "5284": "Nadie lo escuch",
        "5285": "animales. ",
        "5286": "Vamos a jugar",
        "5287": "corr\u00eda ",
        "5288": "ser\u00e1 ",
        "5289": "camise",
        "5290": "\u00e1ngu",
        "5291": "perros ",
        "5292": "), \"",
        "5293": "Tienes raz\u00f3n",
        "5294": "All\u00ed",
        "5295": "selv",
        "5296": "S\u00ed, pero ten cuidado ",
        "5297": "prometi\u00f3 ",
        "5298": "\u00bfY si ",
        "5299": "pintura ",
        "5300": "chinche ",
        "5301": "nosotros",
        "5302": "Lal",
        "5303": "Ve un ",
        "5304": "a mi ",
        "5305": "coco ",
        "5306": "ados",
        "5307": "\u00f3. Ana ",
        "5308": "\u00f3. Solo ",
        "5309": "a. Ana ",
        "5310": "vist",
        "5311": "o.\n\nLa ",
        "5312": "que se ",
        "5313": "a, la ",
        "5314": "gras",
        "5315": "conf\u00ed",
        "5316": "conduc",
        "5317": "\u2014dijo su mam\u00e1",
        "5318": "velo",
        "5319": "profun",
        "5320": "sea ",
        "5321": "pasado",
        "5322": "Era una ",
        "5323": "est\u00e1 en el ",
        "5324": "solo, ",
        "5325": "embar",
        "5326": "Tobi, ",
        "5327": "\u2014dice el ni\u00f1o.\n\n",
        "5328": "dej\u00f3 de ",
        "5329": "Corri\u00f3 a ",
        "5330": "Jugaron ",
        "5331": "A veces, las cosas ",
        "5332": "! \u2014grit\u00f3 el ni\u00f1o\u2014. \u00a1",
        "5333": "Aqu\u00ed est\u00e1",
        "5334": "tranquil",
        "5335": "El Cas",
        "5336": "verde, ",
        "5337": "Busc",
        "5338": "unicornio ",
        "5339": "tijer",
        "5340": "foreshadowing ",
        "5341": "bombilla ",
        "5342": "enga\u00f1",
        "5343": "\".",
        "5344": "Ro",
        "5345": "Vamos",
        "5346": "a! \u2014dijo ",
        "5347": "agi",
        "5348": "o\n\nEn una ",
        "5349": "oficin",
        "5350": "\u00edfi",
        "5351": "alre",
        "5352": "ance",
        "5353": "o. Un d\u00eda, ",
        "5354": "lo levant",
        "5355": "! Es ",
        "5356": "El ni\u00f1o y el ",
        "5357": "peces",
        "5358": "!\"\n- ",
        "5359": "listo",
        "5360": "olin",
        "5361": "pimi",
        "5362": "aba a los ",
        "5363": "biber",
        "5364": "\u00f3 y el ni\u00f1o ",
        "5365": "le advirti",
        "5366": "le dijo:\n\n\u2014",
        "5367": "tri\u00e1ngu",
        "5368": "pate",
        "5369": "fueron",
        "5370": "mir\u00f3 a ",
        "5371": "miraron",
        "5372": "cani",
        "5373": "ma\u00ed",
        "5374": ".\n\nMoral: Si ",
        "5375": "flamen",
        "5376": "\n\nEn el parque ",
        "5377": "\u00f3. \u00a1Ay",
        "5378": "aci\u00f3n",
        "5379": "a. \u00a1Era un ",
        "5380": "abri\u00f3 y ",
        "5381": "abri\u00f3 el ",
        "5382": "Di\u00e1logo: \"",
        "5383": "pinch",
        "5384": "\u00f3, pero el ni\u00f1o ",
        "5385": "banco",
        "5386": "se movi\u00f3. \u00a1Era un ",
        "5387": "obedecer ",
        "5388": "blanco y ",
        "5389": "necesita ",
        "5390": "\u00bfQui\u00e9n est\u00e1 ah\u00ed",
        "5391": "\u00e1tico",
        "5392": "Buen",
        "5393": "se mov\u00eda ",
        "5394": "resbaladilla ",
        "5395": "mapa ",
        "5396": "tortuga ",
        "5397": "Esta vez, el ",
        "5398": "fogata ",
        "5399": "bandera ",
        "5400": "\".\n- ",
        "5401": "Eran ",
        "5402": "ago",
        "5403": "sano ",
        "5404": "El juguete ",
        "5405": "El helado ",
        "5406": "El parque ",
        "5407": "direc",
        "5408": "\u2014dice",
        "5409": "la mam\u00e1 ",
        "5410": "o. Solo ",
        "5411": "no es buen",
        "5412": "uego",
        "5413": "red",
        "5414": "ar m\u00e1s",
        "5415": ", pero su mam\u00e1 le dijo: \"",
        "5416": "gull",
        "5417": "tendr\u00e1s ",
        "5418": "sean ",
        "5419": "Al final del ",
        "5420": ".\n\n\u2014\u00a1Quiero ",
        "5421": "do. \"\u00a1",
        "5422": "higo ",
        "5423": "caus",
        "5424": "cae al ",
        "5425": "Qu\u00e9 rico",
        "5426": "ta: ",
        "5427": ".\n\nFin.\n\n*(",
        "5428": "plor",
        "5429": "Los ni\u00f1os se ",
        "5430": "umb",
        "5431": "ortale",
        "5432": "Nota: ",
        "5433": "bebi",
        "5434": "viv\u00eda un ni\u00f1o llamado ",
        "5435": "se asust\u00f3. \"",
        "5436": "quiso ayudar",
        "5437": "dulces ",
        "5438": "lastim\u00f3 la rodill",
        "5439": "pajari",
        "5440": "se movi\u00f3 sol",
        "5441": "patinar",
        "5442": "dormi",
        "5443": "valiente ",
        "5444": "pueden ser ",
        "5445": "entr\u00f3 corriendo. ",
        "5446": "plantas ",
        "5447": "? \u2014pregunta el ni\u00f1o.\n\n\u2014",
        "5448": "campo de ",
        "5449": "Corre, ",
        "5450": "Pens\u00f3: \"",
        "5451": "muestra ",
        "5452": "monta\u00f1",
        "5453": "servici",
        "5454": "cocodrilo ",
        "5455": "Ah\u00ed ",
        "5456": "alfombra ",
        "5457": "\u00bfEst\u00e1s bien",
        "5458": "50)*\n\nCaracter\u00edsticas:\n- ",
        "5459": "a: ",
        "5460": "aten",
        "5461": "had",
        "5462": "o, pero no ",
        "5463": "pen",
        "5464": "rugi",
        "5465": "y yo ",
        "5466": "ni\u00f1a no ",
        "5467": "as. El ",
        "5468": "se cae",
        "5469": "traje ",
        "5470": "tele",
        "5471": "!\". El ni\u00f1o ",
        "5472": "recogi",
        "5473": "Pero yo ",
        "5474": "con cuidad",
        "5475": "chale",
        "5476": "a.\n\nMoral: No ",
        "5477": "!\n\nLeo ",
        "5478": "Moral ",
        "5479": "regalo",
        "5480": "Su amig",
        "5481": "mov",
        "5482": "dice:\n\n\u2014",
        "5483": "calce",
        "5484": "\n\nEn el \u00e1rea de ",
        "5485": "ve el ",
        "5486": "Lo importante es ",
        "5487": "barr",
        "5488": "metr",
        "5489": "cangu",
        "5490": "aron el ",
        "5491": "le dio el ",
        "5492": "?\", pregunt\u00f3. \"",
        "5493": "sonr\u00ede.\n\n\u2014",
        "5494": "orill",
        "5495": "seri",
        "5496": "seguros",
        "5497": "\n\n*Nota: ",
        "5498": "No, es peligroso",
        "5499": "caminaba ",
        "5500": "fruta ",
        "5501": "re\u00edr ",
        "5502": "beb\u00e9",
        "5503": "Su mam\u00e1 le dijo:\n\u2014",
        "5504": "p\u00f3si",
        "5505": "Bien",
        "5506": "lechuz",
        "5507": "koala ",
        "5508": "bajo un \u00e1rbol",
        "5509": "adjetivo \"",
        "5510": "sustantivo \"",
        "5511": "Ab",
        "5512": "a\n\nMam\u00e1 ",
        "5513": "l\u00ed",
        "5514": "nen",
        "5515": "nav",
        "5516": "vu",
        "5517": ".\n\nForeshadowing: La ",
        "5518": ".\n\nFin triste.",
        "5519": "El agua ",
        "5520": "el agua ",
        "5521": ": no ",
        "5522": "no entend\u00ed",
        "5523": "toda ",
        "5524": "se escondi\u00f3 ",
        "5525": "a. La mam\u00e1 ",
        "5526": "viv",
        "5527": "o.\n\nBad ending: El ",
        "5528": "No quer\u00eda ",
        "5529": "siren",
        "5530": "jugando. ",
        "5531": "!\n\nDe pronto, el ",
        "5532": "!\n\nFin.\n\n(249 palabras)",
        "5533": ".\n\n\u2014\u00a1Gracias",
        "5534": "del parque",
        "5535": "cerdo ",
        "5536": ", pero el perro ",
        "5537": "taron ",
        "5538": "por un ",
        "5539": ".\n- Foreshadowing: La ",
        "5540": "llamado Lolo. Lolo ",
        "5541": "o.\n\n\u2014\"",
        "5542": "baj\u00f3 la cabez",
        "5543": "balance",
        "5544": "cantaba ",
        "5545": "guarda ",
        "5546": "hubo ",
        "5547": "\u00f3 otra vez. ",
        "5548": "rompas ",
        "5549": "pizza ",
        "5550": "evita ",
        "5551": "basurero ",
        "5552": "agrad",
        "5553": "Sof\u00eda ",
        "5554": "sirve",
        "5555": "supermerc",
        "5556": "El Castillo ",
        "5557": "a!\"\n\n",
        "5558": "ble ",
        "5559": "ctur",
        "5560": "na",
        "5561": "rana ",
        "5562": "\u00eda. El ",
        "5563": "orgull",
        "5564": "aba.\n\n\u2014",
        "5565": "riz",
        "5566": "la vio y ",
        "5567": "uelo ",
        "5568": "de Lucas",
        "5569": "tre ",
        "5570": "peor",
        "5571": "ar (",
        "5572": "pidi\u00f3 ",
        "5573": "lemen",
        "5574": "bujar",
        "5575": "le encantaba ",
        "5576": "\u00bfTe ",
        "5577": "\u00f3.\n\nLa mam\u00e1 ",
        "5578": "ado, pero ",
        "5579": "culo ",
        "5580": ". \u00a1La ",
        "5581": "Toc",
        "5582": ".\"\n\nLuis ",
        "5583": "las reg",
        "5584": "Lucas, no ",
        "5585": "ca\u00ed",
        "5586": "cay\u00f3 y se lastim",
        "5587": "ya no ten\u00eda ",
        "5588": "mari",
        "5589": "volvi\u00f3 a la ",
        "5590": "todos son ",
        "5591": "tamon",
        "5592": "le dio su ",
        "5593": "\u00f3 con la ",
        "5594": "cari\u00f1o",
        "5595": "viejo y ",
        "5596": "su mam\u00e1. \"",
        "5597": "fuerte y ",
        "5598": "! \u2014dijo el ni\u00f1o.\n\nLa mam\u00e1 ",
        "5599": "De pronto, un p\u00e1jaro ",
        "5600": ":\n- Plot twist: El ",
        "5601": "da\u00f1o",
        "5602": "circui",
        "5603": "sacudi",
        "5604": "rompe ",
        "5605": "chule",
        "5606": "estaban felices",
        "5607": "quieto",
        "5608": "Compartir hace feliz ",
        "5609": "regalo ",
        "5610": "rod\u00f3 lejos",
        "5611": "lo busc\u00f3, pero no lo encontr",
        "5612": ", pero no sab\u00eda c\u00f3m",
        "5613": "mundo ",
        "5614": "sembrad\u00ed",
        "5615": "lombriz ",
        "5616": "vu\u00e9l",
        "5617": "lementos",
        "5618": "20)*\n\nCaracter\u00edsticas:\n- ",
        "5619": "ajar",
        "5620": "elev",
        "5621": "a estaba ",
        "5622": "El dibujo ",
        "5623": "o. \u2014",
        "5624": "adel",
        "5625": "uce",
        "5626": ", p\u00e1jar",
        "5627": "o.\n\n(249 palabras)",
        "5628": "en los ",
        "5629": "No tem",
        "5630": "\u2014dijo Leo.\n\n",
        "5631": ".\nPlot twist: ",
        "5632": "grande apareci",
        "5633": "est\u00e1 muy ",
        "5634": "\", dijo. El ",
        "5635": "primero, ",
        "5636": "! El perro ",
        "5637": "cinta ",
        "5638": "sin querer",
        "5639": "Di\u00e1logo:\n\u2014",
        "5640": "tintor",
        "5641": "m\u00edo ",
        "5642": "comple",
        "5643": "!\n\n\u2014\u00a1Ay",
        "5644": "Devu\u00e9l",
        "5645": "\u00bfQu\u00e9 pasa, ",
        "5646": "jugaba con su pelot",
        "5647": "fueron al ",
        "5648": "Ten\u00eda un ",
        "5649": "juega con su ",
        "5650": "hicieron ",
        "5651": "\u00bfD\u00f3nde est\u00e1 mi ",
        "5652": "resbaladill",
        "5653": "conflicto (",
        "5654": "\n\nEra un d\u00eda soleado. ",
        "5655": "iba a ",
        "5656": "juzg",
        "5657": "mujer ",
        "5658": "Us",
        "5659": "bra ",
        "5660": "buce",
        "5661": "of",
        "5662": "tas. ",
        "5663": ".\n\nEl ni\u00f1o se ",
        "5664": "nill",
        "5665": "\u2014respondi",
        "5666": "abier",
        "5667": "rica",
        "5668": "es una ",
        "5669": "a. \u2014\u00a1",
        "5670": "recic",
        "5671": "que todos ",
        "5672": "llorar",
        "5673": "sed",
        "5674": "Mam\u00e1 lo abraz",
        "5675": "triste.\n\nFin.",
        "5676": "ca\u00f1",
        "5677": "taci\u00f3n",
        "5678": "tare",
        "5679": "rompi\u00f3 la ",
        "5680": "en el suelo. La ",
        "5681": "aprendi\u00f3 que hay que ",
        "5682": "o.\n\nEl perro ",
        "5683": "Al final, Lucas ",
        "5684": "\u00bfQu\u00e9 hay ",
        "5685": "bal\u00f3n",
        "5686": "en una caj",
        "5687": "mu\u00f1ec",
        "5688": "asinti\u00f3. \"",
        "5689": "sonri\u00f3. \"\u00a1Gracias",
        "5690": "golf",
        "5691": "Vio una ",
        "5692": "galletas ",
        "5693": "hasta el ",
        "5694": "sali\u00f3 del ",
        "5695": "jugaron juntos",
        "5696": "pl\u00e1tano ",
        "5697": "oc\u00e9an",
        "5698": "gimnasi",
        "5699": "Al salir, ",
        "5700": "desde el ",
        "5701": "enroll",
        "5702": "fr\u00e1gil",
        "5703": "hipop\u00f3tamo ",
        "5704": "SH",
        "5705": "a lo ",
        "5706": "\u00f3 en su ",
        "5707": "dibujar",
        "5708": "\u2014. El ",
        "5709": "alas ",
        "5710": "abur",
        "5711": "adas",
        "5712": "vide",
        "5713": "La M",
        "5714": "osa ",
        "5715": "lim",
        "5716": "cid",
        "5717": "ol\u00f3gi",
        "5718": "al ni\u00f1o ",
        "5719": "apro",
        "5720": "Lucas no quer\u00eda ",
        "5721": "!\n\n(249 palabras)",
        "5722": "muni",
        "5723": "qui\u00e9n ",
        "5724": "ado\n\nEn la ",
        "5725": "escuchar",
        "5726": "o. El gato ",
        "5727": "ister\u00eda ",
        "5728": "entre",
        "5729": "caf",
        "5730": "cafe",
        "5731": "mam\u00e1.\n\nEl ",
        "5732": "o. \"\u00a1Ay",
        "5733": "feliz. El ",
        "5734": "Quiero jugar",
        "5735": "call",
        "5736": "o.\n\n\u2014\u00a1Mira, mam\u00e1",
        "5737": "Corran",
        "5738": "bonitas. ",
        "5739": "Lila. ",
        "5740": "explor",
        "5741": "libre",
        "5742": "busc\u00f3 y busc",
        "5743": "nadie la ",
        "5744": "sonri\u00f3. Aprendi\u00f3 que ",
        "5745": "!\n\nEl perro ",
        "5746": "!\", dijo el ni\u00f1o. ",
        "5747": "salieron ",
        "5748": "se movi\u00f3 ",
        "5749": "hablan ",
        "5750": "!\", pens\u00f3. Pero ",
        "5751": "miedo, ",
        "5752": "dolor ",
        "5753": "nuestr",
        "5754": "falda ",
        "5755": "paquete",
        "5756": ".\n\nPlot twist: El ni\u00f1o ",
        "5757": "viv\u00eda un ni\u00f1o llamado Leo. Un d\u00eda, ",
        "5758": "value",
        "5759": "Escuchar a los mayores es importante",
        "5760": "estrope",
        "5761": "dinosaurio ",
        "5762": "le da un ",
        "5763": "CRASH",
        "5764": "Tobi. Tobi ",
        "5765": "palacio ",
        "5766": "Moral value",
        "5767": "bro",
        "5768": "bon",
        "5769": "minti",
        "5770": "vayas",
        "5771": "zumb",
        "5772": "ar: ",
        "5773": "arru",
        "5774": "el pastel",
        "5775": "nicer",
        "5776": "es lo ",
        "5777": "! Leo ",
        "5778": "miel",
        "5779": "dedo ",
        "5780": "era m\u00e1gi",
        "5781": "gusano ",
        "5782": "!\n\nPero el ",
        "5783": "sem\u00e1",
        "5784": ". El oso ",
        "5785": ". El conejo ",
        "5786": "p\u00e1jaro. El p\u00e1jaro ",
        "5787": "casa y ",
        "5788": ". \"\u00a1Oh no",
        "5789": "verdad ",
        "5790": "las cosas",
        "5791": "puede",
        "5792": "Foreshadowing: Al principio, ",
        "5793": "entrada ",
        "5794": "Lucas. \"",
        "5795": "torta ",
        "5796": " \u2014dice ",
        "5797": "llevar",
        "5798": "fuerte. El ",
        "5799": "Hab\u00eda un ",
        "5800": "az\u00fa",
        "5801": "bien. ",
        "5802": "ferre",
        "5803": "mira la ",
        "5804": "saben ",
        "5805": "Eres un ",
        "5806": "\u00f3 de nuev",
        "5807": "hermos",
        "5808": "sombrer",
        "5809": "aprendi\u00f3 que no hay que ",
        "5810": "tocarlo",
        "5811": "Y as\u00ed, el ni\u00f1o ",
        "5812": "Dialogue: \"\u00a1",
        "5813": "no estaba conten",
        "5814": "estrellas ",
        "5815": "favorito",
        "5816": "sonr\u00ede. \u2014",
        "5817": "\n\nMam\u00e1 y yo fuimos a la ",
        "5818": "kios",
        "5819": "lastimarte",
        "5820": "Pero\u2026 \u00a1oh no",
        "5821": "pat\u00edn ",
        "5822": "corri\u00f3 tras \u00e9l",
        "5823": "Secreto ",
        "5824": "paraguas ",
        "5825": "igl\u00fa ",
        "5826": "respirar",
        "5827": "peluquera ",
        "5828": "conf\u00edes en ",
        "5829": "Gol",
        "5830": "Tir",
        "5831": "Uf",
        "5832": "cri",
        "5833": "ge",
        "5834": "globo",
        "5835": "pero ",
        "5836": "\u00f3p",
        "5837": ".\n\nPablo ",
        "5838": "ding: ",
        "5839": "nigolf",
        "5840": "un poco",
        "5841": "no hay ",
        "5842": "lo dej\u00f3 ",
        "5843": "! Un ",
        "5844": "teatr",
        "5845": "en mi ",
        "5846": ".\n\n\u2014Mira, mam\u00e1, \u00a1",
        "5847": "accid",
        "5848": "a.\n\nDe pronto, ",
        "5849": "cubo ",
        "5850": ".\n\n\u2014\u00a1Mira, mam\u00e1! \u00a1",
        "5851": "sonrisa ",
        "5852": ". \"\u00a1Gracias",
        "5853": "triste.",
        "5854": "verte",
        "5855": "ten\u00eda el ",
        "5856": "felici",
        "5857": "cav",
        "5858": "capi",
        "5859": "brilla ",
        "5860": "o. \"\u00a1Es ",
        "5861": "ta\n\nEn una ",
        "5862": ".\n\nFin.\n\n*(Caracter\u00edsticas: mal final, ",
        "5863": "moneda ",
        "5864": "!\"\n\nMam\u00e1 ",
        "5865": "Bad En",
        "5866": "camello ",
        "5867": "nada. ",
        "5868": "azote",
        "5869": "quieren ",
        "5870": "ento, ",
        "5871": "es bueno.\n\n",
        "5872": "usar",
        "5873": "ellos",
        "5874": "suelo, ",
        "5875": "Corri\u00f3 al ",
        "5876": "puede pasar",
        "5877": "no lo vi",
        "5878": "No te acerqu",
        "5879": "No debemos ",
        "5880": "ventana ",
        "5881": "dinero",
        "5882": "Puede ser ",
        "5883": "frutas ",
        "5884": "sac\u00f3 un ",
        "5885": "cay\u00f3 al suelo. \u00a1",
        "5886": "Encontr",
        "5887": "pescado ",
        "5888": "autob\u00fas",
        "5889": "f\u00e1bri",
        "5890": "cuarto ",
        "5891": "hiciste",
        "5892": "guard\u00f3 en su bolsill",
        "5893": "All\u00ed ",
        "5894": "computador",
        "5895": "timbre ",
        "5896": "arete ",
        "5897": "Bad Ending: ",
        "5898": "Vale",
        "5899": "a! \u00a1",
        "5900": "cer\u00eda ",
        "5901": "d\u00f3",
        "5902": "El tesoro ",
        "5903": "El Secreto ",
        "5904": "\u00f3 todo. ",
        "5905": "y luego ",
        "5906": "alar",
        "5907": "\u00f3. Su ",
        "5908": "llan",
        "5909": ".\n\n\u2014Mam\u00e1, ",
        "5910": "o, un ni\u00f1o ",
        "5911": "\u00f3 y dijo:\n\u2014",
        "5912": "feo ",
        "5913": "rega\u00f1",
        "5914": "salchi",
        "5915": "saltamon",
        "5916": "muy grande",
        "5917": "sufici",
        "5918": "para estar ",
        "5919": "!\", grita ",
        "5920": "\u00fat",
        "5921": "er\u00eda. ",
        "5922": "soluci",
        "5923": ". \"\u00bf",
        "5924": "martill",
        "5925": "!\", dijo Leo. ",
        "5926": "\", dijo. El ni\u00f1o ",
        "5927": "quiere",
        "5928": "en el suelo. El ",
        "5929": "a de los ",
        "5930": "\u00f3, pero la ",
        "5931": "\u00f3, pero luego ",
        "5932": "o.\n\n\u2014\u00a1No",
        "5933": "lleg\u00f3. \"",
        "5934": "qued\u00f3 atrap",
        "5935": "bonito, pero ",
        "5936": "\u2014dice mam\u00e1.\n\nEl ni\u00f1o ",
        "5937": "origin",
        "5938": "apareci\u00f3 un ",
        "5939": "alivi",
        "5940": "mayores ",
        "5941": "r\u00e1pido. \u00a1",
        "5942": "lo llev\u00f3 a ",
        "5943": "cerr\u00f3 los oj",
        "5944": "puerta se abri",
        "5945": "ciruela ",
        "5946": "basura ",
        "5947": "tramp",
        "5948": "al d\u00eda siguiente, ",
        "5949": "Al principio, el ",
        "5950": "campam",
        "5951": "No me gusta",
        "5952": "entiende",
        "5953": "koal",
        "5954": "tel\u00e9fo",
        "5955": "puesto de ",
        "5956": "Decidi\u00f3 ",
        "5957": "zool\u00f3gi",
        "5958": "grifo ",
        "5959": "aprendi\u00f3 una lecci\u00f3n",
        "5960": "arruin",
        "5961": "--",
        "5962": "Val",
        "5963": "a\n\nHab\u00eda una vez un ",
        "5964": "fortale",
        "5965": "gorro ",
        "5966": "yo",
        "5967": "a con ",
        "5968": "a las ",
        "5969": ", no",
        "5970": ".\n\nEl ni\u00f1o llor\u00f3. ",
        "5971": "y todos ",
        "5972": "copi",
        "5973": "no me ",
        "5974": "lo alcanz",
        "5975": "a. Ella ",
        "5976": "telar",
        "5977": "uir ",
        "5978": "rel",
        "5979": "que lo ",
        "5980": "a, \u00a1",
        "5981": "No hab\u00eda ",
        "5982": "llor\u00f3 much",
        "5983": "llorando. ",
        "5984": "Lucas quer\u00eda ",
        "5985": "los atrap",
        "5986": "vio su ",
        "5987": "vio a su ",
        "5988": "malo se ",
        "5989": "maleta ",
        "5990": "quer\u00eda ser ",
        "5991": "voland",
        "5992": "cartel",
        "5993": "mirar ",
        "5994": "dese",
        "5995": "De pronto, vieron ",
        "5996": "tari",
        "5997": ".\n\nMoral: La ",
        "5998": "aprendi\u00f3. ",
        "5999": "cuidas ",
        "6000": "jugar contigo",
        "6001": "to. \"",
        "6002": "dio un ",
        "6003": "? \u2014pregunt\u00f3 la ",
        "6004": "lleg\u00f3. \"\u00a1",
        "6005": "as, te ",
        "6006": "aprendi\u00f3 que a veces ",
        "6007": "Esto ",
        "6008": "canci\u00f3n ",
        "6009": "atrevi",
        "6010": "avent",
        "6011": "toc\u00f3 la ",
        "6012": "en su mochi",
        "6013": "\u2014dijo la mam\u00e1\u2014. ",
        "6014": "fr\u00edo. ",
        "6015": "ladr\u00f3 ",
        "6016": "dol\u00eda ",
        "6017": "unifor",
        "6018": "charco de ",
        "6019": "negro ",
        "6020": "posi",
        "6021": "mi amor. ",
        "6022": ".\n\n\u2014Mam\u00e1, \u00bfpor qu\u00e9 ",
        "6023": "protegi",
        "6024": "truen",
        "6025": "oc\u00e9ano ",
        "6026": "Por la ",
        "6027": "Mam\u00e1 me abraz",
        "6028": "mascotas, ",
        "6029": "somos ",
        "6030": "son tuyas",
        "6031": "billete ",
        "6032": "invisible",
        "6033": "Pero, \u00a1oh no",
        "6034": "El Pez ",
        "6035": "se enojaron",
        "6036": "canguro ",
        "6037": "Moral value: ",
        "6038": "telara\u00f1",
        "6039": "atas",
        "6040": "bes",
        "6041": "cacer",
        "6042": "f\u00fat",
        "6043": "\u00f3.\n\u2014",
        "6044": "El Car",
        "6045": "encerr",
        "6046": "\u00f3 de la ",
        "6047": "almac",
        "6048": "an. ",
        "6049": "as. \"\u00a1",
        "6050": "un lugar ",
        "6051": "se cay\u00f3 al ",
        "6052": "es la ",
        "6053": "rej",
        "6054": "rec\u00e1mar",
        "6055": "dijo el ",
        "6056": "su pap\u00e1",
        "6057": "perder",
        "6058": "guay",
        "6059": "\u00f3.\n\nAl d\u00eda siguiente, el ",
        "6060": "peque\u00f1o",
        "6061": "pusieron ",
        "6062": "cascad",
        "6063": "volaba ",
        "6064": "! \u2014dijo un ",
        "6065": "! \u2014dijo Luis",
        "6066": "! \u2014dijo Lucas.\n\n",
        "6067": "\", le ",
        "6068": "mirar",
        "6069": "Todos los ni\u00f1os ",
        "6070": "!\"\n\nLa mam\u00e1 ",
        "6071": "a. \u00a1Qu\u00e9 ",
        "6072": "bolsi",
        "6073": "lleg\u00f3. ",
        "6074": "cele",
        "6075": "tern",
        "6076": "derram",
        "6077": "cantar",
        "6078": "Mira, mam\u00e1! \u00a1Una ",
        "6079": "!\n\nEl hombre ",
        "6080": "! \u2014grit\u00f3 Leo.\n\nEl ",
        "6081": "\u00e1rboles ",
        "6082": "disfru",
        "6083": ". Un d\u00eda, vio una ",
        "6084": "no pudo salir",
        "6085": "flores y ",
        "6086": "payaso se ",
        "6087": "sonri\u00f3 y dijo: \"\u00a1",
        "6088": "en una mes",
        "6089": "frutas",
        "6090": "De pronto, un hombre ",
        "6091": "Pablo. ",
        "6092": "Me gust",
        "6093": "pregunta ",
        "6094": "No lo toques",
        "6095": "No toques el ",
        "6096": "rayos ",
        "6097": "moverse ",
        "6098": ".\nConflicto: El ",
        "6099": "temb",
        "6100": "escalera ",
        "6101": "forz",
        "6102": "pr\u00f3xima vez",
        "6103": "escob",
        "6104": "quedaron ",
        "6105": "roja y brillante",
        "6106": "!\" dijo el ",
        "6107": "cosas que no conoces",
        "6108": "agua estaba fr\u00ed",
        "6109": "cuidar lo que ",
        "6110": "jab\u00f3n ",
        "6111": "fantasm",
        "6112": "travies",
        "6113": "estanque ",
        "6114": "estacionamiento ",
        "6115": "callej\u00f3n ",
        "6116": "balneari",
        "6117": "agit",
        "6118": "natur",
        "6119": "aburri",
        "6120": "D\u00e9",
        "6121": "Ex",
        "6122": "atu",
        "6123": "nos",
        "6124": "obr",
        "6125": "\u00f3:\n\n\u2014",
        "6126": "El Con",
        "6127": "el p\u00e1jaro ",
        "6128": "\u00f3 tod",
        "6129": "adver",
        "6130": "se durmi",
        "6131": "se fueron",
        "6132": "indic",
        "6133": "es grande",
        "6134": "tecl",
        "6135": "ugio ",
        "6136": "leer",
        "6137": "escribi",
        "6138": "\u00bfpor qu\u00e9 ",
        "6139": "do\n\nEn una ",
        "6140": "pasar ",
        "6141": "su\u00e9",
        "6142": "para hacer ",
        "6143": "para todos",
        "6144": "Pero el hombre ",
        "6145": "manos ",
        "6146": "!\" El ",
        "6147": "hace feliz",
        "6148": "chichar",
        "6149": "diversi",
        "6150": "Toma, ",
        "6151": "comprar",
        "6152": "Eres mi ",
        "6153": "drag\u00f3n",
        "6154": "S\u00ed, pero primero ",
        "6155": "sorpres",
        "6156": "picante",
        "6157": "Pap\u00e1",
        "6158": "oscuro, ",
        "6159": "necesitan ",
        "6160": ".\n\nForeshadowing: El ni\u00f1o ",
        "6161": "? \u2014pregunto.\n\n\u2014",
        "6162": "nieb",
        "6163": "No pasa nada. ",
        "6164": "Dentro, hab\u00eda un ",
        "6165": "padri",
        "6166": "tobog\u00e1n",
        "6167": "viene",
        "6168": "conflicto (el ",
        "6169": "respir\u00f3 ",
        "6170": "\u00e9rgi",
        "6171": "paloma ",
        "6172": "suave y ",
        "6173": "caramelo ",
        "6174": "rinc\u00f3n",
        "6175": "cuchillo ",
        "6176": "n\u00famero ",
        "6177": "tomes lo que no es tuy",
        "6178": "esponj",
        "6179": "flamenco ",
        "6180": "Al final del d\u00eda, ",
        "6181": "Golpe",
        "6182": "bolsillo ",
        "6183": "\n*",
        "6184": "Lug",
        "6185": "get",
        "6186": ". Hay que ",
        "6187": "\n\nLucas ",
        "6188": "orque no ",
        "6189": "la vi",
        "6190": "no hab\u00eda ",
        "6191": "tonto",
        "6192": ", pero ahora ",
        "6193": "te ayudar",
        "6194": "acab",
        "6195": "conver",
        "6196": "ley",
        "6197": "los sigui",
        "6198": "\u00f3.\n\n\"\u00a1",
        "6199": "lic\u00f3p",
        "6200": ". \u00a1Pum! El ",
        "6201": "salen ",
        "6202": "en la play",
        "6203": "Era el ",
        "6204": "grande. \u00a1",
        "6205": "despens",
        "6206": "hier",
        "6207": "tubo ",
        "6208": "! \u2014grita el ni\u00f1o.\n\n",
        "6209": "\u00falti",
        "6210": "er\u00eda, hab\u00eda un ",
        "6211": "\n\nEn un parque",
        "6212": "Quiero un ",
        "6213": "asustad",
        "6214": "abraza a ",
        "6215": "Yo puedo ",
        "6216": "Yo tengo ",
        "6217": "! \u2014dijo el hombre",
        "6218": "trozo ",
        "6219": "quieres",
        "6220": "Esta ",
        "6221": "o.\n\nEl hombre ",
        "6222": "aris",
        "6223": "?\", pregunt\u00f3. El ",
        "6224": "sus amigos",
        "6225": "Miau",
        "6226": "m\u00e1gico ",
        "6227": "vac\u00eda. ",
        "6228": "enfermo",
        "6229": "y se fue",
        "6230": "ya era tarde. El ni\u00f1o ",
        "6231": "fr\u00edo ",
        "6232": "nunca volvi\u00f3 a ",
        "6233": "sombrero",
        "6234": ".\n\n(149 palabras)",
        "6235": "or favor ",
        "6236": "es para ti",
        "6237": "basura",
        "6238": "trampa",
        "6239": "a casa",
        "6240": "van al ",
        "6241": "coraz\u00f3n",
        "6242": "gasolin",
        "6243": "tortug",
        "6244": "Sus amigos ",
        "6245": "conflicto)*",
        "6246": "izquier",
        "6247": "museo ",
        "6248": "La Tor",
        "6249": "equivoc",
        "6250": "Busca ",
        "6251": "Lugar: ",
        "6252": "Apr",
        "6253": "S\u00e9 ",
        "6254": "dio",
        "6255": "se levant",
        "6256": "se va ",
        "6257": "se siente ",
        "6258": "rota ",
        "6259": "es esto",
        "6260": "de \u00e9l",
        "6261": ", por favor ",
        "6262": "peli",
        "6263": "que ser ",
        "6264": "pidi",
        "6265": "su amig",
        "6266": "tener",
        "6267": "salta ",
        "6268": "escuchar ",
        "6269": ".\nPlot twist: La ",
        "6270": "mono se ",
        "6271": "en la calle",
        "6272": "vernad",
        "6273": "mpiez",
        "6274": "Los peces ",
        "6275": "est\u00e1 roto. ",
        "6276": ", pero el gato ",
        "6277": "torre",
        "6278": "fuerte. El ni\u00f1o ",
        "6279": "me abraz",
        "6280": "ve a ",
        "6281": "campa\u00f1",
        "6282": "nada.\n\n",
        "6283": "es bueno para ",
        "6284": "aprendi\u00f3 que ayudar ",
        "6285": "Conflicto: El ",
        "6286": "\u00c9l ten\u00eda un ",
        "6287": "abri\u00f3 su ",
        "6288": "se rompi\u00f3 y ",
        "6289": "?\n\nEl ni\u00f1o ",
        "6290": "mira a ",
        "6291": "!\", grit\u00f3. Su mam\u00e1 ",
        "6292": "sucio",
        "6293": "pelota roj",
        "6294": "como si ",
        "6295": "divertido.\n\n",
        "6296": "lavadora ",
        "6297": "No es un ",
        "6298": ".\n\nPlot twist: El perro ",
        "6299": "duende ",
        "6300": "voz",
        "6301": "Aprendieron ",
        "6302": "Puede ",
        "6303": "helado de ",
        "6304": "llena de ",
        "6305": "polic\u00ed",
        "6306": "guardar",
        "6307": "!\", pens\u00f3.\n\n",
        "6308": "perro. ",
        "6309": "azulej",
        "6310": "Dialogue:\n\u2014",
        "6311": "pantall",
        "6312": "!\", grit\u00f3 el ni\u00f1o. ",
        "6313": "piedr",
        "6314": ", puede ",
        "6315": "S\u00ed, pero no lo ",
        "6316": "elefante",
        "6317": "ojos grandes",
        "6318": "t\u00fanel",
        "6319": "Corri\u00f3 hacia el ",
        "6320": "ense\u00f1\u00f3 a ",
        "6321": "pel\u00edcul",
        "6322": "gallinas ",
        "6323": "pa\u00f1uelo ",
        "6324": "volvi\u00f3. Esta vez, ",
        "6325": "tienda de campa\u00f1",
        "6326": "todos los d\u00edas. ",
        "6327": "peine ",
        "6328": "Pero... \u00a1oh no! El ",
        "6329": "carreter",
        "6330": "computadora ",
        "6331": "perro grande. El perro ",
        "6332": "termin\u00f3 mal",
        "6333": "camiseta ",
        "6334": ".. ",
        "6335": "Agar",
        "6336": "Cer",
        "6337": "Lle",
        "6338": "M\u00e1s ",
        "6339": "a.\n- ",
        "6340": "cap",
        "6341": "dud",
        "6342": "m\u00f3",
        "6343": "sart",
        "6344": "El faro ",
        "6345": "enor",
        "6346": "\u00f3 en una ",
        "6347": "\u2014. La ",
        "6348": "y los ",
        "6349": "algui",
        "6350": "aba. \"\u00a1",
        "6351": "se oscureci",
        "6352": "lo us",
        "6353": "tija ",
        "6354": "ar lo que ",
        "6355": ", pero Lucas ",
        "6356": "cino ",
        "6357": "No import",
        "6358": "\u2014dijo Luis",
        "6359": "corbata ",
        "6360": "a.\n\nLa mam\u00e1 ",
        "6361": "le gust",
        "6362": "quito",
        "6363": "quilla ",
        "6364": "poder",
        "6365": "carne",
        "6366": "Era muy ",
        "6367": "a no era ",
        "6368": "do. \u00a1",
        "6369": "buenas",
        "6370": "raz\u00f3n. ",
        "6371": "o. \"\u00a1No ",
        "6372": "taz",
        "6373": ", pero el p\u00e1jaro ",
        "6374": "brillant",
        "6375": "El ni\u00f1o se puso ",
        "6376": "!\", dijo. Quer\u00eda ",
        "6377": "El ni\u00f1o llor\u00f3, pero ",
        "6378": "!\"\n\nPero ",
        "6379": "barquito ",
        "6380": "no escuch\u00f3. Corri\u00f3 y ",
        "6381": "a se asust",
        "6382": "cebra ",
        "6383": "dibuj\u00f3 un ",
        "6384": "aparece ",
        "6385": "dulcer\u00eda ",
        "6386": "Mientras ",
        "6387": "\" y ",
        "6388": "\u00f3.\n\n\u2014\u00a1No",
        "6389": "sonri\u00f3. Pero ",
        "6390": "pintar ",
        "6391": "peligroso. ",
        "6392": "banan",
        "6393": "a. Pero la ",
        "6394": "Despu\u00e9s, el ",
        "6395": "hoja ",
        "6396": ". Era muy ",
        "6397": "cultur",
        "6398": "estrellas. ",
        "6399": "gatito",
        "6400": "c\u00f3mo",
        "6401": "\u2014dijo el ni\u00f1o.\n\nEl ",
        "6402": "helic\u00f3p",
        "6403": ", puede ser ",
        "6404": "T\u00fa no ",
        "6405": "arco\u00edris",
        "6406": "agujer",
        "6407": "perdido\n\nEn una ",
        "6408": "har\u00e9 ",
        "6409": "gritaron: \"\u00a1",
        "6410": "pasill",
        "6411": "que viv\u00eda cerca de un ",
        "6412": "ciervo ",
        "6413": "ovej",
        "6414": "Inten",
        "6415": "veterinario ",
        "6416": "refugio ",
        "6417": "celular ",
        "6418": "broma",
        "6419": "Au",
        "6420": "Gan",
        "6421": "bra",
        "6422": "hh",
        "6423": "oper",
        "6424": "sud",
        "6425": "sagr",
        "6426": "aremos ",
        "6427": "\u00f3 tambi\u00e9n",
        "6428": "rieron y ",
        "6429": "o. Lo ",
        "6430": "no cre",
        "6431": "no habl",
        "6432": "no estab",
        "6433": "os son ",
        "6434": "se fueron ",
        "6435": "se llen\u00f3 de ",
        "6436": "se convirti\u00f3 en un ",
        "6437": "lo toc",
        "6438": "instr",
        "6439": "es m\u00eda",
        "6440": "de las ",
        "6441": "tej",
        "6442": "vidri",
        "6443": "tierr",
        "6444": "recog",
        "6445": "estamos ",
        "6446": "No corras",
        "6447": "gres",
        "6448": "era m\u00e1gico",
        "6449": "!\n\nLucas ",
        "6450": "Leo y ",
        "6451": "cuento ",
        "6452": "irri",
        "6453": "otras ",
        "6454": "carnicer",
        "6455": "!\", grit\u00f3 el ni\u00f1o.\n\n",
        "6456": "taco",
        "6457": "\n\nEn un jard\u00edn ",
        "6458": ".\n\nMoral: Ser ",
        "6459": "marr",
        "6460": "flan ",
        "6461": "Yo llor",
        "6462": "jugar conmigo",
        "6463": "encontr\u00f3 el ",
        "6464": "a de picnic",
        "6465": "Un ni\u00f1o lo vio y ",
        "6466": "Hay una ",
        "6467": "\u2014dijo el pap\u00e1",
        "6468": "maestra.\n\n",
        "6469": "saltar ",
        "6470": "sin pens",
        "6471": "prepar",
        "6472": "a un lugar ",
        "6473": "\n\nHab\u00eda una vez un ni\u00f1o llamado Leo. ",
        "6474": "tuvo miedo ",
        "6475": "ir a la ",
        "6476": "minu",
        "6477": "casa de la ",
        "6478": "estaban tristes",
        "6479": "de pronto, \u00a1",
        "6480": "Soy el ",
        "6481": "!\", dice el ",
        "6482": "arreglarlo",
        "6483": "Hola! ",
        "6484": "despu\u00e9s de ",
        "6485": "Primero ",
        "6486": "arroz ",
        "6487": ".\n\n\u2014Mam\u00e1, \u00bfqu\u00e9 ",
        "6488": "just",
        "6489": "Eres muy buen",
        "6490": "No la toques",
        "6491": "hamburguesa ",
        "6492": "es m\u00e1s importante ",
        "6493": "laboratori",
        "6494": "Perd\u00f3n, ",
        "6495": "bajo una mes",
        "6496": "Yo tambi\u00e9n quiero ",
        "6497": "mensaje ",
        "6498": "Hizo ",
        "6499": "acei",
        "6500": "iglesi",
        "6501": "farmaci",
        "6502": "tomar cosas que no ",
        "6503": "sin permis",
        "6504": "insecto ",
        "6505": "nene ",
        "6506": "rayos X",
        "6507": "instrum",
        "6508": ").\n- Conflicto: ",
        "6509": "?\".\n\n",
        "6510": "ato ",
        "6511": "a\". ",
        "6512": "ca. La ",
        "6513": "len",
        "6514": "mom",
        "6515": "sar",
        "6516": "tab",
        "6517": "vai",
        "6518": "erta ",
        "6519": "El J",
        "6520": "al. ",
        "6521": "alto y ",
        "6522": "aba. El ",
        "6523": ": *",
        "6524": "no est\u00e1 bien",
        "6525": "se llev",
        "6526": "se calm",
        "6527": "\u00f3. Quer\u00eda ",
        "6528": "as de ",
        "6529": "tigre",
        "6530": "o.\n\nMam\u00e1 ",
        "6531": "La pelota ",
        "6532": "La Fi",
        "6533": "minigolf",
        "6534": "or mor",
        "6535": "veget",
        "6536": "a.\n\nForeshadowing: El ",
        "6537": "musi",
        "6538": "come",
        "6539": "mode",
        "6540": "agua, ",
        "6541": "untami",
        "6542": ".\"\n\nAna ",
        "6543": "desay",
        "6544": "horno ",
        "6545": "not",
        "6546": "noctur",
        "6547": "o. \"\u00a1Ayuda",
        "6548": "dice el ",
        "6549": "dice que ",
        "6550": "llamado Leo ",
        "6551": "! \u2014dijo el perro",
        "6552": "otra vez. \u00a1",
        "6553": "a se enoj",
        "6554": "meloco",
        "6555": "qued\u00f3 vac\u00ed",
        "6556": "se ri\u00f3. \"",
        "6557": "habi",
        "6558": "se rompieron",
        "6559": "gancho ",
        "6560": "otro ni\u00f1o.\n\n",
        "6561": "tocar la ",
        "6562": "mira su ",
        "6563": "Come ",
        "6564": "limpiar el ",
        "6565": "ver la ",
        "6566": "entendi\u00f3. \"",
        "6567": "mentir",
        "6568": "problema ",
        "6569": "Me duele ",
        "6570": "planeta ",
        "6571": "pegam",
        "6572": "galleta ",
        "6573": "r\u00e1pido, pero ",
        "6574": "los d\u00edas, el ",
        "6575": "nadie lo escuch\u00f3. El ",
        "6576": "Plaf! El ",
        "6577": "De pronto, el ni\u00f1o vio un ",
        "6578": "har\u00e1 ",
        "6579": "piensa: \"",
        "6580": "Espera",
        "6581": "premio ",
        "6582": "dormir ",
        "6583": "dientes",
        "6584": "\u00bfD\u00f3nde est\u00e1 el ",
        "6585": "chocolate ",
        "6586": "lagartij",
        "6587": "antes del ",
        "6588": "casita ",
        "6589": "palomita ",
        "6590": "no era malo, solo ",
        "6591": "b\u00faho ",
        "6592": "hambre y ",
        "6593": "Camin",
        "6594": "alrededor",
        "6595": "tri\u00e1ngulo ",
        "6596": "desde el principi",
        "6597": "bondad ",
        "6598": "m\u00f3vi",
        "6599": "C\u00f3",
        "6600": "Obe",
        "6601": "Plot",
        "6602": "Tro",
        "6603": "Twist",
        "6604": "bel",
        "6605": "p\u00e1",
        "6606": "r\u00f3",
        "6607": "o te ",
        "6608": "erg",
        "6609": ".\n\nLolo ",
        "6610": "arrep",
        "6611": "y dijo:\n\u2014",
        "6612": "ni\u00f1o. Pero ",
        "6613": "amab",
        "6614": "o. Mam\u00e1 ",
        "6615": "se acer",
        "6616": "lo hi",
        "6617": "\"\u00a1Quiero ",
        "6618": "oso.\n\n",
        "6619": "esta vez, ",
        "6620": "ol\u00eda ",
        "6621": "dijo \"",
        "6622": "No ten\u00eda ",
        "6623": ".\n\n\u2014Gracias ",
        "6624": "era malo. ",
        "6625": "Leo. El ",
        "6626": "Lucas y su mam\u00e1 ",
        "6627": "escuela",
        "6628": "m\u00e1ti",
        "6629": "en el bosque",
        "6630": "licu",
        "6631": "p\u00e1jaros",
        "6632": ".\n\n\u2014\u00a1Hola, ",
        "6633": "para ayudar",
        "6634": "molino ",
        "6635": "Ana.\n\nEl ",
        "6636": ". \"\u00a1No",
        "6637": "triste. El ni\u00f1o ",
        "6638": "desas",
        "6639": "desorden",
        "6640": "\u00f3 la pelota ",
        "6641": "gota ",
        "6642": ", pero el hombre ",
        "6643": "tortilla ",
        "6644": "aprendi\u00f3 algo ",
        "6645": "audi",
        "6646": "auto. ",
        "6647": "trom",
        "6648": "!\", dijo. El ni\u00f1o ",
        "6649": "ayudaron",
        "6650": "no escuch\u00f3. Se ",
        "6651": "a. \u00a1Pum! ",
        "6652": "o. \u00a1Qu\u00e9 ",
        "6653": "Si te ",
        "6654": "fuego",
        "6655": "\", dijo ell",
        "6656": "Ahora el ",
        "6657": "a.\n\n\u2014\u00a1Mira, mam\u00e1",
        "6658": "todo era ",
        "6659": "dec\u00eda ",
        "6660": "caminar",
        "6661": "gues ",
        "6662": "jefe",
        "6663": "plicaci\u00f3n",
        "6664": "quieto ",
        "6665": "comida. ",
        "6666": "t\u00edtere ",
        "6667": "asiente",
        "6668": "sonri\u00f3. \u2014S\u00ed, es ",
        "6669": "Dame tu ",
        "6670": "sol brillaba. ",
        "6671": "Te dije que ",
        "6672": "cuchar",
        "6673": "hablaron ",
        "6674": "\u2014contest\u00f3 ",
        "6675": "le dio un abrazo. \"",
        "6676": "alberca ",
        "6677": "Adjetivo: ",
        "6678": "ballen",
        "6679": "insisti",
        "6680": "televisi",
        "6681": "f\u00fatbol",
        "6682": "Twist: ",
        "6683": " Twist: ",
        "6684": "dar ",
        "6685": "h\u00e9",
        "6686": "jeta ",
        "6687": "mant",
        "6688": "vari",
        "6689": "a jugar",
        "6690": "El volc\u00e1n ",
        "6691": "la maestra ",
        "6692": "o. Su ",
        "6693": "se de",
        "6694": "es con ",
        "6695": "La I",
        "6696": "\u00e9. Mam\u00e1 ",
        "6697": "pico ",
        "6698": "perez",
        "6699": "!\", ladr",
        "6700": "Leo. \"",
        "6701": "radio ",
        "6702": "con cuidado. ",
        "6703": "los p\u00e1jaros ",
        "6704": "\u00f3.\n\nDe pronto, ",
        "6705": "dos ni\u00f1os ",
        "6706": "\u00f3 a una ",
        "6707": "agua.\n\n\u2014",
        "6708": "sonris",
        "6709": "Es peligroso",
        "6710": "! \u00a1La ",
        "6711": ", pero no lo encontr",
        "6712": "ensay",
        "6713": "soldad",
        "6714": ". Pero entonces, ",
        "6715": "a. \"\u00a1Ay",
        "6716": "a. \"\u00a1Es ",
        "6717": "m\u00e1s. ",
        "6718": "o se movi",
        "6719": "rojo. El ",
        "6720": "jugar en el ",
        "6721": ".\n\nEl doctor ",
        "6722": "!\", dijo. Pero la ",
        "6723": "volvi\u00f3 con ",
        "6724": "a. La pelota ",
        "6725": "jugaba con una ",
        "6726": "orilla ",
        "6727": "o.\n\nMoral: Hay que ",
        "6728": "Tom\u00f3 una ",
        "6729": "edor ",
        "6730": "cuidadoso ",
        "6731": "huy",
        "6732": "acerc\u00f3 y ",
        "6733": "\u00eda. Pero ",
        "6734": "Aprendi\u00f3 que ser ",
        "6735": "zapatos",
        "6736": "!\". Pero el ",
        "6737": "antes de que el ",
        "6738": "fundi",
        "6739": "es mejor que ser ",
        "6740": "ya estaba ",
        "6741": "flore",
        "6742": "rojo y brillante",
        "6743": "Rosa ",
        "6744": "error",
        "6745": "arroyo ",
        "6746": "escoba ",
        "6747": "Mira lo que ",
        "6748": "seguir",
        "6749": "diferente",
        "6750": "\n\n*Incluye ",
        "6751": "todo el d\u00ed",
        "6752": "estuf",
        "6753": "viol\u00edn ",
        "6754": "choc\u00f3 contr",
        "6755": "Foreshadowing*: ",
        "6756": "Abri\u00f3 la ",
        "6757": ".\n- Verbos",
        "6758": "bomberos ",
        "6759": "cig\u00fce\u00f1a ",
        "6760": "nervi",
        "6761": "pasamanos ",
        "6762": "El Mo",
        "6763": "diamante ",
        "6764": "Por favor, ",
        "6765": "naranj",
        "6766": "chaleco ",
        "6767": "adelant",
        "6768": "peligr",
        "6769": "Plot Twist: ",
        "6770": "h\u00e9ro",
        "6771": "Cho",
        "6772": "aho",
        "6773": "cado ",
        "6774": "do. El ",
        "6775": "hir",
        "6776": "\u00c1",
        "6777": ".\n\nConflict: El ",
        "6778": "ard\u00ed",
        "6779": "envi",
        "6780": "ni\u00f1os.\n\n",
        "6781": "la mir",
        "6782": "no quer\u00ed",
        "6783": "toalla ",
        "6784": "o.\n\nForeshadowing: ",
        "6785": "pete ",
        "6786": "pide ",
        "6787": "o, un ",
        "6788": "teni",
        "6789": "\u00f3 y cay\u00f3 al ",
        "6790": "Lucas al ",
        "6791": "escu",
        "6792": "soni",
        "6793": "estaba feliz. ",
        "6794": ".\"\n- ",
        "6795": "pupi",
        "6796": "puente",
        "6797": "corri\u00f3. \"",
        "6798": "casco ",
        "6799": "para m\u00ed",
        "6800": "\", \"",
        "6801": "Los amigos ",
        "6802": "cosas.\n\n",
        "6803": "mucho, ",
        "6804": "entr\u00f3. \"\u00a1",
        "6805": "caz",
        "6806": "maestro",
        "6807": "tarjeta ",
        "6808": "grande y bonito. ",
        "6809": "!\" Pero el ",
        "6810": "ve algo rar",
        "6811": "volvieron ",
        "6812": "colori",
        "6813": "o. \u00a1El ",
        "6814": "bols",
        "6815": "boler",
        "6816": "a. La ni\u00f1a ",
        "6817": "?\", pregun",
        "6818": "oscuri",
        "6819": "a. \"No ",
        "6820": "se rio y ",
        "6821": "\", dijo mam\u00e1.\n\n",
        "6822": "escondite ",
        "6823": "hizo m\u00e1s ",
        "6824": "a.\n\n\u2014\u00a1Ayuda",
        "6825": "no se mov",
        "6826": "enfermar",
        "6827": "juguetes y ",
        "6828": "pintar",
        "6829": "Lolo, ",
        "6830": "se sinti\u00f3 triste.\n\n",
        "6831": "lavador",
        "6832": "juntos. ",
        "6833": "Pipo. ",
        "6834": "Todo est\u00e1 bien",
        "6835": "bot\u00f3n",
        "6836": "polv",
        "6837": "polvo ",
        "6838": "blanco ",
        "6839": "responde",
        "6840": "abuela",
        "6841": "Gracias, mam\u00e1",
        "6842": "es mejor que pelear",
        "6843": "descu",
        "6844": "No me comas",
        "6845": "t\u00edo ",
        "6846": "univer",
        "6847": "Eso no es ",
        "6848": ".\n\nConflicto: El ",
        "6849": "ve\u00eda un ",
        "6850": "f\u00e1ci",
        "6851": "cuarto de ",
        "6852": "di\u00e1logo ",
        "6853": "dif\u00edci",
        "6854": "sopla ",
        "6855": "di\u00e1logo, giro inesperado, presagi",
        "6856": "acep",
        "6857": "se derriti",
        "6858": "jirafa ",
        "6859": "taller ",
        "6860": "canica ",
        "6861": "Devu\u00e9lve",
        "6862": "niebla ",
        "6863": "? \u00a1",
        "6864": "Doc",
        "6865": "Porque no ",
        "6866": "Sab",
        "6867": "bab",
        "6868": "car ",
        "6869": "eli",
        "6870": "empiez",
        "6871": "jito",
        "6872": "xe",
        "6873": "a otra vez",
        "6874": "er\u00e1 ",
        "6875": "ni\u00f1o.",
        "6876": ": el ",
        "6877": "no entendi\u00f3. ",
        "6878": "ada y ",
        "6879": "ado.\n\n\u2014",
        "6880": "toca ",
        "6881": "\u00f3. Nadie ",
        "6882": "piano ",
        "6883": "ayuntami",
        "6884": ".\n\n\u2014Mam\u00e1, \u00a1",
        "6885": "\u2014dijo ell",
        "6886": "bota ",
        "6887": "a.\n\n\"",
        "6888": "a.\n\nLeo ",
        "6889": "a.\n\nFin",
        "6890": "Leo vio un ",
        "6891": "mall",
        "6892": "perro peque\u00f1o ",
        "6893": "perro llamado ",
        "6894": "hab\u00eda muchos ",
        "6895": "cascada ",
        "6896": "moto ",
        "6897": "sonri\u00f3.\n\n\u2014\u00a1",
        "6898": ".\"\n\nPablo ",
        "6899": "! \u00a1Un ",
        "6900": "despier",
        "6901": "hibi",
        "6902": "!\", dijo.\n\nEl ni\u00f1o ",
        "6903": "capit",
        "6904": "mani",
        "6905": "Mira, Lucas",
        "6906": ". Pero ya era tarde",
        "6907": "a. El agua ",
        "6908": "De pronto, el viento sopl\u00f3 fuerte",
        "6909": "El ni\u00f1o llor\u00f3. \"\u00a1",
        "6910": "solo en el ",
        "6911": "a se fue ",
        "6912": "lleg\u00f3 al ",
        "6913": "mez",
        "6914": "all\u00ed ",
        "6915": "a era muy ",
        "6916": "\u00f3 su man",
        "6917": "terraz",
        "6918": "se rin",
        "6919": "Lino ",
        "6920": "Lila.\n\n",
        "6921": "lejos. El ni\u00f1o ",
        "6922": "tiene miedo. ",
        "6923": "guardi",
        "6924": "viejo. ",
        "6925": "ladr\u00f3n ",
        "6926": "intentar",
        "6927": "boste",
        "6928": "entonces",
        "6929": "Su mam\u00e1 lo abraz\u00f3.\n\n\u2014",
        "6930": "eropuer",
        "6931": "all\u00ed. ",
        "6932": "Lina. ",
        "6933": "Su mam\u00e1 le dijo: \"\u00a1",
        "6934": "corri\u00f3 a ayudar",
        "6935": "pantano ",
        "6936": "felices a los dem\u00e1s",
        "6937": "hacia \u00e9l",
        "6938": "at\u00f3mi",
        "6939": "Ten\u00eda una ",
        "6940": "cl\u00ed",
        "6941": "hagas eso",
        "6942": "Claro, ",
        "6943": "descansar",
        "6944": ".\n\n\u2014\u00a1Mira, mam\u00e1! \u2014dijo el ni\u00f1o\u2014. \u00a1",
        "6945": "Zas! ",
        "6946": "zanahoria ",
        "6947": "fantasma ",
        "6948": "lluvia ",
        "6949": "lagartija ",
        "6950": "Foreshadowing: \"",
        "6951": "verde y ",
        "6952": "! \u2014dijo Lucas\u2014. \u00a1",
        "6953": "Margarita ",
        "6954": "c\u00edrculo ",
        "6955": "im\u00e1n ",
        "6956": "recicl",
        "6957": "tel\u00e9fono ",
        "6958": "vainill",
        "6959": "Baj",
        "6960": "Oy",
        "6961": "Rom",
        "6962": "rug",
        "6963": "rami",
        "6964": "s\u00e1",
        "6965": "t\u00edn ",
        "6966": "a del ",
        "6967": "a poco",
        "6968": ", y el ",
        "6969": ".\n\nDe pronto, un ",
        "6970": "El lago ",
        "6971": "orca ",
        "6972": "nico",
        "6973": "\u2014pregunt",
        "6974": "y dijo: \"\u00a1",
        "6975": "almo",
        "6976": "ni\u00f1o. La ",
        "6977": "o. Los ni\u00f1os ",
        "6978": "adul",
        "6979": "se queda ",
        "6980": "inm\u00f3vi",
        "6981": "es divertido",
        "6982": ", pri",
        "6983": "tipi",
        "6984": "onci",
[...]
